{
  "model_type": "AGBPETokenizer-v4",
  "date": "2025-08-01 01:29:30",
  "config": {
    "vocab_size": 18000,
    "min_frequency": 2,
    "special_tokens": [
      "<pad>",
      "<unk>",
      "<bos>",
      "<eos>"
    ],
    "attention_dim": 768,
    "num_heads": 12,
    "num_encoder_layers": 6,
    "ffn_dim_multiplier": 4,
    "dropout_rate": 0.1,
    "attention_layer_weights": [
      0.05,
      0.1,
      0.2,
      0.3,
      0.4,
      0.5
    ],
    "context_window": 512,
    "attention_update_freq": 1000,
    "attention_weight": 1000.0,
    "attention_context_sample_size": 100000,
    "save_every": 1000
  },
  "stats": {
    "vocab_size": 18000,
    "num_merges": 9055
  },
  "special_tokens": {
    "<pad>": 0,
    "<unk>": 1,
    "<bos>": 2,
    "<eos>": 3
  },
  "vocab": {
    "<pad>": 0,
    "<unk>": 1,
    "<bos>": 2,
    "<eos>": 3,
    " ": 4,
    "!": 5,
    "\"": 6,
    "#": 7,
    "$": 8,
    "%": 9,
    "&": 10,
    "'": 11,
    "(": 12,
    ")": 13,
    "*": 14,
    "+": 15,
    ",": 16,
    "-": 17,
    ".": 18,
    "/": 19,
    "0": 20,
    "1": 21,
    "2": 22,
    "3": 23,
    "4": 24,
    "5": 25,
    "6": 26,
    "7": 27,
    "8": 28,
    "9": 29,
    ":": 30,
    ";": 31,
    "<": 32,
    "=": 33,
    ">": 34,
    "?": 35,
    "@": 36,
    "A": 37,
    "B": 38,
    "C": 39,
    "D": 40,
    "E": 41,
    "F": 42,
    "G": 43,
    "H": 44,
    "I": 45,
    "J": 46,
    "K": 47,
    "L": 48,
    "M": 49,
    "N": 50,
    "O": 51,
    "P": 52,
    "Q": 53,
    "R": 54,
    "S": 55,
    "T": 56,
    "U": 57,
    "V": 58,
    "W": 59,
    "X": 60,
    "Y": 61,
    "Z": 62,
    "[": 63,
    "\\": 64,
    "]": 65,
    "^": 66,
    "_": 67,
    "`": 68,
    "a": 69,
    "b": 70,
    "c": 71,
    "d": 72,
    "e": 73,
    "f": 74,
    "g": 75,
    "h": 76,
    "i": 77,
    "j": 78,
    "k": 79,
    "l": 80,
    "m": 81,
    "n": 82,
    "o": 83,
    "p": 84,
    "q": 85,
    "r": 86,
    "s": 87,
    "t": 88,
    "u": 89,
    "v": 90,
    "w": 91,
    "x": 92,
    "y": 93,
    "z": 94,
    "{": 95,
    "|": 96,
    "}": 97,
    "~": 98,
    "¡": 99,
    "¢": 100,
    "£": 101,
    "¤": 102,
    "¥": 103,
    "¦": 104,
    "§": 105,
    "©": 106,
    "«": 107,
    "¬": 108,
    "®": 109,
    "°": 110,
    "±": 111,
    "·": 112,
    "»": 113,
    "¿": 114,
    "À": 115,
    "Á": 116,
    "Â": 117,
    "Ã": 118,
    "Ä": 119,
    "Å": 120,
    "Æ": 121,
    "Ç": 122,
    "È": 123,
    "É": 124,
    "Ê": 125,
    "Ë": 126,
    "Ì": 127,
    "Í": 128,
    "Î": 129,
    "Ï": 130,
    "Ð": 131,
    "Ñ": 132,
    "Ò": 133,
    "Ó": 134,
    "Ô": 135,
    "Õ": 136,
    "Ö": 137,
    "×": 138,
    "Ø": 139,
    "Ù": 140,
    "Ú": 141,
    "Û": 142,
    "Ü": 143,
    "Ý": 144,
    "Þ": 145,
    "ß": 146,
    "à": 147,
    "á": 148,
    "â": 149,
    "ã": 150,
    "ä": 151,
    "å": 152,
    "æ": 153,
    "ç": 154,
    "è": 155,
    "é": 156,
    "ê": 157,
    "ë": 158,
    "ì": 159,
    "í": 160,
    "î": 161,
    "ï": 162,
    "ð": 163,
    "ñ": 164,
    "ò": 165,
    "ó": 166,
    "ô": 167,
    "õ": 168,
    "ö": 169,
    "÷": 170,
    "ø": 171,
    "ù": 172,
    "ú": 173,
    "û": 174,
    "ü": 175,
    "ý": 176,
    "þ": 177,
    "ÿ": 178,
    "Ā": 179,
    "ā": 180,
    "Ă": 181,
    "ă": 182,
    "Ą": 183,
    "ą": 184,
    "Ć": 185,
    "ć": 186,
    "Ĉ": 187,
    "ĉ": 188,
    "Ċ": 189,
    "ċ": 190,
    "Č": 191,
    "č": 192,
    "Ď": 193,
    "ď": 194,
    "Đ": 195,
    "đ": 196,
    "Ē": 197,
    "ē": 198,
    "Ĕ": 199,
    "ĕ": 200,
    "Ė": 201,
    "ė": 202,
    "Ę": 203,
    "ę": 204,
    "ě": 205,
    "Ĝ": 206,
    "ĝ": 207,
    "ğ": 208,
    "Ġ": 209,
    "ġ": 210,
    "Ģ": 211,
    "ģ": 212,
    "Ĥ": 213,
    "Ħ": 214,
    "ħ": 215,
    "Ĩ": 216,
    "ĩ": 217,
    "Ī": 218,
    "ī": 219,
    "Ĭ": 220,
    "ĭ": 221,
    "Į": 222,
    "į": 223,
    "İ": 224,
    "ı": 225,
    "Ĵ": 226,
    "ĵ": 227,
    "Ķ": 228,
    "ķ": 229,
    "ĸ": 230,
    "ĺ": 231,
    "Ļ": 232,
    "ļ": 233,
    "Ľ": 234,
    "ľ": 235,
    "Ł": 236,
    "ł": 237,
    "ń": 238,
    "ņ": 239,
    "ň": 240,
    "Ŋ": 241,
    "ŋ": 242,
    "Ō": 243,
    "ō": 244,
    "Ŏ": 245,
    "ŏ": 246,
    "Ő": 247,
    "ő": 248,
    "Œ": 249,
    "œ": 250,
    "ŕ": 251,
    "Ŗ": 252,
    "ŗ": 253,
    "Ř": 254,
    "ř": 255,
    "Ś": 256,
    "ś": 257,
    "Ŝ": 258,
    "ŝ": 259,
    "Ş": 260,
    "ş": 261,
    "Š": 262,
    "š": 263,
    "Ţ": 264,
    "ţ": 265,
    "Ť": 266,
    "ť": 267,
    "ŧ": 268,
    "Ũ": 269,
    "ũ": 270,
    "Ū": 271,
    "ū": 272,
    "Ŭ": 273,
    "ŭ": 274,
    "Ů": 275,
    "ů": 276,
    "Ű": 277,
    "ű": 278,
    "Ų": 279,
    "ų": 280,
    "Ŵ": 281,
    "ŵ": 282,
    "ŷ": 283,
    "Ÿ": 284,
    "Ź": 285,
    "ź": 286,
    "Ż": 287,
    "ż": 288,
    "Ž": 289,
    "ž": 290,
    "ƀ": 291,
    "Ɓ": 292,
    "Ƅ": 293,
    "Ɔ": 294,
    "Ɖ": 295,
    "Ǝ": 296,
    "Ə": 297,
    "Ɛ": 298,
    "Ƒ": 299,
    "ƒ": 300,
    "Ɣ": 301,
    "ƕ": 302,
    "Ɩ": 303,
    "Ɨ": 304,
    "ƛ": 305,
    "Ɯ": 306,
    "Ɲ": 307,
    "ƞ": 308,
    "ơ": 309,
    "Ƣ": 310,
    "Ƥ": 311,
    "Ƨ": 312,
    "Ƭ": 313,
    "Ư": 314,
    "ư": 315,
    "Ƶ": 316,
    "Ʒ": 317,
    "Ƽ": 318,
    "ƽ": 319,
    "ƿ": 320,
    "ǀ": 321,
    "ǁ": 322,
    "ǂ": 323,
    "ǃ": 324,
    "ǎ": 325,
    "ǐ": 326,
    "ǒ": 327,
    "ǔ": 328,
    "ǖ": 329,
    "ǘ": 330,
    "ǚ": 331,
    "ǝ": 332,
    "Ǣ": 333,
    "ǣ": 334,
    "ǥ": 335,
    "Ǧ": 336,
    "ǧ": 337,
    "Ǩ": 338,
    "Ǫ": 339,
    "ǫ": 340,
    "Ǭ": 341,
    "ǭ": 342,
    "ǰ": 343,
    "Ǵ": 344,
    "ǵ": 345,
    "Ƕ": 346,
    "ǹ": 347,
    "Ǽ": 348,
    "Ǿ": 349,
    "ǿ": 350,
    "ȇ": 351,
    "ȍ": 352,
    "Ȕ": 353,
    "ȕ": 354,
    "Ș": 355,
    "ș": 356,
    "Ț": 357,
    "ț": 358,
    "ȝ": 359,
    "ȟ": 360,
    "ȡ": 361,
    "Ȣ": 362,
    "ȣ": 363,
    "ȧ": 364,
    "ȩ": 365,
    "ȯ": 366,
    "Ȳ": 367,
    "ȳ": 368,
    "ȴ": 369,
    "ȵ": 370,
    "ȶ": 371,
    "ȷ": 372,
    "ȼ": 373,
    "Ɂ": 374,
    "ɂ": 375,
    "Ƀ": 376,
    "Ʉ": 377,
    "Ɇ": 378,
    "Ɋ": 379,
    "ɐ": 380,
    "ɑ": 381,
    "ɒ": 382,
    "ɓ": 383,
    "ɔ": 384,
    "ɕ": 385,
    "ɖ": 386,
    "ɗ": 387,
    "ɘ": 388,
    "ə": 389,
    "ɚ": 390,
    "ɛ": 391,
    "ɜ": 392,
    "ɝ": 393,
    "ɞ": 394,
    "ɟ": 395,
    "ɡ": 396,
    "ɢ": 397,
    "ɣ": 398,
    "ɤ": 399,
    "ɥ": 400,
    "ɦ": 401,
    "ɨ": 402,
    "ɩ": 403,
    "ɪ": 404,
    "ɫ": 405,
    "ɬ": 406,
    "ɭ": 407,
    "ɮ": 408,
    "ɯ": 409,
    "ɰ": 410,
    "ɱ": 411,
    "ɲ": 412,
    "ɳ": 413,
    "ɴ": 414,
    "ɵ": 415,
    "ɶ": 416,
    "ɸ": 417,
    "ɹ": 418,
    "ɺ": 419,
    "ɻ": 420,
    "ɽ": 421,
    "ɾ": 422,
    "ʀ": 423,
    "ʁ": 424,
    "ʂ": 425,
    "ʃ": 426,
    "ʄ": 427,
    "ʇ": 428,
    "ʈ": 429,
    "ʉ": 430,
    "ʊ": 431,
    "ʋ": 432,
    "ʌ": 433,
    "ʍ": 434,
    "ʎ": 435,
    "ʏ": 436,
    "ʐ": 437,
    "ʑ": 438,
    "ʒ": 439,
    "ʔ": 440,
    "ʕ": 441,
    "ʙ": 442,
    "ʝ": 443,
    "ʟ": 444,
    "ʣ": 445,
    "ʤ": 446,
    "ʥ": 447,
    "ʦ": 448,
    "ʧ": 449,
    "ʮ": 450,
    "ʯ": 451,
    "ʹ": 452,
    "ʺ": 453,
    "ʻ": 454,
    "ʼ": 455,
    "ʽ": 456,
    "ʾ": 457,
    "ʿ": 458,
    "ˀ": 459,
    "ˁ": 460,
    "ˆ": 461,
    "ˇ": 462,
    "ˈ": 463,
    "ˊ": 464,
    "ˋ": 465,
    "ˌ": 466,
    "ˏ": 467,
    "ː": 468,
    "ˑ": 469,
    "˕": 470,
    "˞": 471,
    "˥": 472,
    "˦": 473,
    "˧": 474,
    "˨": 475,
    "˩": 476,
    "ˮ": 477,
    "̀": 478,
    "́": 479,
    "̂": 480,
    "̃": 481,
    "̄": 482,
    "̅": 483,
    "̆": 484,
    "̇": 485,
    "̈": 486,
    "̉": 487,
    "̊": 488,
    "̋": 489,
    "̌": 490,
    "̍": 491,
    "̏": 492,
    "̐": 493,
    "̑": 494,
    "̓": 495,
    "̔": 496,
    "̕": 497,
    "̗": 498,
    "̚": 499,
    "̜": 500,
    "̝": 501,
    "̞": 502,
    "̟": 503,
    "̠": 504,
    "̣": 505,
    "̤": 506,
    "̥": 507,
    "̦": 508,
    "̧": 509,
    "̨": 510,
    "̩": 511,
    "̪": 512,
    "̭": 513,
    "̮": 514,
    "̯": 515,
    "̰": 516,
    "̱": 517,
    "̲": 518,
    "̴": 519,
    "̵": 520,
    "̶": 521,
    "̽": 522,
    "͈": 523,
    "͏": 524,
    "͘": 525,
    "͜": 526,
    "͟": 527,
    "͡": 528,
    "Ͱ": 529,
    "Ͳ": 530,
    "ͳ": 531,
    "Ͷ": 532,
    "ͻ": 533,
    "Ϳ": 534,
    "Ά": 535,
    "Έ": 536,
    "Ή": 537,
    "Ί": 538,
    "Ό": 539,
    "Ύ": 540,
    "ΐ": 541,
    "Α": 542,
    "Β": 543,
    "Γ": 544,
    "Δ": 545,
    "Ε": 546,
    "Ζ": 547,
    "Η": 548,
    "Θ": 549,
    "Ι": 550,
    "Κ": 551,
    "Λ": 552,
    "Μ": 553,
    "Ν": 554,
    "Ξ": 555,
    "Ο": 556,
    "Π": 557,
    "Ρ": 558,
    "Σ": 559,
    "Τ": 560,
    "Υ": 561,
    "Φ": 562,
    "Χ": 563,
    "Ψ": 564,
    "Ω": 565,
    "Ϋ": 566,
    "ά": 567,
    "έ": 568,
    "ή": 569,
    "ί": 570,
    "ΰ": 571,
    "α": 572,
    "β": 573,
    "γ": 574,
    "δ": 575,
    "ε": 576,
    "ζ": 577,
    "η": 578,
    "θ": 579,
    "ι": 580,
    "κ": 581,
    "λ": 582,
    "μ": 583,
    "ν": 584,
    "ξ": 585,
    "ο": 586,
    "π": 587,
    "ρ": 588,
    "ς": 589,
    "σ": 590,
    "τ": 591,
    "υ": 592,
    "φ": 593,
    "χ": 594,
    "ψ": 595,
    "ω": 596,
    "ϊ": 597,
    "ό": 598,
    "ύ": 599,
    "ώ": 600,
    "Ϗ": 601,
    "ϗ": 602,
    "Ϙ": 603,
    "Ϛ": 604,
    "ϛ": 605,
    "Ϝ": 606,
    "ϝ": 607,
    "ϟ": 608,
    "ϡ": 609,
    "ϣ": 610,
    "Ϥ": 611,
    "ϥ": 612,
    "Ϩ": 613,
    "ϩ": 614,
    "Ϫ": 615,
    "ϫ": 616,
    "ϯ": 617,
    "ϳ": 618,
    "϶": 619,
    "Ϸ": 620,
    "ϸ": 621,
    "Ϻ": 622,
    "ϼ": 623,
    "Ё": 624,
    "Ђ": 625,
    "Ѓ": 626,
    "Є": 627,
    "Ѕ": 628,
    "І": 629,
    "Ї": 630,
    "Ј": 631,
    "Љ": 632,
    "Њ": 633,
    "Ћ": 634,
    "Ќ": 635,
    "Ѝ": 636,
    "Ў": 637,
    "Џ": 638,
    "А": 639,
    "Б": 640,
    "В": 641,
    "Г": 642,
    "Д": 643,
    "Е": 644,
    "Ж": 645,
    "З": 646,
    "И": 647,
    "Й": 648,
    "К": 649,
    "Л": 650,
    "М": 651,
    "Н": 652,
    "О": 653,
    "П": 654,
    "Р": 655,
    "С": 656,
    "Т": 657,
    "У": 658,
    "Ф": 659,
    "Х": 660,
    "Ц": 661,
    "Ч": 662,
    "Ш": 663,
    "Щ": 664,
    "Ъ": 665,
    "Ы": 666,
    "Ь": 667,
    "Э": 668,
    "Ю": 669,
    "Я": 670,
    "а": 671,
    "б": 672,
    "в": 673,
    "г": 674,
    "д": 675,
    "е": 676,
    "ж": 677,
    "з": 678,
    "и": 679,
    "й": 680,
    "к": 681,
    "л": 682,
    "м": 683,
    "н": 684,
    "о": 685,
    "п": 686,
    "р": 687,
    "с": 688,
    "т": 689,
    "у": 690,
    "ф": 691,
    "х": 692,
    "ц": 693,
    "ч": 694,
    "ш": 695,
    "щ": 696,
    "ъ": 697,
    "ы": 698,
    "ь": 699,
    "э": 700,
    "ю": 701,
    "я": 702,
    "ѐ": 703,
    "ё": 704,
    "ђ": 705,
    "ѓ": 706,
    "є": 707,
    "ѕ": 708,
    "і": 709,
    "ї": 710,
    "ј": 711,
    "љ": 712,
    "њ": 713,
    "ћ": 714,
    "ќ": 715,
    "ѝ": 716,
    "ў": 717,
    "џ": 718,
    "Ѡ": 719,
    "ѡ": 720,
    "Ѣ": 721,
    "ѣ": 722,
    "ѥ": 723,
    "Ѧ": 724,
    "ѧ": 725,
    "Ѩ": 726,
    "ѩ": 727,
    "Ѫ": 728,
    "ѫ": 729,
    "Ѭ": 730,
    "ѭ": 731,
    "ѳ": 732,
    "Ѵ": 733,
    "ѵ": 734,
    "Ѷ": 735,
    "ѷ": 736,
    "Ѻ": 737,
    "ѻ": 738,
    "Ѽ": 739,
    "ѽ": 740,
    "Ѿ": 741,
    "ѿ": 742,
    "҃": 743,
    "҄": 744,
    "҅": 745,
    "҆": 746,
    "҇": 747,
    "҉": 748,
    "Ҋ": 749,
    "ҋ": 750,
    "ҍ": 751,
    "Ҏ": 752,
    "ҏ": 753,
    "Ґ": 754,
    "ґ": 755,
    "Ғ": 756,
    "ғ": 757,
    "Ҕ": 758,
    "ҕ": 759,
    "Җ": 760,
    "җ": 761,
    "Ҙ": 762,
    "ҙ": 763,
    "Қ": 764,
    "қ": 765,
    "Ҝ": 766,
    "ҝ": 767,
    "Ҟ": 768,
    "ҟ": 769,
    "Ҡ": 770,
    "ҡ": 771,
    "Ң": 772,
    "ң": 773,
    "Ҥ": 774,
    "ҥ": 775,
    "Ҧ": 776,
    "ҧ": 777,
    "Ҫ": 778,
    "ҫ": 779,
    "Ҭ": 780,
    "ҭ": 781,
    "Ү": 782,
    "ү": 783,
    "Ұ": 784,
    "ұ": 785,
    "Ҳ": 786,
    "ҳ": 787,
    "ҵ": 788,
    "Ҷ": 789,
    "ҷ": 790,
    "Ҹ": 791,
    "ҹ": 792,
    "Һ": 793,
    "һ": 794,
    "Ҿ": 795,
    "ҿ": 796,
    "Ӏ": 797,
    "Ӂ": 798,
    "ӂ": 799,
    "Ӄ": 800,
    "ӄ": 801,
    "Ӆ": 802,
    "ӆ": 803,
    "Ӈ": 804,
    "ӈ": 805,
    "Ӊ": 806,
    "ӊ": 807,
    "Ӌ": 808,
    "Ӎ": 809,
    "ӎ": 810,
    "Ӑ": 811,
    "ӑ": 812,
    "Ӓ": 813,
    "ӓ": 814,
    "ӕ": 815,
    "Ӗ": 816,
    "ӗ": 817,
    "Ә": 818,
    "ә": 819,
    "Ӛ": 820,
    "ӛ": 821,
    "Ӝ": 822,
    "ӝ": 823,
    "Ӟ": 824,
    "ӟ": 825,
    "ӡ": 826,
    "Ӣ": 827,
    "ӣ": 828,
    "Ӥ": 829,
    "ӥ": 830,
    "Ӧ": 831,
    "ӧ": 832,
    "Ө": 833,
    "ө": 834,
    "ӫ": 835,
    "Ӭ": 836,
    "ӭ": 837,
    "Ӯ": 838,
    "ӯ": 839,
    "Ӱ": 840,
    "ӱ": 841,
    "Ӳ": 842,
    "ӳ": 843,
    "Ӵ": 844,
    "ӵ": 845,
    "Ӹ": 846,
    "ӹ": 847,
    "Ӻ": 848,
    "ӻ": 849,
    "ӽ": 850,
    "Ԇ": 851,
    "Ԍ": 852,
    "Ԑ": 853,
    "ԓ": 854,
    "ԕ": 855,
    "ԗ": 856,
    "ԙ": 857,
    "Ԛ": 858,
    "ԛ": 859,
    "ԥ": 860,
    "Ԭ": 861,
    "Ա": 862,
    "Բ": 863,
    "Գ": 864,
    "Դ": 865,
    "Ե": 866,
    "Զ": 867,
    "Է": 868,
    "Ը": 869,
    "Թ": 870,
    "Ժ": 871,
    "Ի": 872,
    "Լ": 873,
    "Խ": 874,
    "Կ": 875,
    "Հ": 876,
    "Ղ": 877,
    "Մ": 878,
    "Յ": 879,
    "Ն": 880,
    "Շ": 881,
    "Ո": 882,
    "Չ": 883,
    "Պ": 884,
    "Ջ": 885,
    "Ռ": 886,
    "Ս": 887,
    "Վ": 888,
    "Տ": 889,
    "Ց": 890,
    "Փ": 891,
    "Ք": 892,
    "Ֆ": 893,
    "ա": 894,
    "բ": 895,
    "գ": 896,
    "դ": 897,
    "ե": 898,
    "զ": 899,
    "է": 900,
    "ը": 901,
    "թ": 902,
    "ժ": 903,
    "ի": 904,
    "լ": 905,
    "խ": 906,
    "ծ": 907,
    "կ": 908,
    "հ": 909,
    "ձ": 910,
    "ղ": 911,
    "ճ": 912,
    "մ": 913,
    "յ": 914,
    "ն": 915,
    "շ": 916,
    "ո": 917,
    "չ": 918,
    "պ": 919,
    "ջ": 920,
    "ռ": 921,
    "ս": 922,
    "վ": 923,
    "տ": 924,
    "ր": 925,
    "ց": 926,
    "ւ": 927,
    "փ": 928,
    "ք": 929,
    "օ": 930,
    "ֆ": 931,
    "ְ": 932,
    "ֲ": 933,
    "ִ": 934,
    "ֵ": 935,
    "ֶ": 936,
    "ַ": 937,
    "ָ": 938,
    "ֹ": 939,
    "ֻ": 940,
    "ּ": 941,
    "ֽ": 942,
    "־": 943,
    "ֿ": 944,
    "׀": 945,
    "ׁ": 946,
    "ׂ": 947,
    "א": 948,
    "ב": 949,
    "ג": 950,
    "ד": 951,
    "ה": 952,
    "ו": 953,
    "ז": 954,
    "ח": 955,
    "ט": 956,
    "י": 957,
    "ך": 958,
    "כ": 959,
    "ל": 960,
    "ם": 961,
    "מ": 962,
    "ן": 963,
    "נ": 964,
    "ס": 965,
    "ע": 966,
    "ף": 967,
    "פ": 968,
    "ץ": 969,
    "צ": 970,
    "ק": 971,
    "ר": 972,
    "ש": 973,
    "ת": 974,
    "ײ": 975,
    "׳": 976,
    "״": 977,
    "،": 978,
    "؟": 979,
    "ؠ": 980,
    "ء": 981,
    "آ": 982,
    "أ": 983,
    "ؤ": 984,
    "إ": 985,
    "ئ": 986,
    "ا": 987,
    "ب": 988,
    "ة": 989,
    "ت": 990,
    "ث": 991,
    "ج": 992,
    "ح": 993,
    "خ": 994,
    "د": 995,
    "ذ": 996,
    "ر": 997,
    "ز": 998,
    "س": 999,
    "ش": 1000,
    "ص": 1001,
    "ض": 1002,
    "ط": 1003,
    "ظ": 1004,
    "ع": 1005,
    "غ": 1006,
    "ػ": 1007,
    "ؼ": 1008,
    "ـ": 1009,
    "ف": 1010,
    "ق": 1011,
    "ك": 1012,
    "ل": 1013,
    "م": 1014,
    "ن": 1015,
    "ه": 1016,
    "و": 1017,
    "ى": 1018,
    "ي": 1019,
    "ً": 1020,
    "ٌ": 1021,
    "ٍ": 1022,
    "َ": 1023,
    "ُ": 1024,
    "ِ": 1025,
    "ّ": 1026,
    "ْ": 1027,
    "ٔ": 1028,
    "ٛ": 1029,
    "ٜ": 1030,
    "ٰ": 1031,
    "ٱ": 1032,
    "ٹ": 1033,
    "ٺ": 1034,
    "ٽ": 1035,
    "پ": 1036,
    "چ": 1037,
    "ڈ": 1038,
    "ڑ": 1039,
    "ژ": 1040,
    "ڙ": 1041,
    "ښ": 1042,
    "ڢ": 1043,
    "ڤ": 1044,
    "ڨ": 1045,
    "ک": 1046,
    "ڪ": 1047,
    "ګ": 1048,
    "ڬ": 1049,
    "ڭ": 1050,
    "ڮ": 1051,
    "گ": 1052,
    "ڵ": 1053,
    "ں": 1054,
    "ھ": 1055,
    "ہ": 1056,
    "ۆ": 1057,
    "ۇ": 1058,
    "ی": 1059,
    "ۍ": 1060,
    "ێ": 1061,
    "ې": 1062,
    "ے": 1063,
    "ە": 1064,
    "ۡ": 1065,
    "ۢ": 1066,
    "ۤ": 1067,
    "ۥ": 1068,
    "ۭ": 1069,
    "۲": 1070,
    "۳": 1071,
    "۵": 1072,
    "ܐ": 1073,
    "ܒ": 1074,
    "ܓ": 1075,
    "ܕ": 1076,
    "ܗ": 1077,
    "ܘ": 1078,
    "ܙ": 1079,
    "ܚ": 1080,
    "ܛ": 1081,
    "ܝ": 1082,
    "ܟ": 1083,
    "ܠ": 1084,
    "ܡ": 1085,
    "ܢ": 1086,
    "ܣ": 1087,
    "ܥ": 1088,
    "ܦ": 1089,
    "ܩ": 1090,
    "ܪ": 1091,
    "ܫ": 1092,
    "ܬ": 1093,
    "ܳ": 1094,
    "ܺ": 1095,
    "ݒ": 1096,
    "ݝ": 1097,
    "ݠ": 1098,
    "ݢ": 1099,
    "ݣ": 1100,
    "ݯ": 1101,
    "ݳ": 1102,
    "ݼ": 1103,
    "ݽ": 1104,
    "ݿ": 1105,
    "ހ": 1106,
    "ށ": 1107,
    "ނ": 1108,
    "ރ": 1109,
    "ކ": 1110,
    "އ": 1111,
    "ވ": 1112,
    "މ": 1113,
    "ފ": 1114,
    "ދ": 1115,
    "ލ": 1116,
    "ގ": 1117,
    "ސ": 1118,
    "ޒ": 1119,
    "ޔ": 1120,
    "ޖ": 1121,
    "ޠ": 1122,
    "ޢ": 1123,
    "ަ": 1124,
    "ާ": 1125,
    "ި": 1126,
    "ީ": 1127,
    "ު": 1128,
    "ޫ": 1129,
    "ެ": 1130,
    "ޭ": 1131,
    "ޮ": 1132,
    "ް": 1133,
    "ࢉ": 1134,
    "ࢬ": 1135,
    "ࢳ": 1136,
    "ࢴ": 1137,
    "ࢿ": 1138,
    "ࣀ": 1139,
    "ࣰ": 1140,
    "ࣱ": 1141,
    "ࣲ": 1142,
    "ँ": 1143,
    "ं": 1144,
    "ः": 1145,
    "अ": 1146,
    "आ": 1147,
    "इ": 1148,
    "ई": 1149,
    "उ": 1150,
    "ऋ": 1151,
    "ए": 1152,
    "ओ": 1153,
    "औ": 1154,
    "क": 1155,
    "ख": 1156,
    "ग": 1157,
    "घ": 1158,
    "ङ": 1159,
    "च": 1160,
    "छ": 1161,
    "ज": 1162,
    "झ": 1163,
    "ञ": 1164,
    "ट": 1165,
    "ठ": 1166,
    "ड": 1167,
    "ढ": 1168,
    "ण": 1169,
    "त": 1170,
    "थ": 1171,
    "द": 1172,
    "ध": 1173,
    "न": 1174,
    "प": 1175,
    "फ": 1176,
    "ब": 1177,
    "भ": 1178,
    "म": 1179,
    "य": 1180,
    "र": 1181,
    "ऱ": 1182,
    "ल": 1183,
    "ळ": 1184,
    "व": 1185,
    "श": 1186,
    "ष": 1187,
    "स": 1188,
    "ह": 1189,
    "़": 1190,
    "ा": 1191,
    "ि": 1192,
    "ी": 1193,
    "ु": 1194,
    "ू": 1195,
    "ृ": 1196,
    "े": 1197,
    "ै": 1198,
    "ॉ": 1199,
    "ो": 1200,
    "ौ": 1201,
    "्": 1202,
    "ॐ": 1203,
    "२": 1204,
    "ॿ": 1205,
    "ং": 1206,
    "আ": 1207,
    "ই": 1208,
    "ঈ": 1209,
    "উ": 1210,
    "এ": 1211,
    "ক": 1212,
    "খ": 1213,
    "গ": 1214,
    "ঘ": 1215,
    "ঙ": 1216,
    "চ": 1217,
    "ছ": 1218,
    "জ": 1219,
    "ঝ": 1220,
    "ঞ": 1221,
    "ট": 1222,
    "ঠ": 1223,
    "ড": 1224,
    "ঢ": 1225,
    "ণ": 1226,
    "ত": 1227,
    "থ": 1228,
    "দ": 1229,
    "ধ": 1230,
    "ন": 1231,
    "প": 1232,
    "ফ": 1233,
    "ব": 1234,
    "ভ": 1235,
    "ম": 1236,
    "য": 1237,
    "র": 1238,
    "ল": 1239,
    "শ": 1240,
    "স": 1241,
    "হ": 1242,
    "়": 1243,
    "া": 1244,
    "ি": 1245,
    "ী": 1246,
    "ু": 1247,
    "ূ": 1248,
    "ে": 1249,
    "ৈ": 1250,
    "ো": 1251,
    "ৌ": 1252,
    "্": 1253,
    "০": 1254,
    "৫": 1255,
    "৳": 1256,
    "ਕ": 1257,
    "ਖ": 1258,
    "ਗ": 1259,
    "ਘ": 1260,
    "ਜ": 1261,
    "ਟ": 1262,
    "ਤ": 1263,
    "ਦ": 1264,
    "ਨ": 1265,
    "ਪ": 1266,
    "ਬ": 1267,
    "ਯ": 1268,
    "ਰ": 1269,
    "ਲ": 1270,
    "ਵ": 1271,
    "ਸ": 1272,
    "ਹ": 1273,
    "਼": 1274,
    "ਾ": 1275,
    "ਿ": 1276,
    "ੀ": 1277,
    "ੂ": 1278,
    "ੰ": 1279,
    "ઉ": 1280,
    "છ": 1281,
    "ટ": 1282,
    "ડ": 1283,
    "ત": 1284,
    "દ": 1285,
    "ન": 1286,
    "પ": 1287,
    "મ": 1288,
    "ય": 1289,
    "ર": 1290,
    "ા": 1291,
    "ી": 1292,
    "ુ": 1293,
    "ે": 1294,
    "ો": 1295,
    "્": 1296,
    "ଅ": 1297,
    "ଗ": 1298,
    "ଟ": 1299,
    "ତ": 1300,
    "ନ": 1301,
    "ପ": 1302,
    "ମ": 1303,
    "ା": 1304,
    "ି": 1305,
    "ୁ": 1306,
    "ୋ": 1307,
    "୍": 1308,
    "அ": 1309,
    "ஆ": 1310,
    "இ": 1311,
    "உ": 1312,
    "எ": 1313,
    "ஒ": 1314,
    "ஓ": 1315,
    "க": 1316,
    "ங": 1317,
    "ச": 1318,
    "ஜ": 1319,
    "ஞ": 1320,
    "ட": 1321,
    "ண": 1322,
    "த": 1323,
    "ந": 1324,
    "ன": 1325,
    "ப": 1326,
    "ம": 1327,
    "ய": 1328,
    "ர": 1329,
    "ற": 1330,
    "ல": 1331,
    "ள": 1332,
    "ழ": 1333,
    "வ": 1334,
    "ஷ": 1335,
    "ஸ": 1336,
    "ா": 1337,
    "ி": 1338,
    "ீ": 1339,
    "ு": 1340,
    "ூ": 1341,
    "ெ": 1342,
    "ே": 1343,
    "ை": 1344,
    "ொ": 1345,
    "ோ": 1346,
    "்": 1347,
    "ం": 1348,
    "క": 1349,
    "ఖ": 1350,
    "గ": 1351,
    "చ": 1352,
    "డ": 1353,
    "థ": 1354,
    "ద": 1355,
    "ధ": 1356,
    "న": 1357,
    "ప": 1358,
    "మ": 1359,
    "ర": 1360,
    "ల": 1361,
    "వ": 1362,
    "శ": 1363,
    "స": 1364,
    "ా": 1365,
    "ి": 1366,
    "ు": 1367,
    "ె": 1368,
    "ొ": 1369,
    "్": 1370,
    "ಂ": 1371,
    "ಅ": 1372,
    "ಕ": 1373,
    "ಗ": 1374,
    "ಚ": 1375,
    "ಜ": 1376,
    "ಟ": 1377,
    "ಡ": 1378,
    "ಣ": 1379,
    "ತ": 1380,
    "ಥ": 1381,
    "ದ": 1382,
    "ನ": 1383,
    "ಪ": 1384,
    "ಬ": 1385,
    "ಮ": 1386,
    "ಯ": 1387,
    "ರ": 1388,
    "ಲ": 1389,
    "ವ": 1390,
    "ಸ": 1391,
    "ಾ": 1392,
    "ಿ": 1393,
    "ೀ": 1394,
    "ು": 1395,
    "ೂ": 1396,
    "ೆ": 1397,
    "ೈ": 1398,
    "ೊ": 1399,
    "ೋ": 1400,
    "್": 1401,
    "ം": 1402,
    "അ": 1403,
    "ആ": 1404,
    "ക": 1405,
    "ഗ": 1406,
    "ങ": 1407,
    "ച": 1408,
    "ജ": 1409,
    "ഞ": 1410,
    "ട": 1411,
    "ഡ": 1412,
    "ണ": 1413,
    "ത": 1414,
    "ദ": 1415,
    "ന": 1416,
    "പ": 1417,
    "ബ": 1418,
    "മ": 1419,
    "യ": 1420,
    "ര": 1421,
    "റ": 1422,
    "ല": 1423,
    "ള": 1424,
    "വ": 1425,
    "ശ": 1426,
    "സ": 1427,
    "ാ": 1428,
    "ി": 1429,
    "ീ": 1430,
    "ു": 1431,
    "ൂ": 1432,
    "േ": 1433,
    "ൈ": 1434,
    "ൊ": 1435,
    "ോ": 1436,
    "്": 1437,
    "ൻ": 1438,
    "ർ": 1439,
    "ං": 1440,
    "අ": 1441,
    "ඉ": 1442,
    "ක": 1443,
    "ග": 1444,
    "ච": 1445,
    "ට": 1446,
    "ඩ": 1447,
    "ණ": 1448,
    "ත": 1449,
    "ථ": 1450,
    "ද": 1451,
    "න": 1452,
    "ප": 1453,
    "බ": 1454,
    "භ": 1455,
    "ම": 1456,
    "ය": 1457,
    "ර": 1458,
    "ල": 1459,
    "ව": 1460,
    "ශ": 1461,
    "ස": 1462,
    "ළ": 1463,
    "්": 1464,
    "ා": 1465,
    "ැ": 1466,
    "ි": 1467,
    "ී": 1468,
    "ු": 1469,
    "ෙ": 1470,
    "ේ": 1471,
    "ො": 1472,
    "ෝ": 1473,
    "ก": 1474,
    "ข": 1475,
    "ค": 1476,
    "ฆ": 1477,
    "ง": 1478,
    "จ": 1479,
    "ฉ": 1480,
    "ช": 1481,
    "ซ": 1482,
    "ฌ": 1483,
    "ญ": 1484,
    "ฎ": 1485,
    "ฏ": 1486,
    "ฐ": 1487,
    "ฑ": 1488,
    "ฒ": 1489,
    "ณ": 1490,
    "ด": 1491,
    "ต": 1492,
    "ถ": 1493,
    "ท": 1494,
    "ธ": 1495,
    "น": 1496,
    "บ": 1497,
    "ป": 1498,
    "ผ": 1499,
    "ฝ": 1500,
    "พ": 1501,
    "ฟ": 1502,
    "ภ": 1503,
    "ม": 1504,
    "ย": 1505,
    "ร": 1506,
    "ฤ": 1507,
    "ล": 1508,
    "ว": 1509,
    "ศ": 1510,
    "ษ": 1511,
    "ส": 1512,
    "ห": 1513,
    "อ": 1514,
    "ฮ": 1515,
    "ฯ": 1516,
    "ะ": 1517,
    "ั": 1518,
    "า": 1519,
    "ิ": 1520,
    "ี": 1521,
    "ึ": 1522,
    "ื": 1523,
    "ุ": 1524,
    "ู": 1525,
    "฿": 1526,
    "เ": 1527,
    "แ": 1528,
    "โ": 1529,
    "ใ": 1530,
    "ไ": 1531,
    "ๆ": 1532,
    "็": 1533,
    "่": 1534,
    "้": 1535,
    "๊": 1536,
    "๋": 1537,
    "์": 1538,
    "ํ": 1539,
    "๐": 1540,
    "๒": 1541,
    "๙": 1542,
    "ກ": 1543,
    "ຂ": 1544,
    "ຄ": 1545,
    "ງ": 1546,
    "ຍ": 1547,
    "ດ": 1548,
    "ຖ": 1549,
    "ນ": 1550,
    "ບ": 1551,
    "ຜ": 1552,
    "ພ": 1553,
    "ມ": 1554,
    "ລ": 1555,
    "ວ": 1556,
    "ສ": 1557,
    "ຫ": 1558,
    "ອ": 1559,
    "ະ": 1560,
    "ັ": 1561,
    "າ": 1562,
    "ີ": 1563,
    "ູ": 1564,
    "ົ": 1565,
    "ຽ": 1566,
    "ເ": 1567,
    "ແ": 1568,
    "່": 1569,
    "້": 1570,
    "ໍ": 1571,
    "་": 1572,
    "།": 1573,
    "ཀ": 1574,
    "ཁ": 1575,
    "ག": 1576,
    "ང": 1577,
    "ཅ": 1578,
    "ཆ": 1579,
    "ཇ": 1580,
    "ཉ": 1581,
    "ཏ": 1582,
    "ཐ": 1583,
    "ད": 1584,
    "ན": 1585,
    "པ": 1586,
    "ཕ": 1587,
    "བ": 1588,
    "མ": 1589,
    "ཙ": 1590,
    "ཚ": 1591,
    "ཛ": 1592,
    "ཝ": 1593,
    "ཞ": 1594,
    "ཟ": 1595,
    "འ": 1596,
    "ཡ": 1597,
    "ར": 1598,
    "ལ": 1599,
    "ཤ": 1600,
    "ས": 1601,
    "ཧ": 1602,
    "ཨ": 1603,
    "ི": 1604,
    "ུ": 1605,
    "ེ": 1606,
    "ོ": 1607,
    "ྐ": 1608,
    "ྒ": 1609,
    "ྔ": 1610,
    "ྗ": 1611,
    "ྙ": 1612,
    "ྟ": 1613,
    "ྡ": 1614,
    "ྣ": 1615,
    "ྤ": 1616,
    "ྦ": 1617,
    "ྨ": 1618,
    "ྩ": 1619,
    "ྫ": 1620,
    "ྱ": 1621,
    "ྲ": 1622,
    "ླ": 1623,
    "ྶ": 1624,
    "ྷ": 1625,
    "က": 1626,
    "ခ": 1627,
    "င": 1628,
    "စ": 1629,
    "ဆ": 1630,
    "ဇ": 1631,
    "ည": 1632,
    "ဏ": 1633,
    "တ": 1634,
    "ဒ": 1635,
    "န": 1636,
    "ပ": 1637,
    "ဗ": 1638,
    "ဘ": 1639,
    "မ": 1640,
    "ယ": 1641,
    "ရ": 1642,
    "လ": 1643,
    "ဝ": 1644,
    "သ": 1645,
    "ဟ": 1646,
    "အ": 1647,
    "ဦ": 1648,
    "ါ": 1649,
    "ာ": 1650,
    "ိ": 1651,
    "ီ": 1652,
    "ု": 1653,
    "ူ": 1654,
    "ေ": 1655,
    "ံ": 1656,
    "့": 1657,
    "း": 1658,
    "္": 1659,
    "်": 1660,
    "ျ": 1661,
    "ြ": 1662,
    "ွ": 1663,
    "ှ": 1664,
    "ა": 1665,
    "ბ": 1666,
    "გ": 1667,
    "დ": 1668,
    "ე": 1669,
    "ვ": 1670,
    "ზ": 1671,
    "თ": 1672,
    "ი": 1673,
    "კ": 1674,
    "ლ": 1675,
    "მ": 1676,
    "ნ": 1677,
    "ო": 1678,
    "პ": 1679,
    "ჟ": 1680,
    "რ": 1681,
    "ს": 1682,
    "ტ": 1683,
    "უ": 1684,
    "ფ": 1685,
    "ქ": 1686,
    "ღ": 1687,
    "ყ": 1688,
    "შ": 1689,
    "ჩ": 1690,
    "ც": 1691,
    "ძ": 1692,
    "წ": 1693,
    "ჭ": 1694,
    "ხ": 1695,
    "ჯ": 1696,
    "ᄀ": 1697,
    "ᄏ": 1698,
    "ᅡ": 1699,
    "ᅩ": 1700,
    "ᅪ": 1701,
    "ᅯ": 1702,
    "ሀ": 1703,
    "ሃ": 1704,
    "ህ": 1705,
    "ለ": 1706,
    "ሉ": 1707,
    "ሊ": 1708,
    "ላ": 1709,
    "ል": 1710,
    "ሐ": 1711,
    "ሕ": 1712,
    "መ": 1713,
    "ሙ": 1714,
    "ሚ": 1715,
    "ማ": 1716,
    "ሜ": 1717,
    "ም": 1718,
    "ሞ": 1719,
    "ሠ": 1720,
    "ሣ": 1721,
    "ሥ": 1722,
    "ረ": 1723,
    "ሩ": 1724,
    "ሪ": 1725,
    "ራ": 1726,
    "ሬ": 1727,
    "ር": 1728,
    "ሮ": 1729,
    "ሯ": 1730,
    "ሰ": 1731,
    "ሱ": 1732,
    "ሲ": 1733,
    "ስ": 1734,
    "ሸ": 1735,
    "ሻ": 1736,
    "ሽ": 1737,
    "ቀ": 1738,
    "ቁ": 1739,
    "ቄ": 1740,
    "ቅ": 1741,
    "በ": 1742,
    "ቡ": 1743,
    "ባ": 1744,
    "ቤ": 1745,
    "ብ": 1746,
    "ቧ": 1747,
    "ተ": 1748,
    "ቱ": 1749,
    "ቲ": 1750,
    "ታ": 1751,
    "ት": 1752,
    "ኃ": 1753,
    "ነ": 1754,
    "ኒ": 1755,
    "ና": 1756,
    "ኔ": 1757,
    "ን": 1758,
    "ኝ": 1759,
    "አ": 1760,
    "ኢ": 1761,
    "ኣ": 1762,
    "ኤ": 1763,
    "እ": 1764,
    "ኦ": 1765,
    "ከ": 1766,
    "ኩ": 1767,
    "ካ": 1768,
    "ክ": 1769,
    "ኮ": 1770,
    "ኳ": 1771,
    "ኵ": 1772,
    "ኸ": 1773,
    "ኹ": 1774,
    "ወ": 1775,
    "ዊ": 1776,
    "ዋ": 1777,
    "ው": 1778,
    "ዐ": 1779,
    "ዓ": 1780,
    "ዘ": 1781,
    "ዚ": 1782,
    "ዞ": 1783,
    "ዠ": 1784,
    "የ": 1785,
    "ዩ": 1786,
    "ያ": 1787,
    "ዬ": 1788,
    "ይ": 1789,
    "ዮ": 1790,
    "ደ": 1791,
    "ዳ": 1792,
    "ዴ": 1793,
    "ድ": 1794,
    "ዶ": 1795,
    "ዸ": 1796,
    "ገ": 1797,
    "ጉ": 1798,
    "ጋ": 1799,
    "ጌ": 1800,
    "ግ": 1801,
    "ጐ": 1802,
    "ጤ": 1803,
    "ጥ": 1804,
    "ጦ": 1805,
    "ፀ": 1806,
    "ፈ": 1807,
    "ፋ": 1808,
    "ፌ": 1809,
    "ፍ": 1810,
    "ፕ": 1811,
    "፡": 1812,
    "።": 1813,
    "Ꮥ": 1814,
    "ᐃ": 1815,
    "ᐅ": 1816,
    "ᐊ": 1817,
    "ᐍ": 1818,
    "ᐏ": 1819,
    "ᐜ": 1820,
    "ᐣ": 1821,
    "ᐤ": 1822,
    "ᐦ": 1823,
    "ᐱ": 1824,
    "ᑕ": 1825,
    "ᑦ": 1826,
    "ᑭ": 1827,
    "ᒃ": 1828,
    "ᒋ": 1829,
    "ᒐ": 1830,
    "ᒑ": 1831,
    "ᒡ": 1832,
    "ᒥ": 1833,
    "ᒧ": 1834,
    "ᒪ": 1835,
    "ᓀ": 1836,
    "ᓂ": 1837,
    "ᓃ": 1838,
    "ᓄ": 1839,
    "ᓇ": 1840,
    "ᓈ": 1841,
    "ᓗ": 1842,
    "ᓛ": 1843,
    "ᓪ": 1844,
    "ᓯ": 1845,
    "ᓲ": 1846,
    "ᓴ": 1847,
    "ᔅ": 1848,
    "ᔑ": 1849,
    "ᔪ": 1850,
    "ᔫ": 1851,
    "ᔭ": 1852,
    "ᕐ": 1853,
    "ᕕ": 1854,
    "ᕝ": 1855,
    "ᕿ": 1856,
    "ᖅ": 1857,
    "ᗩ": 1858,
    "ᙳ": 1859,
    "ᚠ": 1860,
    "ᚢ": 1861,
    "ᚦ": 1862,
    "ᚨ": 1863,
    "ᚱ": 1864,
    "ᚲ": 1865,
    "ᚷ": 1866,
    "ᚹ": 1867,
    "ᚺ": 1868,
    "ᚾ": 1869,
    "ᛁ": 1870,
    "ᛃ": 1871,
    "ᛇ": 1872,
    "ᛈ": 1873,
    "ᛉ": 1874,
    "ᛊ": 1875,
    "ᛋ": 1876,
    "ᛏ": 1877,
    "ᛒ": 1878,
    "ᛖ": 1879,
    "ᛗ": 1880,
    "ᛚ": 1881,
    "ᛜ": 1882,
    "ᛞ": 1883,
    "ᛟ": 1884,
    "ᛠ": 1885,
    "ᛣ": 1886,
    "ᛦ": 1887,
    "᛫": 1888,
    "ក": 1889,
    "ខ": 1890,
    "គ": 1891,
    "ង": 1892,
    "ច": 1893,
    "ជ": 1894,
    "ឈ": 1895,
    "ញ": 1896,
    "ដ": 1897,
    "ឋ": 1898,
    "ឌ": 1899,
    "ណ": 1900,
    "ត": 1901,
    "ថ": 1902,
    "ទ": 1903,
    "ន": 1904,
    "ប": 1905,
    "ព": 1906,
    "ភ": 1907,
    "ម": 1908,
    "យ": 1909,
    "រ": 1910,
    "ល": 1911,
    "វ": 1912,
    "ស": 1913,
    "ហ": 1914,
    "ឡ": 1915,
    "អ": 1916,
    "ឥ": 1917,
    "ា": 1918,
    "ិ": 1919,
    "ី": 1920,
    "ឹ": 1921,
    "ុ": 1922,
    "ូ": 1923,
    "ួ": 1924,
    "ើ": 1925,
    "ឿ": 1926,
    "ៀ": 1927,
    "េ": 1928,
    "ែ": 1929,
    "ៃ": 1930,
    "ោ": 1931,
    "ៅ": 1932,
    "ំ": 1933,
    "ះ": 1934,
    "៉": 1935,
    "៊": 1936,
    "់": 1937,
    "័": 1938,
    "្": 1939,
    "᠋": 1940,
    "᠌": 1941,
    "ᠠ": 1942,
    "ᠡ": 1943,
    "ᠢ": 1944,
    "ᠣ": 1945,
    "ᠤ": 1946,
    "ᠥ": 1947,
    "ᠦ": 1948,
    "ᠧ": 1949,
    "ᠨ": 1950,
    "ᠩ": 1951,
    "ᠪ": 1952,
    "ᠬ": 1953,
    "ᠭ": 1954,
    "ᠮ": 1955,
    "ᠯ": 1956,
    "ᠰ": 1957,
    "ᠲ": 1958,
    "ᠳ": 1959,
    "ᠴ": 1960,
    "ᠵ": 1961,
    "ᠶ": 1962,
    "ᠷ": 1963,
    "ᠸ": 1964,
    "ᡠ": 1965,
    "ᡤ": 1966,
    "ᡩ": 1967,
    "ᡳ": 1968,
    "ᨀ": 1969,
    "ᨄ": 1970,
    "ᨅ": 1971,
    "ᨆ": 1972,
    "ᨈ": 1973,
    "ᨊ": 1974,
    "ᨑ": 1975,
    "ᨒ": 1976,
    "ᨔ": 1977,
    "ᨕ": 1978,
    "ᨗ": 1979,
    "ᨘ": 1980,
    "ᨙ": 1981,
    "ᨚ": 1982,
    "ᨛ": 1983,
    "᨞": 1984,
    "᪸": 1985,
    "ᬚ": 1986,
    "ᬦ": 1987,
    "ᬩ": 1988,
    "ᬫ": 1989,
    "ᬭ": 1990,
    "ᬶ": 1991,
    "᭄": 1992,
    "ᰄ": 1993,
    "ᰐ": 1994,
    "᱃": 1995,
    "ᱛ": 1996,
    "ᱜ": 1997,
    "ᱠ": 1998,
    "ᱡ": 1999,
    "ᱪ": 2000,
    "ᱫ": 2001,
    "ᱯ": 2002,
    "ᱰ": 2003,
    "ᱲ": 2004,
    "ᱴ": 2005,
    "ᱵ": 2006,
    "ᱷ": 2007,
    "Ს": 2008,
    "Ქ": 2009,
    "ᴀ": 2010,
    "ᴇ": 2011,
    "ᴈ": 2012,
    "ᴌ": 2013,
    "ᴒ": 2014,
    "ᴔ": 2015,
    "ᴕ": 2016,
    "ᴖ": 2017,
    "ᴘ": 2018,
    "ᴛ": 2019,
    "ᴜ": 2020,
    "ᴟ": 2021,
    "ᴡ": 2022,
    "ᴦ": 2023,
    "ᵬ": 2024,
    "ᵭ": 2025,
    "ᵱ": 2026,
    "ᵻ": 2027,
    "ᶀ": 2028,
    "ᶁ": 2029,
    "ᶋ": 2030,
    "᷄": 2031,
    "᷅": 2032,
    "᷆": 2033,
    "ᷧ": 2034,
    "ᷩ": 2035,
    "ḁ": 2036,
    "ḇ": 2037,
    "Ḍ": 2038,
    "ḍ": 2039,
    "Ḏ": 2040,
    "ḏ": 2041,
    "ḕ": 2042,
    "Ḗ": 2043,
    "ḗ": 2044,
    "Ḛ": 2045,
    "ḡ": 2046,
    "Ḥ": 2047,
    "ḥ": 2048,
    "ḧ": 2049,
    "Ḩ": 2050,
    "ḩ": 2051,
    "Ḫ": 2052,
    "ḫ": 2053,
    "ḯ": 2054,
    "Ḱ": 2055,
    "ḱ": 2056,
    "Ḳ": 2057,
    "ḳ": 2058,
    "Ḵ": 2059,
    "ḵ": 2060,
    "Ḷ": 2061,
    "ḷ": 2062,
    "Ḿ": 2063,
    "ḿ": 2064,
    "ṁ": 2065,
    "Ṃ": 2066,
    "ṃ": 2067,
    "ṅ": 2068,
    "Ṇ": 2069,
    "ṇ": 2070,
    "ṉ": 2071,
    "ṍ": 2072,
    "ṑ": 2073,
    "ṓ": 2074,
    "ṗ": 2075,
    "Ṙ": 2076,
    "ṙ": 2077,
    "Ṛ": 2078,
    "ṛ": 2079,
    "ṟ": 2080,
    "ṡ": 2081,
    "Ṣ": 2082,
    "ṣ": 2083,
    "Ṥ": 2084,
    "Ṭ": 2085,
    "ṭ": 2086,
    "Ṯ": 2087,
    "ṯ": 2088,
    "ṳ": 2089,
    "ṻ": 2090,
    "ṿ": 2091,
    "Ẁ": 2092,
    "ẁ": 2093,
    "Ẃ": 2094,
    "ẏ": 2095,
    "ẑ": 2096,
    "Ẓ": 2097,
    "ẓ": 2098,
    "Ẕ": 2099,
    "ẖ": 2100,
    "ẗ": 2101,
    "ẞ": 2102,
    "ẟ": 2103,
    "ạ": 2104,
    "Ả": 2105,
    "ả": 2106,
    "Ấ": 2107,
    "ấ": 2108,
    "Ầ": 2109,
    "ầ": 2110,
    "ẩ": 2111,
    "ậ": 2112,
    "ắ": 2113,
    "ằ": 2114,
    "ẳ": 2115,
    "ẵ": 2116,
    "ặ": 2117,
    "Ẹ": 2118,
    "ẹ": 2119,
    "ẻ": 2120,
    "Ẽ": 2121,
    "ẽ": 2122,
    "ế": 2123,
    "ề": 2124,
    "ể": 2125,
    "Ễ": 2126,
    "ễ": 2127,
    "ệ": 2128,
    "ỉ": 2129,
    "ị": 2130,
    "Ọ": 2131,
    "ọ": 2132,
    "ỏ": 2133,
    "Ố": 2134,
    "ố": 2135,
    "Ồ": 2136,
    "ồ": 2137,
    "ổ": 2138,
    "Ỗ": 2139,
    "ỗ": 2140,
    "ộ": 2141,
    "Ớ": 2142,
    "ớ": 2143,
    "ờ": 2144,
    "Ở": 2145,
    "ở": 2146,
    "Ỡ": 2147,
    "ỡ": 2148,
    "ợ": 2149,
    "ụ": 2150,
    "ủ": 2151,
    "ứ": 2152,
    "ừ": 2153,
    "Ử": 2154,
    "ử": 2155,
    "ữ": 2156,
    "Ự": 2157,
    "ự": 2158,
    "ỳ": 2159,
    "ỷ": 2160,
    "Ỹ": 2161,
    "ỹ": 2162,
    "Ỿ": 2163,
    "ỿ": 2164,
    "ἀ": 2165,
    "ἁ": 2166,
    "ἂ": 2167,
    "ἄ": 2168,
    "ἅ": 2169,
    "Ἀ": 2170,
    "Ἁ": 2171,
    "Ἂ": 2172,
    "Ἄ": 2173,
    "Ἅ": 2174,
    "ἐ": 2175,
    "ἑ": 2176,
    "ἔ": 2177,
    "ἕ": 2178,
    "Ἐ": 2179,
    "Ἑ": 2180,
    "Ἓ": 2181,
    "Ἔ": 2182,
    "Ἕ": 2183,
    "ἡ": 2184,
    "ἢ": 2185,
    "ἤ": 2186,
    "ἥ": 2187,
    "ἧ": 2188,
    "Ἠ": 2189,
    "Ἡ": 2190,
    "Ἢ": 2191,
    "Ἦ": 2192,
    "ἰ": 2193,
    "ἱ": 2194,
    "ἴ": 2195,
    "ἵ": 2196,
    "ἶ": 2197,
    "ἷ": 2198,
    "Ἰ": 2199,
    "Ἱ": 2200,
    "Ἴ": 2201,
    "ὀ": 2202,
    "ὁ": 2203,
    "ὃ": 2204,
    "ὄ": 2205,
    "ὅ": 2206,
    "Ὀ": 2207,
    "Ὁ": 2208,
    "Ὃ": 2209,
    "Ὄ": 2210,
    "Ὅ": 2211,
    "ὐ": 2212,
    "ὑ": 2213,
    "ὒ": 2214,
    "ὕ": 2215,
    "ὖ": 2216,
    "Ὑ": 2217,
    "Ὕ": 2218,
    "ὡ": 2219,
    "ὤ": 2220,
    "ὦ": 2221,
    "Ὠ": 2222,
    "Ὡ": 2223,
    "Ὤ": 2224,
    "Ὦ": 2225,
    "ὰ": 2226,
    "ὲ": 2227,
    "ὴ": 2228,
    "ὶ": 2229,
    "ὸ": 2230,
    "ὺ": 2231,
    "ὼ": 2232,
    "ᾰ": 2233,
    "ᾱ": 2234,
    "ᾳ": 2235,
    "ᾶ": 2236,
    "Ᾰ": 2237,
    "ῃ": 2238,
    "ῆ": 2239,
    "ῇ": 2240,
    "Ὲ": 2241,
    "ῐ": 2242,
    "ῖ": 2243,
    "ῤ": 2244,
    "ῥ": 2245,
    "ῦ": 2246,
    "Ῥ": 2247,
    "ῳ": 2248,
    "ῴ": 2249,
    "ῶ": 2250,
    "ῷ": 2251,
    "‐": 2252,
    "‒": 2253,
    "–": 2254,
    "—": 2255,
    "―": 2256,
    "‖": 2257,
    "‚": 2258,
    "„": 2259,
    "‟": 2260,
    "†": 2261,
    "‡": 2262,
    "•": 2263,
    "‧": 2264,
    "‰": 2265,
    "′": 2266,
    "‵": 2267,
    "‹": 2268,
    "›": 2269,
    "※": 2270,
    "‿": 2271,
    "⁄": 2272,
    "⁊": 2273,
    "₤": 2274,
    "₦": 2275,
    "₩": 2276,
    "€": 2277,
    "₴": 2278,
    "₶": 2279,
    "₹": 2280,
    "₼": 2281,
    "₿": 2282,
    "⃗": 2283,
    "⃣": 2284,
    "℗": 2285,
    "℞": 2286,
    "℟": 2287,
    "℩": 2288,
    "Ↄ": 2289,
    "←": 2290,
    "↑": 2291,
    "→": 2292,
    "↓": 2293,
    "↔": 2294,
    "↕": 2295,
    "↖": 2296,
    "↗": 2297,
    "↘": 2298,
    "↙": 2299,
    "↛": 2300,
    "↝": 2301,
    "↦": 2302,
    "↩": 2303,
    "↪": 2304,
    "↲": 2305,
    "↳": 2306,
    "↴": 2307,
    "↵": 2308,
    "↺": 2309,
    "↻": 2310,
    "↽": 2311,
    "⇀": 2312,
    "⇄": 2313,
    "⇅": 2314,
    "⇆": 2315,
    "⇌": 2316,
    "⇐": 2317,
    "⇒": 2318,
    "⇔": 2319,
    "⇛": 2320,
    "⇝": 2321,
    "⇩": 2322,
    "∀": 2323,
    "∂": 2324,
    "∃": 2325,
    "∅": 2326,
    "∆": 2327,
    "∇": 2328,
    "∈": 2329,
    "∉": 2330,
    "∊": 2331,
    "∏": 2332,
    "∑": 2333,
    "−": 2334,
    "∓": 2335,
    "∖": 2336,
    "∗": 2337,
    "∘": 2338,
    "∙": 2339,
    "√": 2340,
    "∝": 2341,
    "∞": 2342,
    "∠": 2343,
    "∣": 2344,
    "∤": 2345,
    "∥": 2346,
    "∧": 2347,
    "∨": 2348,
    "∩": 2349,
    "∪": 2350,
    "∫": 2351,
    "∮": 2352,
    "∴": 2353,
    "∼": 2354,
    "∽": 2355,
    "≃": 2356,
    "≅": 2357,
    "≈": 2358,
    "≐": 2359,
    "≠": 2360,
    "≡": 2361,
    "≢": 2362,
    "≤": 2363,
    "≥": 2364,
    "≪": 2365,
    "≫": 2366,
    "≺": 2367,
    "≻": 2368,
    "⊂": 2369,
    "⊃": 2370,
    "⊆": 2371,
    "⊔": 2372,
    "⊕": 2373,
    "⊗": 2374,
    "⊙": 2375,
    "⊢": 2376,
    "⊤": 2377,
    "⊥": 2378,
    "⊨": 2379,
    "⋂": 2380,
    "⋃": 2381,
    "⋅": 2382,
    "⋆": 2383,
    "⋊": 2384,
    "⋮": 2385,
    "⋯": 2386,
    "⋱": 2387,
    "⌀": 2388,
    "⌃": 2389,
    "⌈": 2390,
    "⌉": 2391,
    "⌊": 2392,
    "⌋": 2393,
    "⌚": 2394,
    "⌛": 2395,
    "⌨": 2396,
    "⌬": 2397,
    "⏎": 2398,
    "⏟": 2399,
    "⏩": 2400,
    "⏪": 2401,
    "⏫": 2402,
    "⏬": 2403,
    "⏭": 2404,
    "⏮": 2405,
    "⏯": 2406,
    "⏰": 2407,
    "⏱": 2408,
    "⏲": 2409,
    "⏳": 2410,
    "⏸": 2411,
    "⏹": 2412,
    "⏺": 2413,
    "─": 2414,
    "│": 2415,
    "┌": 2416,
    "┐": 2417,
    "└": 2418,
    "┘": 2419,
    "├": 2420,
    "┤": 2421,
    "┬": 2422,
    "┴": 2423,
    "┼": 2424,
    "╱": 2425,
    "█": 2426,
    "■": 2427,
    "□": 2428,
    "▪": 2429,
    "▫": 2430,
    "▭": 2431,
    "▲": 2432,
    "△": 2433,
    "▶": 2434,
    "►": 2435,
    "▼": 2436,
    "◀": 2437,
    "◄": 2438,
    "◆": 2439,
    "○": 2440,
    "◌": 2441,
    "●": 2442,
    "◦": 2443,
    "◻": 2444,
    "◼": 2445,
    "◾": 2446,
    "☀": 2447,
    "☁": 2448,
    "☂": 2449,
    "☃": 2450,
    "☄": 2451,
    "★": 2452,
    "☆": 2453,
    "☉": 2454,
    "☊": 2455,
    "☎": 2456,
    "☑": 2457,
    "☔": 2458,
    "☕": 2459,
    "☘": 2460,
    "☝": 2461,
    "☠": 2462,
    "☢": 2463,
    "☣": 2464,
    "☥": 2465,
    "☦": 2466,
    "☪": 2467,
    "☭": 2468,
    "☮": 2469,
    "☯": 2470,
    "☰": 2471,
    "☳": 2472,
    "☸": 2473,
    "☺": 2474,
    "☿": 2475,
    "♀": 2476,
    "♂": 2477,
    "♃": 2478,
    "♈": 2479,
    "♉": 2480,
    "♊": 2481,
    "♋": 2482,
    "♌": 2483,
    "♍": 2484,
    "♎": 2485,
    "♏": 2486,
    "♐": 2487,
    "♑": 2488,
    "♒": 2489,
    "♓": 2490,
    "♔": 2491,
    "♕": 2492,
    "♖": 2493,
    "♗": 2494,
    "♘": 2495,
    "♙": 2496,
    "♛": 2497,
    "♝": 2498,
    "♟": 2499,
    "♠": 2500,
    "♡": 2501,
    "♢": 2502,
    "♣": 2503,
    "♥": 2504,
    "♦": 2505,
    "♨": 2506,
    "♪": 2507,
    "♭": 2508,
    "♮": 2509,
    "♯": 2510,
    "♰": 2511,
    "♻": 2512,
    "♾": 2513,
    "♿": 2514,
    "⚒": 2515,
    "⚓": 2516,
    "⚔": 2517,
    "⚕": 2518,
    "⚖": 2519,
    "⚗": 2520,
    "⚙": 2521,
    "⚛": 2522,
    "⚜": 2523,
    "⚠": 2524,
    "⚡": 2525,
    "⚤": 2526,
    "⚧": 2527,
    "⚪": 2528,
    "⚫": 2529,
    "⚭": 2530,
    "⚰": 2531,
    "⚱": 2532,
    "⚽": 2533,
    "⚾": 2534,
    "⛅": 2535,
    "⛈": 2536,
    "⛏": 2537,
    "⛑": 2538,
    "⛓": 2539,
    "⛔": 2540,
    "⛩": 2541,
    "⛪": 2542,
    "⛰": 2543,
    "⛱": 2544,
    "⛲": 2545,
    "⛳": 2546,
    "⛴": 2547,
    "⛵": 2548,
    "⛷": 2549,
    "⛸": 2550,
    "⛹": 2551,
    "⛺": 2552,
    "⛽": 2553,
    "✂": 2554,
    "✅": 2555,
    "✈": 2556,
    "✉": 2557,
    "✊": 2558,
    "✋": 2559,
    "✌": 2560,
    "✍": 2561,
    "✎": 2562,
    "✏": 2563,
    "✒": 2564,
    "✓": 2565,
    "✔": 2566,
    "✖": 2567,
    "✗": 2568,
    "✝": 2569,
    "✟": 2570,
    "✠": 2571,
    "✡": 2572,
    "✨": 2573,
    "✩": 2574,
    "✳": 2575,
    "✴": 2576,
    "✻": 2577,
    "❄": 2578,
    "❌": 2579,
    "❎": 2580,
    "❓": 2581,
    "❔": 2582,
    "❖": 2583,
    "❗": 2584,
    "❤": 2585,
    "❻": 2586,
    "➔": 2587,
    "➕": 2588,
    "➖": 2589,
    "➗": 2590,
    "➜": 2591,
    "➝": 2592,
    "➡": 2593,
    "➤": 2594,
    "➰": 2595,
    "⟦": 2596,
    "⟧": 2597,
    "⟨": 2598,
    "⟩": 2599,
    "⟪": 2600,
    "⟫": 2601,
    "⟵": 2602,
    "⟶": 2603,
    "⟷": 2604,
    "⟹": 2605,
    "⟺": 2606,
    "⟼": 2607,
    "⠅": 2608,
    "⠚": 2609,
    "⠟": 2610,
    "⠯": 2611,
    "⠵": 2612,
    "⠺": 2613,
    "⠾": 2614,
    "⤇": 2615,
    "⤵": 2616,
    "⤷": 2617,
    "⥋": 2618,
    "⦁": 2619,
    "⨁": 2620,
    "⨂": 2621,
    "⨯": 2622,
    "⩽": 2623,
    "⩾": 2624,
    "⪢": 2625,
    "⬄": 2626,
    "⬅": 2627,
    "⬆": 2628,
    "⬇": 2629,
    "⬛": 2630,
    "⬜": 2631,
    "⭐": 2632,
    "⭑": 2633,
    "⭕": 2634,
    "Ⰻ": 2635,
    "Ⱃ": 2636,
    "Ⱅ": 2637,
    "Ⱇ": 2638,
    "Ⱓ": 2639,
    "Ⱘ": 2640,
    "ⱇ": 2641,
    "ⱓ": 2642,
    "ⱡ": 2643,
    "ⱪ": 2644,
    "Ɑ": 2645,
    "Ɐ": 2646,
    "Ⲁ": 2647,
    "ⲁ": 2648,
    "ⲃ": 2649,
    "Ⲅ": 2650,
    "ⲅ": 2651,
    "ⲇ": 2652,
    "Ⲉ": 2653,
    "ⲉ": 2654,
    "Ⲋ": 2655,
    "ⲋ": 2656,
    "ⲍ": 2657,
    "ⲏ": 2658,
    "ⲑ": 2659,
    "ⲓ": 2660,
    "Ⲕ": 2661,
    "ⲕ": 2662,
    "Ⲗ": 2663,
    "ⲗ": 2664,
    "Ⲙ": 2665,
    "ⲙ": 2666,
    "Ⲛ": 2667,
    "ⲛ": 2668,
    "ⲟ": 2669,
    "Ⲡ": 2670,
    "ⲡ": 2671,
    "Ⲣ": 2672,
    "ⲣ": 2673,
    "Ⲥ": 2674,
    "ⲥ": 2675,
    "ⲧ": 2676,
    "ⲩ": 2677,
    "ⲫ": 2678,
    "ⲱ": 2679,
    "ⴰ": 2680,
    "ⴱ": 2681,
    "ⴳ": 2682,
    "ⴷ": 2683,
    "ⴸ": 2684,
    "ⴹ": 2685,
    "ⴻ": 2686,
    "ⴼ": 2687,
    "ⴽ": 2688,
    "ⵀ": 2689,
    "ⵃ": 2690,
    "ⵄ": 2691,
    "ⵅ": 2692,
    "ⵇ": 2693,
    "ⵉ": 2694,
    "ⵊ": 2695,
    "ⵍ": 2696,
    "ⵎ": 2697,
    "ⵏ": 2698,
    "ⵓ": 2699,
    "ⵔ": 2700,
    "ⵕ": 2701,
    "ⵖ": 2702,
    "ⵙ": 2703,
    "ⵚ": 2704,
    "ⵛ": 2705,
    "ⵜ": 2706,
    "ⵝ": 2707,
    "ⵟ": 2708,
    "ⵡ": 2709,
    "ⵢ": 2710,
    "ⵣ": 2711,
    "⺗": 2712,
    "⺫": 2713,
    "、": 2714,
    "。": 2715,
    "々": 2716,
    "〇": 2717,
    "〈": 2718,
    "〉": 2719,
    "《": 2720,
    "》": 2721,
    "「": 2722,
    "」": 2723,
    "『": 2724,
    "』": 2725,
    "【": 2726,
    "】": 2727,
    "〜": 2728,
    "〡": 2729,
    "〰": 2730,
    "〽": 2731,
    "ぁ": 2732,
    "あ": 2733,
    "ぃ": 2734,
    "い": 2735,
    "ぅ": 2736,
    "う": 2737,
    "ぇ": 2738,
    "え": 2739,
    "ぉ": 2740,
    "お": 2741,
    "か": 2742,
    "が": 2743,
    "き": 2744,
    "ぎ": 2745,
    "く": 2746,
    "ぐ": 2747,
    "け": 2748,
    "げ": 2749,
    "こ": 2750,
    "ご": 2751,
    "さ": 2752,
    "ざ": 2753,
    "し": 2754,
    "じ": 2755,
    "す": 2756,
    "ず": 2757,
    "せ": 2758,
    "ぜ": 2759,
    "そ": 2760,
    "ぞ": 2761,
    "た": 2762,
    "だ": 2763,
    "ち": 2764,
    "ぢ": 2765,
    "っ": 2766,
    "つ": 2767,
    "づ": 2768,
    "て": 2769,
    "で": 2770,
    "と": 2771,
    "ど": 2772,
    "な": 2773,
    "に": 2774,
    "ぬ": 2775,
    "ね": 2776,
    "の": 2777,
    "は": 2778,
    "ば": 2779,
    "ぱ": 2780,
    "ひ": 2781,
    "び": 2782,
    "ぴ": 2783,
    "ふ": 2784,
    "ぶ": 2785,
    "ぷ": 2786,
    "へ": 2787,
    "べ": 2788,
    "ほ": 2789,
    "ぼ": 2790,
    "ぽ": 2791,
    "ま": 2792,
    "み": 2793,
    "む": 2794,
    "め": 2795,
    "も": 2796,
    "ゃ": 2797,
    "や": 2798,
    "ゅ": 2799,
    "ゆ": 2800,
    "ょ": 2801,
    "よ": 2802,
    "ら": 2803,
    "り": 2804,
    "る": 2805,
    "れ": 2806,
    "ろ": 2807,
    "わ": 2808,
    "ゐ": 2809,
    "ゑ": 2810,
    "を": 2811,
    "ん": 2812,
    "ゝ": 2813,
    "ァ": 2814,
    "ア": 2815,
    "ィ": 2816,
    "イ": 2817,
    "ゥ": 2818,
    "ウ": 2819,
    "ェ": 2820,
    "エ": 2821,
    "ォ": 2822,
    "オ": 2823,
    "カ": 2824,
    "ガ": 2825,
    "キ": 2826,
    "ギ": 2827,
    "ク": 2828,
    "グ": 2829,
    "ケ": 2830,
    "ゲ": 2831,
    "コ": 2832,
    "ゴ": 2833,
    "サ": 2834,
    "ザ": 2835,
    "シ": 2836,
    "ジ": 2837,
    "ス": 2838,
    "ズ": 2839,
    "セ": 2840,
    "ゼ": 2841,
    "ソ": 2842,
    "ゾ": 2843,
    "タ": 2844,
    "ダ": 2845,
    "チ": 2846,
    "ヂ": 2847,
    "ッ": 2848,
    "ツ": 2849,
    "テ": 2850,
    "デ": 2851,
    "ト": 2852,
    "ド": 2853,
    "ナ": 2854,
    "ニ": 2855,
    "ヌ": 2856,
    "ネ": 2857,
    "ノ": 2858,
    "ハ": 2859,
    "バ": 2860,
    "パ": 2861,
    "ヒ": 2862,
    "ビ": 2863,
    "ピ": 2864,
    "フ": 2865,
    "ブ": 2866,
    "プ": 2867,
    "ヘ": 2868,
    "ベ": 2869,
    "ペ": 2870,
    "ホ": 2871,
    "ボ": 2872,
    "ポ": 2873,
    "マ": 2874,
    "ミ": 2875,
    "ム": 2876,
    "メ": 2877,
    "モ": 2878,
    "ャ": 2879,
    "ヤ": 2880,
    "ュ": 2881,
    "ユ": 2882,
    "ョ": 2883,
    "ヨ": 2884,
    "ラ": 2885,
    "リ": 2886,
    "ル": 2887,
    "レ": 2888,
    "ロ": 2889,
    "ワ": 2890,
    "ヰ": 2891,
    "ヱ": 2892,
    "ヲ": 2893,
    "ン": 2894,
    "ヴ": 2895,
    "ヶ": 2896,
    "・": 2897,
    "ー": 2898,
    "ㄇ": 2899,
    "ㄈ": 2900,
    "ㄉ": 2901,
    "ㄊ": 2902,
    "ㄌ": 2903,
    "ㄍ": 2904,
    "ㄏ": 2905,
    "ㄕ": 2906,
    "ㄖ": 2907,
    "ㄙ": 2908,
    "ㄚ": 2909,
    "ㄛ": 2910,
    "ㄞ": 2911,
    "ㄟ": 2912,
    "ㄠ": 2913,
    "ㄢ": 2914,
    "ㄣ": 2915,
    "ㄥ": 2916,
    "ㄧ": 2917,
    "ㄨ": 2918,
    "ㄩ": 2919,
    "ㇰ": 2920,
    "ㇱ": 2921,
    "ㇻ": 2922,
    "㑻": 2923,
    "㠘": 2924,
    "一": 2925,
    "丁": 2926,
    "七": 2927,
    "万": 2928,
    "丈": 2929,
    "三": 2930,
    "上": 2931,
    "下": 2932,
    "不": 2933,
    "与": 2934,
    "丐": 2935,
    "丑": 2936,
    "专": 2937,
    "丕": 2938,
    "世": 2939,
    "丘": 2940,
    "丙": 2941,
    "业": 2942,
    "丛": 2943,
    "东": 2944,
    "丝": 2945,
    "丞": 2946,
    "両": 2947,
    "两": 2948,
    "严": 2949,
    "並": 2950,
    "丧": 2951,
    "个": 2952,
    "中": 2953,
    "丰": 2954,
    "串": 2955,
    "临": 2956,
    "丸": 2957,
    "丹": 2958,
    "为": 2959,
    "主": 2960,
    "丼": 2961,
    "丽": 2962,
    "举": 2963,
    "乃": 2964,
    "久": 2965,
    "么": 2966,
    "义": 2967,
    "之": 2968,
    "乌": 2969,
    "乎": 2970,
    "乐": 2971,
    "乔": 2972,
    "乖": 2973,
    "乗": 2974,
    "乘": 2975,
    "乙": 2976,
    "九": 2977,
    "乞": 2978,
    "也": 2979,
    "习": 2980,
    "乡": 2981,
    "书": 2982,
    "乭": 2983,
    "乱": 2984,
    "乳": 2985,
    "乾": 2986,
    "亀": 2987,
    "亂": 2988,
    "了": 2989,
    "予": 2990,
    "争": 2991,
    "事": 2992,
    "二": 2993,
    "于": 2994,
    "云": 2995,
    "五": 2996,
    "井": 2997,
    "亘": 2998,
    "亙": 2999,
    "亚": 3000,
    "些": 3001,
    "亜": 3002,
    "亞": 3003,
    "亡": 3004,
    "亢": 3005,
    "交": 3006,
    "亥": 3007,
    "亦": 3008,
    "产": 3009,
    "亨": 3010,
    "享": 3011,
    "京": 3012,
    "亭": 3013,
    "亮": 3014,
    "亲": 3015,
    "人": 3016,
    "亻": 3017,
    "什": 3018,
    "仁": 3019,
    "仃": 3020,
    "仄": 3021,
    "仇": 3022,
    "今": 3023,
    "介": 3024,
    "从": 3025,
    "仏": 3026,
    "仓": 3027,
    "仔": 3028,
    "仕": 3029,
    "他": 3030,
    "付": 3031,
    "仙": 3032,
    "仝": 3033,
    "仡": 3034,
    "代": 3035,
    "令": 3036,
    "以": 3037,
    "们": 3038,
    "仮": 3039,
    "仰": 3040,
    "仲": 3041,
    "件": 3042,
    "价": 3043,
    "任": 3044,
    "份": 3045,
    "企": 3046,
    "伊": 3047,
    "伍": 3048,
    "伎": 3049,
    "伏": 3050,
    "伐": 3051,
    "休": 3052,
    "众": 3053,
    "优": 3054,
    "伙": 3055,
    "会": 3056,
    "伝": 3057,
    "伞": 3058,
    "伟": 3059,
    "传": 3060,
    "伦": 3061,
    "伯": 3062,
    "伴": 3063,
    "伶": 3064,
    "伸": 3065,
    "似": 3066,
    "伽": 3067,
    "佃": 3068,
    "位": 3069,
    "住": 3070,
    "佐": 3071,
    "佑": 3072,
    "体": 3073,
    "何": 3074,
    "佘": 3075,
    "余": 3076,
    "佛": 3077,
    "作": 3078,
    "佝": 3079,
    "你": 3080,
    "佬": 3081,
    "佳": 3082,
    "使": 3083,
    "侃": 3084,
    "來": 3085,
    "例": 3086,
    "侍": 3087,
    "侑": 3088,
    "侗": 3089,
    "侘": 3090,
    "供": 3091,
    "依": 3092,
    "侠": 3093,
    "価": 3094,
    "侮": 3095,
    "侯": 3096,
    "便": 3097,
    "係": 3098,
    "俄": 3099,
    "俊": 3100,
    "俐": 3101,
    "俗": 3102,
    "俘": 3103,
    "保": 3104,
    "俠": 3105,
    "信": 3106,
    "俣": 3107,
    "俩": 3108,
    "修": 3109,
    "俱": 3110,
    "俳": 3111,
    "俺": 3112,
    "倉": 3113,
    "個": 3114,
    "們": 3115,
    "倒": 3116,
    "倖": 3117,
    "倘": 3118,
    "候": 3119,
    "借": 3120,
    "倡": 3121,
    "値": 3122,
    "倦": 3123,
    "倪": 3124,
    "倫": 3125,
    "倭": 3126,
    "倶": 3127,
    "倹": 3128,
    "债": 3129,
    "偃": 3130,
    "假": 3131,
    "偈": 3132,
    "偉": 3133,
    "停": 3134,
    "健": 3135,
    "偲": 3136,
    "側": 3137,
    "偵": 3138,
    "偶": 3139,
    "偷": 3140,
    "偽": 3141,
    "傀": 3142,
    "傅": 3143,
    "傉": 3144,
    "傍": 3145,
    "傑": 3146,
    "傘": 3147,
    "備": 3148,
    "傭": 3149,
    "傲": 3150,
    "傳": 3151,
    "債": 3152,
    "傷": 3153,
    "傾": 3154,
    "働": 3155,
    "像": 3156,
    "僕": 3157,
    "僚": 3158,
    "僞": 3159,
    "僧": 3160,
    "價": 3161,
    "儀": 3162,
    "億": 3163,
    "儉": 3164,
    "儒": 3165,
    "償": 3166,
    "儡": 3167,
    "優": 3168,
    "儲": 3169,
    "儿": 3170,
    "兀": 3171,
    "允": 3172,
    "元": 3173,
    "兄": 3174,
    "充": 3175,
    "先": 3176,
    "光": 3177,
    "克": 3178,
    "兎": 3179,
    "児": 3180,
    "兒": 3181,
    "兔": 3182,
    "党": 3183,
    "兜": 3184,
    "入": 3185,
    "內": 3186,
    "全": 3187,
    "兩": 3188,
    "兪": 3189,
    "八": 3190,
    "公": 3191,
    "六": 3192,
    "兰": 3193,
    "共": 3194,
    "关": 3195,
    "兴": 3196,
    "兵": 3197,
    "其": 3198,
    "具": 3199,
    "典": 3200,
    "养": 3201,
    "兼": 3202,
    "兽": 3203,
    "冀": 3204,
    "内": 3205,
    "円": 3206,
    "冊": 3207,
    "册": 3208,
    "再": 3209,
    "冒": 3210,
    "写": 3211,
    "军": 3212,
    "农": 3213,
    "冠": 3214,
    "冥": 3215,
    "冨": 3216,
    "冬": 3217,
    "冯": 3218,
    "冰": 3219,
    "冲": 3220,
    "决": 3221,
    "冴": 3222,
    "冶": 3223,
    "冷": 3224,
    "净": 3225,
    "凄": 3226,
    "准": 3227,
    "凉": 3228,
    "凌": 3229,
    "凍": 3230,
    "凛": 3231,
    "凜": 3232,
    "凝": 3233,
    "几": 3234,
    "凡": 3235,
    "凤": 3236,
    "処": 3237,
    "凧": 3238,
    "凪": 3239,
    "凯": 3240,
    "凰": 3241,
    "凱": 3242,
    "凶": 3243,
    "凸": 3244,
    "凹": 3245,
    "出": 3246,
    "击": 3247,
    "函": 3248,
    "刀": 3249,
    "刂": 3250,
    "刃": 3251,
    "分": 3252,
    "切": 3253,
    "刈": 3254,
    "刊": 3255,
    "刑": 3256,
    "划": 3257,
    "刖": 3258,
    "列": 3259,
    "刘": 3260,
    "则": 3261,
    "刚": 3262,
    "创": 3263,
    "初": 3264,
    "判": 3265,
    "別": 3266,
    "利": 3267,
    "别": 3268,
    "到": 3269,
    "制": 3270,
    "刷": 3271,
    "券": 3272,
    "刺": 3273,
    "刻": 3274,
    "剃": 3275,
    "則": 3276,
    "削": 3277,
    "剌": 3278,
    "前": 3279,
    "剎": 3280,
    "剑": 3281,
    "剔": 3282,
    "剖": 3283,
    "剛": 3284,
    "剣": 3285,
    "剥": 3286,
    "剧": 3287,
    "剩": 3288,
    "剪": 3289,
    "副": 3290,
    "剰": 3291,
    "割": 3292,
    "創": 3293,
    "剽": 3294,
    "劃": 3295,
    "劇": 3296,
    "劉": 3297,
    "劍": 3298,
    "劒": 3299,
    "劔": 3300,
    "力": 3301,
    "功": 3302,
    "加": 3303,
    "务": 3304,
    "动": 3305,
    "助": 3306,
    "努": 3307,
    "劫": 3308,
    "劲": 3309,
    "劳": 3310,
    "劼": 3311,
    "勁": 3312,
    "勃": 3313,
    "勅": 3314,
    "勇": 3315,
    "勉": 3316,
    "勋": 3317,
    "勒": 3318,
    "動": 3319,
    "勘": 3320,
    "務": 3321,
    "勛": 3322,
    "勝": 3323,
    "勞": 3324,
    "募": 3325,
    "勢": 3326,
    "勣": 3327,
    "勤": 3328,
    "勧": 3329,
    "勰": 3330,
    "勲": 3331,
    "勳": 3332,
    "勺": 3333,
    "勿": 3334,
    "匁": 3335,
    "包": 3336,
    "化": 3337,
    "北": 3338,
    "匙": 3339,
    "匠": 3340,
    "匡": 3341,
    "匣": 3342,
    "匯": 3343,
    "匹": 3344,
    "区": 3345,
    "医": 3346,
    "區": 3347,
    "十": 3348,
    "千": 3349,
    "卄": 3350,
    "卅": 3351,
    "升": 3352,
    "午": 3353,
    "卉": 3354,
    "半": 3355,
    "卍": 3356,
    "华": 3357,
    "协": 3358,
    "卐": 3359,
    "卑": 3360,
    "卒": 3361,
    "卓": 3362,
    "協": 3363,
    "单": 3364,
    "南": 3365,
    "単": 3366,
    "博": 3367,
    "卜": 3368,
    "占": 3369,
    "卡": 3370,
    "卢": 3371,
    "卤": 3372,
    "卦": 3373,
    "卧": 3374,
    "卫": 3375,
    "卯": 3376,
    "印": 3377,
    "危": 3378,
    "即": 3379,
    "卵": 3380,
    "卷": 3381,
    "卽": 3382,
    "卿": 3383,
    "厂": 3384,
    "厄": 3385,
    "历": 3386,
    "厓": 3387,
    "厚": 3388,
    "原": 3389,
    "厦": 3390,
    "厨": 3391,
    "厩": 3392,
    "厲": 3393,
    "厳": 3394,
    "去": 3395,
    "县": 3396,
    "参": 3397,
    "又": 3398,
    "叉": 3399,
    "及": 3400,
    "友": 3401,
    "双": 3402,
    "反": 3403,
    "収": 3404,
    "发": 3405,
    "叔": 3406,
    "取": 3407,
    "受": 3408,
    "变": 3409,
    "叙": 3410,
    "叛": 3411,
    "叟": 3412,
    "叡": 3413,
    "叢": 3414,
    "口": 3415,
    "古": 3416,
    "句": 3417,
    "另": 3418,
    "叩": 3419,
    "只": 3420,
    "叫": 3421,
    "召": 3422,
    "叭": 3423,
    "可": 3424,
    "台": 3425,
    "史": 3426,
    "右": 3427,
    "叶": 3428,
    "号": 3429,
    "司": 3430,
    "叻": 3431,
    "各": 3432,
    "合": 3433,
    "吉": 3434,
    "同": 3435,
    "名": 3436,
    "后": 3437,
    "吐": 3438,
    "向": 3439,
    "君": 3440,
    "吞": 3441,
    "吟": 3442,
    "吠": 3443,
    "否": 3444,
    "吧": 3445,
    "含": 3446,
    "听": 3447,
    "启": 3448,
    "吳": 3449,
    "吴": 3450,
    "吸": 3451,
    "吹": 3452,
    "吻": 3453,
    "吼": 3454,
    "吽": 3455,
    "吾": 3456,
    "呂": 3457,
    "呇": 3458,
    "呈": 3459,
    "呉": 3460,
    "告": 3461,
    "呔": 3462,
    "员": 3463,
    "周": 3464,
    "呪": 3465,
    "味": 3466,
    "呼": 3467,
    "命": 3468,
    "咄": 3469,
    "和": 3470,
    "咎": 3471,
    "咏": 3472,
    "咒": 3473,
    "咕": 3474,
    "咨": 3475,
    "咬": 3476,
    "咲": 3477,
    "咸": 3478,
    "哀": 3479,
    "品": 3480,
    "哇": 3481,
    "哈": 3482,
    "哉": 3483,
    "員": 3484,
    "哥": 3485,
    "哨": 3486,
    "哩": 3487,
    "哭": 3488,
    "哲": 3489,
    "哼": 3490,
    "唄": 3491,
    "唐": 3492,
    "唖": 3493,
    "唯": 3494,
    "唱": 3495,
    "唵": 3496,
    "啄": 3497,
    "商": 3498,
    "啊": 3499,
    "問": 3500,
    "啓": 3501,
    "啟": 3502,
    "喀": 3503,
    "善": 3504,
    "喇": 3505,
    "喋": 3506,
    "喘": 3507,
    "喚": 3508,
    "喜": 3509,
    "喧": 3510,
    "喪": 3511,
    "喫": 3512,
    "喬": 3513,
    "單": 3514,
    "喰": 3515,
    "喵": 3516,
    "営": 3517,
    "嗄": 3518,
    "嗜": 3519,
    "嗡": 3520,
    "嗣": 3521,
    "嗷": 3522,
    "嘆": 3523,
    "嘉": 3524,
    "嘎": 3525,
    "嘗": 3526,
    "嘘": 3527,
    "嘛": 3528,
    "嘩": 3529,
    "嘲": 3530,
    "噂": 3531,
    "噌": 3532,
    "噛": 3533,
    "器": 3534,
    "噫": 3535,
    "噺": 3536,
    "嚦": 3537,
    "嚴": 3538,
    "囁": 3539,
    "囃": 3540,
    "囍": 3541,
    "囚": 3542,
    "四": 3543,
    "回": 3544,
    "因": 3545,
    "团": 3546,
    "団": 3547,
    "园": 3548,
    "図": 3549,
    "围": 3550,
    "囷": 3551,
    "固": 3552,
    "国": 3553,
    "图": 3554,
    "圃": 3555,
    "圆": 3556,
    "圈": 3557,
    "國": 3558,
    "圍": 3559,
    "圏": 3560,
    "園": 3561,
    "圓": 3562,
    "圖": 3563,
    "團": 3564,
    "土": 3565,
    "圣": 3566,
    "圧": 3567,
    "在": 3568,
    "圭": 3569,
    "地": 3570,
    "圳": 3571,
    "场": 3572,
    "圻": 3573,
    "圾": 3574,
    "址": 3575,
    "坂": 3576,
    "均": 3577,
    "坊": 3578,
    "坏": 3579,
    "坐": 3580,
    "坑": 3581,
    "坚": 3582,
    "坞": 3583,
    "坟": 3584,
    "坡": 3585,
    "坤": 3586,
    "坦": 3587,
    "坪": 3588,
    "坳": 3589,
    "坵": 3590,
    "垃": 3591,
    "垅": 3592,
    "垈": 3593,
    "型": 3594,
    "垠": 3595,
    "垢": 3596,
    "垣": 3597,
    "垤": 3598,
    "埋": 3599,
    "城": 3600,
    "埔": 3601,
    "埜": 3602,
    "域": 3603,
    "埠": 3604,
    "埴": 3605,
    "埵": 3606,
    "培": 3607,
    "基": 3608,
    "埼": 3609,
    "堀": 3610,
    "堂": 3611,
    "堅": 3612,
    "堆": 3613,
    "堕": 3614,
    "堡": 3615,
    "堤": 3616,
    "堪": 3617,
    "堯": 3618,
    "堰": 3619,
    "報": 3620,
    "場": 3621,
    "堵": 3622,
    "堺": 3623,
    "塁": 3624,
    "塔": 3625,
    "塗": 3626,
    "塘": 3627,
    "塙": 3628,
    "塚": 3629,
    "塩": 3630,
    "塵": 3631,
    "塾": 3632,
    "境": 3633,
    "墓": 3634,
    "増": 3635,
    "墘": 3636,
    "墜": 3637,
    "增": 3638,
    "墨": 3639,
    "墩": 3640,
    "墳": 3641,
    "壁": 3642,
    "壇": 3643,
    "壊": 3644,
    "壓": 3645,
    "壕": 3646,
    "壖": 3647,
    "壘": 3648,
    "壞": 3649,
    "士": 3650,
    "壬": 3651,
    "壮": 3652,
    "壯": 3653,
    "声": 3654,
    "壱": 3655,
    "売": 3656,
    "壷": 3657,
    "壹": 3658,
    "壺": 3659,
    "壽": 3660,
    "変": 3661,
    "复": 3662,
    "夏": 3663,
    "夕": 3664,
    "外": 3665,
    "夙": 3666,
    "多": 3667,
    "夜": 3668,
    "夠": 3669,
    "夢": 3670,
    "夥": 3671,
    "大": 3672,
    "天": 3673,
    "太": 3674,
    "夫": 3675,
    "央": 3676,
    "失": 3677,
    "头": 3678,
    "夷": 3679,
    "夺": 3680,
    "奄": 3681,
    "奇": 3682,
    "奈": 3683,
    "奉": 3684,
    "奎": 3685,
    "奏": 3686,
    "奔": 3687,
    "奕": 3688,
    "奖": 3689,
    "套": 3690,
    "奥": 3691,
    "奧": 3692,
    "奨": 3693,
    "奪": 3694,
    "奬": 3695,
    "奮": 3696,
    "女": 3697,
    "奴": 3698,
    "奶": 3699,
    "她": 3700,
    "好": 3701,
    "奿": 3702,
    "如": 3703,
    "妃": 3704,
    "妄": 3705,
    "妆": 3706,
    "妊": 3707,
    "妓": 3708,
    "妖": 3709,
    "妙": 3710,
    "妝": 3711,
    "妞": 3712,
    "妮": 3713,
    "妲": 3714,
    "妹": 3715,
    "妻": 3716,
    "妾": 3717,
    "姆": 3718,
    "姉": 3719,
    "始": 3720,
    "姑": 3721,
    "姒": 3722,
    "姓": 3723,
    "委": 3724,
    "姚": 3725,
    "姜": 3726,
    "姥": 3727,
    "姦": 3728,
    "姪": 3729,
    "姫": 3730,
    "姬": 3731,
    "姿": 3732,
    "威": 3733,
    "娃": 3734,
    "娄": 3735,
    "娘": 3736,
    "娚": 3737,
    "娛": 3738,
    "娜": 3739,
    "娠": 3740,
    "娩": 3741,
    "娱": 3742,
    "娼": 3743,
    "婆": 3744,
    "婉": 3745,
    "婚": 3746,
    "婦": 3747,
    "婬": 3748,
    "婺": 3749,
    "婿": 3750,
    "媚": 3751,
    "媛": 3752,
    "媧": 3753,
    "媽": 3754,
    "嫁": 3755,
    "嫂": 3756,
    "嫌": 3757,
    "嫮": 3758,
    "嬉": 3759,
    "嬌": 3760,
    "嬢": 3761,
    "孀": 3762,
    "孃": 3763,
    "子": 3764,
    "孔": 3765,
    "字": 3766,
    "存": 3767,
    "孙": 3768,
    "孜": 3769,
    "孝": 3770,
    "孟": 3771,
    "孢": 3772,
    "季": 3773,
    "孤": 3774,
    "学": 3775,
    "孩": 3776,
    "孫": 3777,
    "學": 3778,
    "孺": 3779,
    "宀": 3780,
    "宁": 3781,
    "宅": 3782,
    "宇": 3783,
    "守": 3784,
    "安": 3785,
    "宋": 3786,
    "完": 3787,
    "宍": 3788,
    "宏": 3789,
    "宕": 3790,
    "宗": 3791,
    "官": 3792,
    "宙": 3793,
    "定": 3794,
    "宛": 3795,
    "宜": 3796,
    "宝": 3797,
    "实": 3798,
    "実": 3799,
    "审": 3800,
    "客": 3801,
    "宣": 3802,
    "室": 3803,
    "宥": 3804,
    "宪": 3805,
    "宫": 3806,
    "宮": 3807,
    "宰": 3808,
    "害": 3809,
    "宴": 3810,
    "宵": 3811,
    "家": 3812,
    "容": 3813,
    "宽": 3814,
    "宾": 3815,
    "宿": 3816,
    "寂": 3817,
    "寄": 3818,
    "寅": 3819,
    "密": 3820,
    "寇": 3821,
    "富": 3822,
    "寒": 3823,
    "寓": 3824,
    "寔": 3825,
    "寛": 3826,
    "寝": 3827,
    "察": 3828,
    "寢": 3829,
    "實": 3830,
    "寧": 3831,
    "寨": 3832,
    "審": 3833,
    "寫": 3834,
    "寬": 3835,
    "寮": 3836,
    "寰": 3837,
    "寵": 3838,
    "寶": 3839,
    "寸": 3840,
    "对": 3841,
    "寺": 3842,
    "导": 3843,
    "対": 3844,
    "寿": 3845,
    "封": 3846,
    "専": 3847,
    "射": 3848,
    "将": 3849,
    "將": 3850,
    "專": 3851,
    "尉": 3852,
    "尊": 3853,
    "尋": 3854,
    "對": 3855,
    "導": 3856,
    "小": 3857,
    "少": 3858,
    "尓": 3859,
    "尔": 3860,
    "尖": 3861,
    "尘": 3862,
    "尙": 3863,
    "尚": 3864,
    "尤": 3865,
    "尧": 3866,
    "尭": 3867,
    "就": 3868,
    "尹": 3869,
    "尺": 3870,
    "尻": 3871,
    "尼": 3872,
    "尽": 3873,
    "尾": 3874,
    "局": 3875,
    "居": 3876,
    "屈": 3877,
    "屋": 3878,
    "屍": 3879,
    "屎": 3880,
    "屏": 3881,
    "屑": 3882,
    "展": 3883,
    "属": 3884,
    "屠": 3885,
    "層": 3886,
    "履": 3887,
    "屬": 3888,
    "屯": 3889,
    "山": 3890,
    "岐": 3891,
    "岑": 3892,
    "岔": 3893,
    "岗": 3894,
    "岚": 3895,
    "岛": 3896,
    "岡": 3897,
    "岩": 3898,
    "岬": 3899,
    "岭": 3900,
    "岱": 3901,
    "岳": 3902,
    "岸": 3903,
    "峠": 3904,
    "峡": 3905,
    "峨": 3906,
    "峭": 3907,
    "峯": 3908,
    "峰": 3909,
    "島": 3910,
    "峻": 3911,
    "峽": 3912,
    "崂": 3913,
    "崃": 3914,
    "崇": 3915,
    "崎": 3916,
    "崑": 3917,
    "崔": 3918,
    "崖": 3919,
    "崙": 3920,
    "崚": 3921,
    "崞": 3922,
    "崩": 3923,
    "嵇": 3924,
    "嵐": 3925,
    "嵜": 3926,
    "嵩": 3927,
    "嵬": 3928,
    "嵯": 3929,
    "嶋": 3930,
    "嶌": 3931,
    "嶺": 3932,
    "嶼": 3933,
    "嶽": 3934,
    "巌": 3935,
    "巍": 3936,
    "巖": 3937,
    "川": 3938,
    "州": 3939,
    "巡": 3940,
    "巢": 3941,
    "巣": 3942,
    "工": 3943,
    "左": 3944,
    "巧": 3945,
    "巨": 3946,
    "巫": 3947,
    "差": 3948,
    "己": 3949,
    "已": 3950,
    "巳": 3951,
    "巴": 3952,
    "巷": 3953,
    "巻": 3954,
    "巽": 3955,
    "巾": 3956,
    "市": 3957,
    "布": 3958,
    "帆": 3959,
    "师": 3960,
    "希": 3961,
    "帕": 3962,
    "帖": 3963,
    "帛": 3964,
    "帝": 3965,
    "帥": 3966,
    "带": 3967,
    "師": 3968,
    "席": 3969,
    "帮": 3970,
    "帯": 3971,
    "帰": 3972,
    "帳": 3973,
    "帶": 3974,
    "常": 3975,
    "帽": 3976,
    "幌": 3977,
    "幕": 3978,
    "幟": 3979,
    "幡": 3980,
    "幣": 3981,
    "幪": 3982,
    "干": 3983,
    "平": 3984,
    "年": 3985,
    "并": 3986,
    "幸": 3987,
    "幹": 3988,
    "幻": 3989,
    "幼": 3990,
    "幽": 3991,
    "幾": 3992,
    "广": 3993,
    "庁": 3994,
    "広": 3995,
    "庄": 3996,
    "庆": 3997,
    "庇": 3998,
    "床": 3999,
    "序": 4000,
    "庐": 4001,
    "库": 4002,
    "应": 4003,
    "底": 4004,
    "店": 4005,
    "庙": 4006,
    "庚": 4007,
    "府": 4008,
    "庞": 4009,
    "度": 4010,
    "座": 4011,
    "庫": 4012,
    "庭": 4013,
    "庵": 4014,
    "庶": 4015,
    "康": 4016,
    "庸": 4017,
    "廂": 4018,
    "廃": 4019,
    "廈": 4020,
    "廉": 4021,
    "廊": 4022,
    "廓": 4023,
    "廖": 4024,
    "廟": 4025,
    "廠": 4026,
    "廢": 4027,
    "廣": 4028,
    "廬": 4029,
    "廳": 4030,
    "延": 4031,
    "廷": 4032,
    "建": 4033,
    "廻": 4034,
    "廿": 4035,
    "开": 4036,
    "弁": 4037,
    "异": 4038,
    "式": 4039,
    "弓": 4040,
    "弔": 4041,
    "引": 4042,
    "弘": 4043,
    "弛": 4044,
    "弟": 4045,
    "张": 4046,
    "弥": 4047,
    "弦": 4048,
    "弩": 4049,
    "弯": 4050,
    "弱": 4051,
    "張": 4052,
    "強": 4053,
    "弹": 4054,
    "强": 4055,
    "弾": 4056,
    "彈": 4057,
    "彌": 4058,
    "当": 4059,
    "录": 4060,
    "彗": 4061,
    "彙": 4062,
    "彝": 4063,
    "形": 4064,
    "彦": 4065,
    "彩": 4066,
    "彪": 4067,
    "彬": 4068,
    "彭": 4069,
    "彰": 4070,
    "影": 4071,
    "彷": 4072,
    "役": 4073,
    "彼": 4074,
    "往": 4075,
    "征": 4076,
    "徂": 4077,
    "径": 4078,
    "待": 4079,
    "徇": 4080,
    "律": 4081,
    "後": 4082,
    "徐": 4083,
    "徒": 4084,
    "従": 4085,
    "得": 4086,
    "從": 4087,
    "徠": 4088,
    "御": 4089,
    "徨": 4090,
    "復": 4091,
    "微": 4092,
    "徳": 4093,
    "徴": 4094,
    "徵": 4095,
    "德": 4096,
    "徹": 4097,
    "徽": 4098,
    "心": 4099,
    "忄": 4100,
    "必": 4101,
    "忆": 4102,
    "忌": 4103,
    "忍": 4104,
    "忏": 4105,
    "志": 4106,
    "忘": 4107,
    "応": 4108,
    "忠": 4109,
    "忧": 4110,
    "快": 4111,
    "忱": 4112,
    "念": 4113,
    "忽": 4114,
    "怀": 4115,
    "态": 4116,
    "怒": 4117,
    "怕": 4118,
    "怖": 4119,
    "怜": 4120,
    "思": 4121,
    "怡": 4122,
    "急": 4123,
    "性": 4124,
    "怨": 4125,
    "怪": 4126,
    "总": 4127,
    "怿": 4128,
    "恆": 4129,
    "恋": 4130,
    "恍": 4131,
    "恐": 4132,
    "恒": 4133,
    "恕": 4134,
    "恢": 4135,
    "恥": 4136,
    "恩": 4137,
    "恭": 4138,
    "息": 4139,
    "恰": 4140,
    "恵": 4141,
    "恺": 4142,
    "悉": 4143,
    "悌": 4144,
    "悔": 4145,
    "悟": 4146,
    "悠": 4147,
    "悦": 4148,
    "您": 4149,
    "悩": 4150,
    "悪": 4151,
    "悲": 4152,
    "悶": 4153,
    "悼": 4154,
    "情": 4155,
    "惇": 4156,
    "惊": 4157,
    "惑": 4158,
    "惚": 4159,
    "惜": 4160,
    "惟": 4161,
    "惠": 4162,
    "惡": 4163,
    "惣": 4164,
    "惨": 4165,
    "想": 4166,
    "惹": 4167,
    "惺": 4168,
    "愁": 4169,
    "愈": 4170,
    "愉": 4171,
    "意": 4172,
    "愛": 4173,
    "感": 4174,
    "愼": 4175,
    "愿": 4176,
    "慄": 4177,
    "慈": 4178,
    "態": 4179,
    "慎": 4180,
    "慕": 4181,
    "慣": 4182,
    "慧": 4183,
    "慰": 4184,
    "慶": 4185,
    "憂": 4186,
    "憎": 4187,
    "憐": 4188,
    "憑": 4189,
    "憧": 4190,
    "憨": 4191,
    "憩": 4192,
    "憬": 4193,
    "憲": 4194,
    "憶": 4195,
    "應": 4196,
    "懋": 4197,
    "懐": 4198,
    "懲": 4199,
    "懶": 4200,
    "懷": 4201,
    "懺": 4202,
    "戀": 4203,
    "戈": 4204,
    "戊": 4205,
    "戎": 4206,
    "戏": 4207,
    "成": 4208,
    "我": 4209,
    "戒": 4210,
    "或": 4211,
    "战": 4212,
    "戟": 4213,
    "戡": 4214,
    "戦": 4215,
    "截": 4216,
    "戯": 4217,
    "戰": 4218,
    "戲": 4219,
    "戴": 4220,
    "戶": 4221,
    "戸": 4222,
    "房": 4223,
    "所": 4224,
    "扁": 4225,
    "扇": 4226,
    "扉": 4227,
    "手": 4228,
    "扌": 4229,
    "才": 4230,
    "扎": 4231,
    "打": 4232,
    "払": 4233,
    "托": 4234,
    "扡": 4235,
    "扣": 4236,
    "扬": 4237,
    "批": 4238,
    "找": 4239,
    "承": 4240,
    "技": 4241,
    "抄": 4242,
    "把": 4243,
    "抑": 4244,
    "投": 4245,
    "抗": 4246,
    "折": 4247,
    "抚": 4248,
    "抜": 4249,
    "択": 4250,
    "护": 4251,
    "报": 4252,
    "披": 4253,
    "抱": 4254,
    "抵": 4255,
    "押": 4256,
    "拂": 4257,
    "担": 4258,
    "拆": 4259,
    "拉": 4260,
    "拌": 4261,
    "拍": 4262,
    "拏": 4263,
    "拐": 4264,
    "拓": 4265,
    "拔": 4266,
    "招": 4267,
    "拜": 4268,
    "拝": 4269,
    "括": 4270,
    "拳": 4271,
    "拽": 4272,
    "拾": 4273,
    "持": 4274,
    "挂": 4275,
    "指": 4276,
    "按": 4277,
    "挑": 4278,
    "挙": 4279,
    "挥": 4280,
    "振": 4281,
    "挺": 4282,
    "挽": 4283,
    "捉": 4284,
    "捏": 4285,
    "捕": 4286,
    "捜": 4287,
    "捡": 4288,
    "捧": 4289,
    "捲": 4290,
    "捷": 4291,
    "捺": 4292,
    "捻": 4293,
    "掀": 4294,
    "掃": 4295,
    "授": 4296,
    "掌": 4297,
    "排": 4298,
    "掘": 4299,
    "掛": 4300,
    "掟": 4301,
    "掠": 4302,
    "探": 4303,
    "掣": 4304,
    "接": 4305,
    "推": 4306,
    "掬": 4307,
    "掰": 4308,
    "掱": 4309,
    "掲": 4310,
    "掴": 4311,
    "揃": 4312,
    "揆": 4313,
    "描": 4314,
    "提": 4315,
    "揚": 4316,
    "握": 4317,
    "揭": 4318,
    "揮": 4319,
    "援": 4320,
    "揺": 4321,
    "搅": 4322,
    "搔": 4323,
    "搖": 4324,
    "搜": 4325,
    "搭": 4326,
    "摂": 4327,
    "摇": 4328,
    "摑": 4329,
    "摘": 4330,
    "摩": 4331,
    "摺": 4332,
    "撃": 4333,
    "撒": 4334,
    "撞": 4335,
    "撤": 4336,
    "撥": 4337,
    "撫": 4338,
    "播": 4339,
    "撮": 4340,
    "撰": 4341,
    "擁": 4342,
    "擂": 4343,
    "擊": 4344,
    "擋": 4345,
    "操": 4346,
    "擢": 4347,
    "擦": 4348,
    "攘": 4349,
    "攝": 4350,
    "支": 4351,
    "收": 4352,
    "攷": 4353,
    "攸": 4354,
    "改": 4355,
    "攻": 4356,
    "放": 4357,
    "政": 4358,
    "故": 4359,
    "敍": 4360,
    "敏": 4361,
    "救": 4362,
    "敗": 4363,
    "敘": 4364,
    "教": 4365,
    "敢": 4366,
    "散": 4367,
    "敦": 4368,
    "敨": 4369,
    "敬": 4370,
    "数": 4371,
    "整": 4372,
    "敵": 4373,
    "敷": 4374,
    "數": 4375,
    "文": 4376,
    "斉": 4377,
    "斎": 4378,
    "斐": 4379,
    "斑": 4380,
    "斗": 4381,
    "料": 4382,
    "斜": 4383,
    "斡": 4384,
    "斧": 4385,
    "斬": 4386,
    "断": 4387,
    "斯": 4388,
    "新": 4389,
    "斷": 4390,
    "方": 4391,
    "於": 4392,
    "施": 4393,
    "旅": 4394,
    "旋": 4395,
    "族": 4396,
    "旗": 4397,
    "无": 4398,
    "既": 4399,
    "日": 4400,
    "旦": 4401,
    "旧": 4402,
    "早": 4403,
    "旬": 4404,
    "旭": 4405,
    "时": 4406,
    "旺": 4407,
    "旻": 4408,
    "昀": 4409,
    "昂": 4410,
    "昆": 4411,
    "昇": 4412,
    "昊": 4413,
    "昌": 4414,
    "明": 4415,
    "昏": 4416,
    "易": 4417,
    "昔": 4418,
    "昕": 4419,
    "星": 4420,
    "映": 4421,
    "春": 4422,
    "昧": 4423,
    "昨": 4424,
    "昭": 4425,
    "是": 4426,
    "昴": 4427,
    "昺": 4428,
    "昼": 4429,
    "時": 4430,
    "晃": 4431,
    "晄": 4432,
    "晉": 4433,
    "晋": 4434,
    "晏": 4435,
    "晒": 4436,
    "晓": 4437,
    "晔": 4438,
    "晖": 4439,
    "晚": 4440,
    "晝": 4441,
    "晟": 4442,
    "晤": 4443,
    "晦": 4444,
    "晨": 4445,
    "晩": 4446,
    "普": 4447,
    "景": 4448,
    "晴": 4449,
    "晶": 4450,
    "智": 4451,
    "暁": 4452,
    "暈": 4453,
    "暉": 4454,
    "暑": 4455,
    "暖": 4456,
    "暗": 4457,
    "暢": 4458,
    "暦": 4459,
    "暨": 4460,
    "暮": 4461,
    "暴": 4462,
    "曆": 4463,
    "曇": 4464,
    "曉": 4465,
    "曙": 4466,
    "曜": 4467,
    "曝": 4468,
    "曠": 4469,
    "曦": 4470,
    "曰": 4471,
    "曲": 4472,
    "曳": 4473,
    "更": 4474,
    "曷": 4475,
    "書": 4476,
    "曹": 4477,
    "曼": 4478,
    "曽": 4479,
    "曾": 4480,
    "替": 4481,
    "最": 4482,
    "會": 4483,
    "月": 4484,
    "有": 4485,
    "朋": 4486,
    "服": 4487,
    "朔": 4488,
    "朗": 4489,
    "望": 4490,
    "朝": 4491,
    "期": 4492,
    "朧": 4493,
    "木": 4494,
    "未": 4495,
    "末": 4496,
    "本": 4497,
    "札": 4498,
    "术": 4499,
    "朱": 4500,
    "朴": 4501,
    "朵": 4502,
    "机": 4503,
    "朽": 4504,
    "杂": 4505,
    "权": 4506,
    "杆": 4507,
    "杉": 4508,
    "李": 4509,
    "杏": 4510,
    "材": 4511,
    "村": 4512,
    "杓": 4513,
    "杖": 4514,
    "杜": 4515,
    "束": 4516,
    "杠": 4517,
    "条": 4518,
    "来": 4519,
    "杨": 4520,
    "杭": 4521,
    "杯": 4522,
    "杰": 4523,
    "東": 4524,
    "杵": 4525,
    "杷": 4526,
    "杺": 4527,
    "杽": 4528,
    "松": 4529,
    "板": 4530,
    "极": 4531,
    "构": 4532,
    "枇": 4533,
    "枉": 4534,
    "枕": 4535,
    "林": 4536,
    "枚": 4537,
    "果": 4538,
    "枝": 4539,
    "枢": 4540,
    "枫": 4541,
    "枯": 4542,
    "架": 4543,
    "枼": 4544,
    "柄": 4545,
    "柊": 4546,
    "柏": 4547,
    "某": 4548,
    "柑": 4549,
    "染": 4550,
    "柔": 4551,
    "柘": 4552,
    "柚": 4553,
    "查": 4554,
    "柱": 4555,
    "柳": 4556,
    "柴": 4557,
    "査": 4558,
    "柾": 4559,
    "柿": 4560,
    "栃": 4561,
    "栄": 4562,
    "标": 4563,
    "栋": 4564,
    "树": 4565,
    "栖": 4566,
    "栗": 4567,
    "栞": 4568,
    "栠": 4569,
    "校": 4570,
    "株": 4571,
    "核": 4572,
    "根": 4573,
    "格": 4574,
    "栾": 4575,
    "桀": 4576,
    "桂": 4577,
    "桃": 4578,
    "桅": 4579,
    "案": 4580,
    "桐": 4581,
    "桑": 4582,
    "桓": 4583,
    "桔": 4584,
    "桜": 4585,
    "桟": 4586,
    "桥": 4587,
    "桦": 4588,
    "桧": 4589,
    "桳": 4590,
    "桶": 4591,
    "梁": 4592,
    "梅": 4593,
    "梆": 4594,
    "梓": 4595,
    "梛": 4596,
    "條": 4597,
    "梟": 4598,
    "梢": 4599,
    "梦": 4600,
    "梧": 4601,
    "梨": 4602,
    "梯": 4603,
    "械": 4604,
    "梵": 4605,
    "梶": 4606,
    "棄": 4607,
    "棉": 4608,
    "棋": 4609,
    "棍": 4610,
    "棒": 4611,
    "棘": 4612,
    "棟": 4613,
    "森": 4614,
    "棲": 4615,
    "棺": 4616,
    "椀": 4617,
    "椅": 4618,
    "椋": 4619,
    "植": 4620,
    "椎": 4621,
    "椒": 4622,
    "椚": 4623,
    "椛": 4624,
    "検": 4625,
    "椰": 4626,
    "椿": 4627,
    "楊": 4628,
    "楓": 4629,
    "楕": 4630,
    "楚": 4631,
    "楠": 4632,
    "楡": 4633,
    "楢": 4634,
    "業": 4635,
    "楯": 4636,
    "極": 4637,
    "楼": 4638,
    "楽": 4639,
    "概": 4640,
    "榆": 4641,
    "榊": 4642,
    "榎": 4643,
    "榕": 4644,
    "榛": 4645,
    "榜": 4646,
    "榮": 4647,
    "榴": 4648,
    "槇": 4649,
    "構": 4650,
    "槌": 4651,
    "槍": 4652,
    "様": 4653,
    "槙": 4654,
    "槻": 4655,
    "樂": 4656,
    "樊": 4657,
    "樋": 4658,
    "樑": 4659,
    "樓": 4660,
    "標": 4661,
    "樟": 4662,
    "模": 4663,
    "樣": 4664,
    "権": 4665,
    "横": 4666,
    "樫": 4667,
    "樸": 4668,
    "樹": 4669,
    "樺": 4670,
    "樽": 4671,
    "橋": 4672,
    "橘": 4673,
    "橙": 4674,
    "機": 4675,
    "橢": 4676,
    "橫": 4677,
    "檀": 4678,
    "檎": 4679,
    "檗": 4680,
    "檜": 4681,
    "檢": 4682,
    "檬": 4683,
    "檸": 4684,
    "櫂": 4685,
    "櫃": 4686,
    "櫓": 4687,
    "櫛": 4688,
    "櫟": 4689,
    "櫻": 4690,
    "欄": 4691,
    "權": 4692,
    "欗": 4693,
    "欠": 4694,
    "次": 4695,
    "欢": 4696,
    "欣": 4697,
    "欧": 4698,
    "欲": 4699,
    "欽": 4700,
    "款": 4701,
    "歆": 4702,
    "歇": 4703,
    "歌": 4704,
    "歎": 4705,
    "歐": 4706,
    "歓": 4707,
    "歙": 4708,
    "歡": 4709,
    "止": 4710,
    "正": 4711,
    "此": 4712,
    "步": 4713,
    "武": 4714,
    "歩": 4715,
    "歲": 4716,
    "歳": 4717,
    "歴": 4718,
    "歷": 4719,
    "死": 4720,
    "歼": 4721,
    "殆": 4722,
    "殉": 4723,
    "殊": 4724,
    "残": 4725,
    "殖": 4726,
    "殘": 4727,
    "段": 4728,
    "殷": 4729,
    "殺": 4730,
    "殿": 4731,
    "毀": 4732,
    "毅": 4733,
    "毋": 4734,
    "母": 4735,
    "毎": 4736,
    "每": 4737,
    "毒": 4738,
    "比": 4739,
    "毘": 4740,
    "毛": 4741,
    "毫": 4742,
    "毬": 4743,
    "毯": 4744,
    "氏": 4745,
    "民": 4746,
    "氓": 4747,
    "气": 4748,
    "気": 4749,
    "氣": 4750,
    "水": 4751,
    "氵": 4752,
    "氷": 4753,
    "永": 4754,
    "氾": 4755,
    "汀": 4756,
    "汁": 4757,
    "求": 4758,
    "汆": 4759,
    "汇": 4760,
    "汉": 4761,
    "汐": 4762,
    "汕": 4763,
    "汗": 4764,
    "汚": 4765,
    "汝": 4766,
    "江": 4767,
    "池": 4768,
    "汤": 4769,
    "汪": 4770,
    "汰": 4771,
    "汲": 4772,
    "汴": 4773,
    "決": 4774,
    "汽": 4775,
    "汾": 4776,
    "沁": 4777,
    "沂": 4778,
    "沃": 4779,
    "沅": 4780,
    "沈": 4781,
    "沉": 4782,
    "沊": 4783,
    "沌": 4784,
    "沐": 4785,
    "沒": 4786,
    "沓": 4787,
    "沖": 4788,
    "沙": 4789,
    "沝": 4790,
    "沟": 4791,
    "没": 4792,
    "沢": 4793,
    "沥": 4794,
    "沧": 4795,
    "沫": 4796,
    "沭": 4797,
    "沮": 4798,
    "河": 4799,
    "沸": 4800,
    "油": 4801,
    "治": 4802,
    "沼": 4803,
    "泄": 4804,
    "泉": 4805,
    "泊": 4806,
    "泓": 4807,
    "法": 4808,
    "泗": 4809,
    "泛": 4810,
    "波": 4811,
    "泣": 4812,
    "泥": 4813,
    "注": 4814,
    "泪": 4815,
    "泰": 4816,
    "泳": 4817,
    "泸": 4818,
    "泽": 4819,
    "泾": 4820,
    "洁": 4821,
    "洋": 4822,
    "洒": 4823,
    "洗": 4824,
    "洛": 4825,
    "洞": 4826,
    "津": 4827,
    "洪": 4828,
    "洲": 4829,
    "洵": 4830,
    "洸": 4831,
    "活": 4832,
    "洽": 4833,
    "派": 4834,
    "流": 4835,
    "浄": 4836,
    "浅": 4837,
    "浆": 4838,
    "浊": 4839,
    "济": 4840,
    "浑": 4841,
    "浚": 4842,
    "浜": 4843,
    "浣": 4844,
    "浦": 4845,
    "浩": 4846,
    "浪": 4847,
    "浬": 4848,
    "浮": 4849,
    "浴": 4850,
    "海": 4851,
    "消": 4852,
    "涉": 4853,
    "涌": 4854,
    "涙": 4855,
    "涛": 4856,
    "润": 4857,
    "涮": 4858,
    "涯": 4859,
    "液": 4860,
    "涵": 4861,
    "涸": 4862,
    "涼": 4863,
    "淀": 4864,
    "淋": 4865,
    "淑": 4866,
    "淖": 4867,
    "淚": 4868,
    "淞": 4869,
    "淡": 4870,
    "淨": 4871,
    "淫": 4872,
    "淮": 4873,
    "深": 4874,
    "淳": 4875,
    "淵": 4876,
    "混": 4877,
    "淸": 4878,
    "淹": 4879,
    "淺": 4880,
    "添": 4881,
    "清": 4882,
    "渇": 4883,
    "済": 4884,
    "渉": 4885,
    "渊": 4886,
    "渋": 4887,
    "渓": 4888,
    "渔": 4889,
    "渕": 4890,
    "渙": 4891,
    "渚": 4892,
    "渡": 4893,
    "渣": 4894,
    "渤": 4895,
    "渥": 4896,
    "温": 4897,
    "渭": 4898,
    "港": 4899,
    "渴": 4900,
    "游": 4901,
    "渾": 4902,
    "湄": 4903,
    "湊": 4904,
    "湖": 4905,
    "湘": 4906,
    "湛": 4907,
    "湧": 4908,
    "湯": 4909,
    "湾": 4910,
    "湿": 4911,
    "満": 4912,
    "源": 4913,
    "準": 4914,
    "溜": 4915,
    "溝": 4916,
    "溢": 4917,
    "溥": 4918,
    "溪": 4919,
    "溫": 4920,
    "溶": 4921,
    "溺": 4922,
    "滅": 4923,
    "滇": 4924,
    "滉": 4925,
    "滋": 4926,
    "滑": 4927,
    "滓": 4928,
    "滕": 4929,
    "滘": 4930,
    "滚": 4931,
    "滝": 4932,
    "滞": 4933,
    "满": 4934,
    "滩": 4935,
    "滬": 4936,
    "滯": 4937,
    "滸": 4938,
    "滿": 4939,
    "漂": 4940,
    "漆": 4941,
    "漏": 4942,
    "演": 4943,
    "漕": 4944,
    "漠": 4945,
    "漢": 4946,
    "漣": 4947,
    "漫": 4948,
    "漬": 4949,
    "漱": 4950,
    "漳": 4951,
    "漿": 4952,
    "潁": 4953,
    "潇": 4954,
    "潔": 4955,
    "潛": 4956,
    "潜": 4957,
    "潞": 4958,
    "潤": 4959,
    "潭": 4960,
    "潮": 4961,
    "澁": 4962,
    "澄": 4963,
    "澜": 4964,
    "澤": 4965,
    "澪": 4966,
    "澳": 4967,
    "激": 4968,
    "濁": 4969,
    "濂": 4970,
    "濃": 4971,
    "濕": 4972,
    "濛": 4973,
    "濞": 4974,
    "濟": 4975,
    "濡": 4976,
    "濤": 4977,
    "濩": 4978,
    "濫": 4979,
    "濮": 4980,
    "濱": 4981,
    "濹": 4982,
    "瀕": 4983,
    "瀛": 4984,
    "瀧": 4985,
    "瀨": 4986,
    "瀬": 4987,
    "瀾": 4988,
    "灌": 4989,
    "灘": 4990,
    "灣": 4991,
    "火": 4992,
    "灬": 4993,
    "灭": 4994,
    "灯": 4995,
    "灰": 4996,
    "灱": 4997,
    "灵": 4998,
    "灸": 4999,
    "灼": 5000,
    "災": 5001,
    "炎": 5002,
    "炒": 5003,
    "炖": 5004,
    "炘": 5005,
    "炭": 5006,
    "炮": 5007,
    "炯": 5008,
    "炳": 5009,
    "炸": 5010,
    "点": 5011,
    "為": 5012,
    "烈": 5013,
    "烏": 5014,
    "烟": 5015,
    "烤": 5016,
    "烦": 5017,
    "烧": 5018,
    "热": 5019,
    "烽": 5020,
    "焉": 5021,
    "焚": 5022,
    "無": 5023,
    "焦": 5024,
    "焰": 5025,
    "然": 5026,
    "焼": 5027,
    "煉": 5028,
    "煌": 5029,
    "煎": 5030,
    "煙": 5031,
    "煜": 5032,
    "煤": 5033,
    "煥": 5034,
    "照": 5035,
    "煩": 5036,
    "煮": 5037,
    "煲": 5038,
    "熊": 5039,
    "熙": 5040,
    "熟": 5041,
    "熱": 5042,
    "熹": 5043,
    "燃": 5044,
    "燈": 5045,
    "燎": 5046,
    "燐": 5047,
    "燒": 5048,
    "燕": 5049,
    "營": 5050,
    "燦": 5051,
    "燭": 5052,
    "燮": 5053,
    "燿": 5054,
    "爆": 5055,
    "爐": 5056,
    "爛": 5057,
    "爪": 5058,
    "爬": 5059,
    "爭": 5060,
    "爱": 5061,
    "爲": 5062,
    "爵": 5063,
    "父": 5064,
    "爸": 5065,
    "爺": 5066,
    "爽": 5067,
    "爾": 5068,
    "牆": 5069,
    "片": 5070,
    "版": 5071,
    "牌": 5072,
    "牒": 5073,
    "牙": 5074,
    "牛": 5075,
    "牟": 5076,
    "牡": 5077,
    "牦": 5078,
    "牧": 5079,
    "物": 5080,
    "牯": 5081,
    "特": 5082,
    "牽": 5083,
    "犀": 5084,
    "犁": 5085,
    "犟": 5086,
    "犬": 5087,
    "犭": 5088,
    "犯": 5089,
    "犴": 5090,
    "状": 5091,
    "狀": 5092,
    "狂": 5093,
    "狐": 5094,
    "狗": 5095,
    "狙": 5096,
    "狛": 5097,
    "狡": 5098,
    "狩": 5099,
    "独": 5100,
    "狭": 5101,
    "狮": 5102,
    "狱": 5103,
    "狴": 5104,
    "狸": 5105,
    "狹": 5106,
    "狼": 5107,
    "猛": 5108,
    "猟": 5109,
    "猪": 5110,
    "猫": 5111,
    "献": 5112,
    "猶": 5113,
    "猷": 5114,
    "猿": 5115,
    "獄": 5116,
    "獅": 5117,
    "獎": 5118,
    "獏": 5119,
    "獠": 5120,
    "獣": 5121,
    "獨": 5122,
    "獲": 5123,
    "獴": 5124,
    "獵": 5125,
    "獸": 5126,
    "獻": 5127,
    "玄": 5128,
    "率": 5129,
    "玉": 5130,
    "王": 5131,
    "玖": 5132,
    "玛": 5133,
    "玟": 5134,
    "玩": 5135,
    "玫": 5136,
    "环": 5137,
    "现": 5138,
    "玲": 5139,
    "玻": 5140,
    "珀": 5141,
    "珂": 5142,
    "珈": 5143,
    "珊": 5144,
    "珌": 5145,
    "珍": 5146,
    "珠": 5147,
    "珩": 5148,
    "珪": 5149,
    "班": 5150,
    "現": 5151,
    "球": 5152,
    "琅": 5153,
    "理": 5154,
    "琉": 5155,
    "琊": 5156,
    "琏": 5157,
    "琠": 5158,
    "琢": 5159,
    "琥": 5160,
    "琦": 5161,
    "琨": 5162,
    "琪": 5163,
    "琳": 5164,
    "琴": 5165,
    "琵": 5166,
    "琶": 5167,
    "琼": 5168,
    "瑄": 5169,
    "瑚": 5170,
    "瑛": 5171,
    "瑜": 5172,
    "瑞": 5173,
    "瑟": 5174,
    "瑠": 5175,
    "瑣": 5176,
    "瑪": 5177,
    "瑯": 5178,
    "瑰": 5179,
    "瑳": 5180,
    "瑶": 5181,
    "璁": 5182,
    "璃": 5183,
    "璋": 5184,
    "璧": 5185,
    "璩": 5186,
    "環": 5187,
    "璽": 5188,
    "瓊": 5189,
    "瓛": 5190,
    "瓜": 5191,
    "瓢": 5192,
    "瓣": 5193,
    "瓦": 5194,
    "瓶": 5195,
    "甄": 5196,
    "甌": 5197,
    "甕": 5198,
    "甘": 5199,
    "甚": 5200,
    "甜": 5201,
    "生": 5202,
    "產": 5203,
    "産": 5204,
    "甥": 5205,
    "用": 5206,
    "甫": 5207,
    "田": 5208,
    "由": 5209,
    "甲": 5210,
    "申": 5211,
    "电": 5212,
    "男": 5213,
    "甸": 5214,
    "町": 5215,
    "画": 5216,
    "畂": 5217,
    "界": 5218,
    "畏": 5219,
    "畑": 5220,
    "畔": 5221,
    "留": 5222,
    "畜": 5223,
    "畝": 5224,
    "畠": 5225,
    "畢": 5226,
    "略": 5227,
    "畦": 5228,
    "畧": 5229,
    "番": 5230,
    "畫": 5231,
    "異": 5232,
    "畳": 5233,
    "畵": 5234,
    "當": 5235,
    "畷": 5236,
    "畸": 5237,
    "畿": 5238,
    "疆": 5239,
    "疊": 5240,
    "疋": 5241,
    "疏": 5242,
    "疑": 5243,
    "疾": 5244,
    "病": 5245,
    "症": 5246,
    "痔": 5247,
    "痕": 5248,
    "痩": 5249,
    "痴": 5250,
    "瘋": 5251,
    "瘦": 5252,
    "瘾": 5253,
    "療": 5254,
    "癌": 5255,
    "癩": 5256,
    "癲": 5257,
    "癸": 5258,
    "発": 5259,
    "登": 5260,
    "發": 5261,
    "白": 5262,
    "百": 5263,
    "的": 5264,
    "皆": 5265,
    "皇": 5266,
    "皐": 5267,
    "皓": 5268,
    "皖": 5269,
    "皮": 5270,
    "盂": 5271,
    "盃": 5272,
    "盆": 5273,
    "盈": 5274,
    "益": 5275,
    "监": 5276,
    "盖": 5277,
    "盗": 5278,
    "盘": 5279,
    "盛": 5280,
    "盜": 5281,
    "盟": 5282,
    "盡": 5283,
    "監": 5284,
    "盤": 5285,
    "盧": 5286,
    "目": 5287,
    "盲": 5288,
    "直": 5289,
    "相": 5290,
    "盾": 5291,
    "省": 5292,
    "眉": 5293,
    "看": 5294,
    "県": 5295,
    "眞": 5296,
    "真": 5297,
    "眠": 5298,
    "眩": 5299,
    "眸": 5300,
    "眼": 5301,
    "着": 5302,
    "睡": 5303,
    "督": 5304,
    "睦": 5305,
    "睹": 5306,
    "睿": 5307,
    "瞥": 5308,
    "瞬": 5309,
    "瞭": 5310,
    "瞳": 5311,
    "瞼": 5312,
    "瞽": 5313,
    "矛": 5314,
    "矜": 5315,
    "矢": 5316,
    "知": 5317,
    "矩": 5318,
    "短": 5319,
    "石": 5320,
    "矸": 5321,
    "矿": 5322,
    "码": 5323,
    "砂": 5324,
    "研": 5325,
    "砕": 5326,
    "砥": 5327,
    "砦": 5328,
    "砧": 5329,
    "砲": 5330,
    "破": 5331,
    "砺": 5332,
    "硝": 5333,
    "硫": 5334,
    "硬": 5335,
    "硯": 5336,
    "硼": 5337,
    "碁": 5338,
    "碇": 5339,
    "碉": 5340,
    "碌": 5341,
    "碍": 5342,
    "碎": 5343,
    "碑": 5344,
    "碓": 5345,
    "碗": 5346,
    "碧": 5347,
    "碩": 5348,
    "碰": 5349,
    "確": 5350,
    "磁": 5351,
    "磊": 5352,
    "磐": 5353,
    "磨": 5354,
    "磯": 5355,
    "磴": 5356,
    "礁": 5357,
    "礦": 5358,
    "示": 5359,
    "礼": 5360,
    "社": 5361,
    "祁": 5362,
    "祇": 5363,
    "祈": 5364,
    "祉": 5365,
    "祐": 5366,
    "祓": 5367,
    "祕": 5368,
    "祖": 5369,
    "祚": 5370,
    "祝": 5371,
    "神": 5372,
    "祠": 5373,
    "祢": 5374,
    "祥": 5375,
    "票": 5376,
    "祭": 5377,
    "祯": 5378,
    "祷": 5379,
    "祿": 5380,
    "禁": 5381,
    "禄": 5382,
    "禅": 5383,
    "禍": 5384,
    "禎": 5385,
    "福": 5386,
    "禔": 5387,
    "禧": 5388,
    "禪": 5389,
    "禮": 5390,
    "禰": 5391,
    "禱": 5392,
    "禹": 5393,
    "禺": 5394,
    "离": 5395,
    "禽": 5396,
    "禾": 5397,
    "禿": 5398,
    "秀": 5399,
    "私": 5400,
    "秉": 5401,
    "秋": 5402,
    "种": 5403,
    "科": 5404,
    "秒": 5405,
    "秘": 5406,
    "租": 5407,
    "秤": 5408,
    "秦": 5409,
    "秩": 5410,
    "称": 5411,
    "移": 5412,
    "稀": 5413,
    "程": 5414,
    "税": 5415,
    "稔": 5416,
    "稗": 5417,
    "稚": 5418,
    "稜": 5419,
    "稟": 5420,
    "稠": 5421,
    "稣": 5422,
    "種": 5423,
    "稱": 5424,
    "稲": 5425,
    "稷": 5426,
    "稹": 5427,
    "稻": 5428,
    "稼": 5429,
    "稿": 5430,
    "穀": 5431,
    "穂": 5432,
    "穆": 5433,
    "穌": 5434,
    "積": 5435,
    "穎": 5436,
    "穗": 5437,
    "穢": 5438,
    "穣": 5439,
    "穩": 5440,
    "穰": 5441,
    "穴": 5442,
    "究": 5443,
    "穷": 5444,
    "穹": 5445,
    "空": 5446,
    "穿": 5447,
    "突": 5448,
    "窄": 5449,
    "窑": 5450,
    "窓": 5451,
    "窟": 5452,
    "窩": 5453,
    "窪": 5454,
    "窮": 5455,
    "窯": 5456,
    "窺": 5457,
    "竊": 5458,
    "立": 5459,
    "竖": 5460,
    "站": 5461,
    "竜": 5462,
    "竞": 5463,
    "章": 5464,
    "竣": 5465,
    "童": 5466,
    "竪": 5467,
    "端": 5468,
    "競": 5469,
    "竹": 5470,
    "竺": 5471,
    "竿": 5472,
    "笈": 5473,
    "笏": 5474,
    "笑": 5475,
    "笙": 5476,
    "笛": 5477,
    "笠": 5478,
    "符": 5479,
    "笨": 5480,
    "第": 5481,
    "笳": 5482,
    "笹": 5483,
    "笼": 5484,
    "筆": 5485,
    "筈": 5486,
    "等": 5487,
    "筋": 5488,
    "筍": 5489,
    "筑": 5490,
    "筒": 5491,
    "答": 5492,
    "策": 5493,
    "筧": 5494,
    "筭": 5495,
    "筷": 5496,
    "签": 5497,
    "简": 5498,
    "箇": 5499,
    "箔": 5500,
    "箕": 5501,
    "算": 5502,
    "管": 5503,
    "箫": 5504,
    "箭": 5505,
    "箱": 5506,
    "節": 5507,
    "範": 5508,
    "篆": 5509,
    "篇": 5510,
    "築": 5511,
    "篠": 5512,
    "篤": 5513,
    "簞": 5514,
    "簡": 5515,
    "簪": 5516,
    "簫": 5517,
    "簽": 5518,
    "簾": 5519,
    "簿": 5520,
    "籍": 5521,
    "籠": 5522,
    "籤": 5523,
    "米": 5524,
    "类": 5525,
    "籾": 5526,
    "粉": 5527,
    "粋": 5528,
    "粍": 5529,
    "粒": 5530,
    "粕": 5531,
    "粟": 5532,
    "粥": 5533,
    "粧": 5534,
    "粵": 5535,
    "粹": 5536,
    "精": 5537,
    "粿": 5538,
    "糊": 5539,
    "糍": 5540,
    "糎": 5541,
    "糕": 5542,
    "糖": 5543,
    "糞": 5544,
    "糟": 5545,
    "糬": 5546,
    "糯": 5547,
    "糸": 5548,
    "糺": 5549,
    "系": 5550,
    "糾": 5551,
    "紀": 5552,
    "約": 5553,
    "紅": 5554,
    "紋": 5555,
    "納": 5556,
    "紐": 5557,
    "紓": 5558,
    "純": 5559,
    "紗": 5560,
    "紘": 5561,
    "紙": 5562,
    "級": 5563,
    "紛": 5564,
    "素": 5565,
    "索": 5566,
    "紧": 5567,
    "紫": 5568,
    "紬": 5569,
    "細": 5570,
    "紳": 5571,
    "紹": 5572,
    "紺": 5573,
    "終": 5574,
    "絃": 5575,
    "組": 5576,
    "絆": 5577,
    "絋": 5578,
    "経": 5579,
    "結": 5580,
    "絕": 5581,
    "絜": 5582,
    "絞": 5583,
    "絡": 5584,
    "絢": 5585,
    "給": 5586,
    "絨": 5587,
    "統": 5588,
    "絲": 5589,
    "絳": 5590,
    "絵": 5591,
    "絶": 5592,
    "絹": 5593,
    "經": 5594,
    "継": 5595,
    "続": 5596,
    "綜": 5597,
    "綠": 5598,
    "綫": 5599,
    "綬": 5600,
    "維": 5601,
    "綱": 5602,
    "網": 5603,
    "綴": 5604,
    "綸": 5605,
    "綺": 5606,
    "綾": 5607,
    "緇": 5608,
    "緋": 5609,
    "総": 5610,
    "緑": 5611,
    "緒": 5612,
    "緖": 5613,
    "線": 5614,
    "緣": 5615,
    "編": 5616,
    "緩": 5617,
    "緬": 5618,
    "練": 5619,
    "縁": 5620,
    "縄": 5621,
    "縛": 5622,
    "縞": 5623,
    "縣": 5624,
    "縦": 5625,
    "縮": 5626,
    "縱": 5627,
    "縷": 5628,
    "總": 5629,
    "績": 5630,
    "繁": 5631,
    "繊": 5632,
    "繋": 5633,
    "織": 5634,
    "繚": 5635,
    "繞": 5636,
    "繡": 5637,
    "繫": 5638,
    "纂": 5639,
    "續": 5640,
    "纏": 5641,
    "纖": 5642,
    "红": 5643,
    "约": 5644,
    "级": 5645,
    "纪": 5646,
    "纳": 5647,
    "纸": 5648,
    "线": 5649,
    "练": 5650,
    "组": 5651,
    "细": 5652,
    "织": 5653,
    "绍": 5654,
    "经": 5655,
    "绒": 5656,
    "结": 5657,
    "绘": 5658,
    "给": 5659,
    "统": 5660,
    "继": 5661,
    "绪": 5662,
    "续": 5663,
    "维": 5664,
    "绸": 5665,
    "编": 5666,
    "缨": 5667,
    "网": 5668,
    "罕": 5669,
    "罗": 5670,
    "罚": 5671,
    "罠": 5672,
    "罪": 5673,
    "置": 5674,
    "罰": 5675,
    "署": 5676,
    "罷": 5677,
    "羂": 5678,
    "羅": 5679,
    "羊": 5680,
    "羌": 5681,
    "美": 5682,
    "羚": 5683,
    "羢": 5684,
    "群": 5685,
    "義": 5686,
    "羬": 5687,
    "羮": 5688,
    "羲": 5689,
    "羹": 5690,
    "羽": 5691,
    "翁": 5692,
    "翅": 5693,
    "習": 5694,
    "翔": 5695,
    "翘": 5696,
    "翚": 5697,
    "翟": 5698,
    "翠": 5699,
    "翬": 5700,
    "翰": 5701,
    "翻": 5702,
    "翼": 5703,
    "耀": 5704,
    "老": 5705,
    "考": 5706,
    "者": 5707,
    "而": 5708,
    "耐": 5709,
    "耕": 5710,
    "耳": 5711,
    "耶": 5712,
    "耽": 5713,
    "聂": 5714,
    "职": 5715,
    "聒": 5716,
    "联": 5717,
    "聖": 5718,
    "聚": 5719,
    "聞": 5720,
    "聡": 5721,
    "聯": 5722,
    "聰": 5723,
    "聲": 5724,
    "聴": 5725,
    "職": 5726,
    "聽": 5727,
    "聾": 5728,
    "肃": 5729,
    "肅": 5730,
    "肇": 5731,
    "肉": 5732,
    "肋": 5733,
    "肌": 5734,
    "肖": 5735,
    "肘": 5736,
    "肠": 5737,
    "股": 5738,
    "肥": 5739,
    "肩": 5740,
    "肯": 5741,
    "育": 5742,
    "肴": 5743,
    "肸": 5744,
    "肺": 5745,
    "胆": 5746,
    "背": 5747,
    "胎": 5748,
    "胖": 5749,
    "胜": 5750,
    "胡": 5751,
    "胤": 5752,
    "胸": 5753,
    "能": 5754,
    "脅": 5755,
    "脇": 5756,
    "脈": 5757,
    "脊": 5758,
    "脑": 5759,
    "脚": 5760,
    "脩": 5761,
    "脫": 5762,
    "脯": 5763,
    "脱": 5764,
    "脳": 5765,
    "脷": 5766,
    "脸": 5767,
    "脹": 5768,
    "腐": 5769,
    "腔": 5770,
    "腕": 5771,
    "腦": 5772,
    "腰": 5773,
    "腳": 5774,
    "腸": 5775,
    "腹": 5776,
    "腻": 5777,
    "腾": 5778,
    "膀": 5779,
    "膏": 5780,
    "膜": 5781,
    "膠": 5782,
    "膳": 5783,
    "膵": 5784,
    "膺": 5785,
    "臉": 5786,
    "臓": 5787,
    "臟": 5788,
    "臣": 5789,
    "臥": 5790,
    "臧": 5791,
    "臨": 5792,
    "自": 5793,
    "臬": 5794,
    "臭": 5795,
    "至": 5796,
    "致": 5797,
    "臺": 5798,
    "舅": 5799,
    "與": 5800,
    "興": 5801,
    "舊": 5802,
    "舌": 5803,
    "舍": 5804,
    "舎": 5805,
    "舒": 5806,
    "舗": 5807,
    "舘": 5808,
    "舜": 5809,
    "舞": 5810,
    "舟": 5811,
    "航": 5812,
    "般": 5813,
    "舰": 5814,
    "舵": 5815,
    "船": 5816,
    "舺": 5817,
    "艇": 5818,
    "艋": 5819,
    "艦": 5820,
    "艮": 5821,
    "良": 5822,
    "色": 5823,
    "艳": 5824,
    "艶": 5825,
    "艺": 5826,
    "艾": 5827,
    "节": 5828,
    "芈": 5829,
    "芋": 5830,
    "芒": 5831,
    "芗": 5832,
    "芙": 5833,
    "芝": 5834,
    "芥": 5835,
    "芦": 5836,
    "芫": 5837,
    "芭": 5838,
    "花": 5839,
    "芳": 5840,
    "芷": 5841,
    "芸": 5842,
    "芹": 5843,
    "芽": 5844,
    "苍": 5845,
    "苏": 5846,
    "苑": 5847,
    "苓": 5848,
    "苔": 5849,
    "苗": 5850,
    "若": 5851,
    "苦": 5852,
    "苫": 5853,
    "英": 5854,
    "苹": 5855,
    "苺": 5856,
    "苻": 5857,
    "茂": 5858,
    "范": 5859,
    "茄": 5860,
    "茅": 5861,
    "茉": 5862,
    "茎": 5863,
    "茜": 5864,
    "茨": 5865,
    "茫": 5866,
    "茶": 5867,
    "茸": 5868,
    "茹": 5869,
    "荆": 5870,
    "草": 5871,
    "荊": 5872,
    "荒": 5873,
    "荘": 5874,
    "荛": 5875,
    "荟": 5876,
    "荣": 5877,
    "药": 5878,
    "荷": 5879,
    "荻": 5880,
    "荼": 5881,
    "莉": 5882,
    "莊": 5883,
    "莎": 5884,
    "莒": 5885,
    "莘": 5886,
    "莞": 5887,
    "莫": 5888,
    "莲": 5889,
    "获": 5890,
    "莹": 5891,
    "莽": 5892,
    "菅": 5893,
    "菊": 5894,
    "菌": 5895,
    "菓": 5896,
    "菖": 5897,
    "菜": 5898,
    "菠": 5899,
    "菩": 5900,
    "菫": 5901,
    "華": 5902,
    "菰": 5903,
    "菱": 5904,
    "菲": 5905,
    "菴": 5906,
    "菻": 5907,
    "萄": 5908,
    "萊": 5909,
    "萌": 5910,
    "萍": 5911,
    "萠": 5912,
    "营": 5913,
    "萧": 5914,
    "萨": 5915,
    "萩": 5916,
    "萬": 5917,
    "萱": 5918,
    "落": 5919,
    "葉": 5920,
    "著": 5921,
    "葛": 5922,
    "葡": 5923,
    "董": 5924,
    "葦": 5925,
    "葬": 5926,
    "葭": 5927,
    "葵": 5928,
    "葺": 5929,
    "蒋": 5930,
    "蒐": 5931,
    "蒔": 5932,
    "蒙": 5933,
    "蒜": 5934,
    "蒲": 5935,
    "蒸": 5936,
    "蒼": 5937,
    "蒿": 5938,
    "蓄": 5939,
    "蓉": 5940,
    "蓍": 5941,
    "蓑": 5942,
    "蓜": 5943,
    "蓝": 5944,
    "蓬": 5945,
    "蓮": 5946,
    "蔓": 5947,
    "蔡": 5948,
    "蔣": 5949,
    "蔦": 5950,
    "蔭": 5951,
    "蔵": 5952,
    "蔺": 5953,
    "蕃": 5954,
    "蕉": 5955,
    "蕎": 5956,
    "蕗": 5957,
    "蕙": 5958,
    "蕨": 5959,
    "蕪": 5960,
    "蕭": 5961,
    "蕴": 5962,
    "蕾": 5963,
    "薄": 5964,
    "薇": 5965,
    "薔": 5966,
    "薗": 5967,
    "薙": 5968,
    "薛": 5969,
    "薦": 5970,
    "薩": 5971,
    "薪": 5972,
    "薫": 5973,
    "薬": 5974,
    "薮": 5975,
    "薯": 5976,
    "薰": 5977,
    "藁": 5978,
    "藍": 5979,
    "藏": 5980,
    "藝": 5981,
    "藤": 5982,
    "藥": 5983,
    "藩": 5984,
    "藪": 5985,
    "藳": 5986,
    "蘇": 5987,
    "蘭": 5988,
    "蘿": 5989,
    "虎": 5990,
    "虐": 5991,
    "處": 5992,
    "虚": 5993,
    "虛": 5994,
    "虜": 5995,
    "虞": 5996,
    "號": 5997,
    "虢": 5998,
    "虫": 5999,
    "虹": 6000,
    "虻": 6001,
    "虾": 6002,
    "蚊": 6003,
    "蚌": 6004,
    "蚕": 6005,
    "蚡": 6006,
    "蚤": 6007,
    "蚩": 6008,
    "蛇": 6009,
    "蛋": 6010,
    "蛍": 6011,
    "蛛": 6012,
    "蛟": 6013,
    "蛮": 6014,
    "蜀": 6015,
    "蜂": 6016,
    "蜃": 6017,
    "蜗": 6018,
    "蜘": 6019,
    "蜜": 6020,
    "蜡": 6021,
    "蜥": 6022,
    "蜩": 6023,
    "蜴": 6024,
    "蝉": 6025,
    "蝕": 6026,
    "蝙": 6027,
    "蝠": 6028,
    "蝦": 6029,
    "蝴": 6030,
    "蝶": 6031,
    "融": 6032,
    "螢": 6033,
    "螺": 6034,
    "蟬": 6035,
    "蟲": 6036,
    "蟹": 6037,
    "蠟": 6038,
    "蠻": 6039,
    "血": 6040,
    "衆": 6041,
    "行": 6042,
    "衒": 6043,
    "術": 6044,
    "街": 6045,
    "衛": 6046,
    "衝": 6047,
    "衞": 6048,
    "衡": 6049,
    "衣": 6050,
    "表": 6051,
    "衲": 6052,
    "衿": 6053,
    "袁": 6054,
    "袈": 6055,
    "袋": 6056,
    "袍": 6057,
    "袖": 6058,
    "袢": 6059,
    "被": 6060,
    "袴": 6061,
    "裁": 6062,
    "裂": 6063,
    "装": 6064,
    "裏": 6065,
    "裔": 6066,
    "裕": 6067,
    "補": 6068,
    "裝": 6069,
    "裟": 6070,
    "裡": 6071,
    "裳": 6072,
    "裸": 6073,
    "製": 6074,
    "裾": 6075,
    "複": 6076,
    "褐": 6077,
    "褒": 6078,
    "褚": 6079,
    "褥": 6080,
    "褸": 6081,
    "襄": 6082,
    "襖": 6083,
    "襟": 6084,
    "襤": 6085,
    "襲": 6086,
    "西": 6087,
    "要": 6088,
    "覆": 6089,
    "覇": 6090,
    "見": 6091,
    "規": 6092,
    "視": 6093,
    "覗": 6094,
    "覚": 6095,
    "覧": 6096,
    "親": 6097,
    "観": 6098,
    "覺": 6099,
    "覽": 6100,
    "觀": 6101,
    "见": 6102,
    "观": 6103,
    "规": 6104,
    "视": 6105,
    "览": 6106,
    "觉": 6107,
    "角": 6108,
    "觜": 6109,
    "解": 6110,
    "触": 6111,
    "言": 6112,
    "訂": 6113,
    "計": 6114,
    "訊": 6115,
    "討": 6116,
    "訓": 6117,
    "託": 6118,
    "記": 6119,
    "訣": 6120,
    "訪": 6121,
    "設": 6122,
    "許": 6123,
    "訳": 6124,
    "訶": 6125,
    "診": 6126,
    "註": 6127,
    "証": 6128,
    "詐": 6129,
    "詒": 6130,
    "詔": 6131,
    "評": 6132,
    "詛": 6133,
    "詞": 6134,
    "詟": 6135,
    "詠": 6136,
    "詢": 6137,
    "詣": 6138,
    "試": 6139,
    "詩": 6140,
    "詫": 6141,
    "話": 6142,
    "誅": 6143,
    "誉": 6144,
    "誌": 6145,
    "認": 6146,
    "誓": 6147,
    "誕": 6148,
    "誘": 6149,
    "語": 6150,
    "誠": 6151,
    "誥": 6152,
    "誦": 6153,
    "說": 6154,
    "説": 6155,
    "読": 6156,
    "誰": 6157,
    "課": 6158,
    "誼": 6159,
    "調": 6160,
    "諄": 6161,
    "談": 6162,
    "請": 6163,
    "諏": 6164,
    "諒": 6165,
    "論": 6166,
    "諜": 6167,
    "諫": 6168,
    "諶": 6169,
    "諷": 6170,
    "諸": 6171,
    "諺": 6172,
    "諾": 6173,
    "謀": 6174,
    "謁": 6175,
    "謂": 6176,
    "謎": 6177,
    "謙": 6178,
    "講": 6179,
    "謝": 6180,
    "謠": 6181,
    "謡": 6182,
    "謨": 6183,
    "謹": 6184,
    "識": 6185,
    "譚": 6186,
    "譜": 6187,
    "警": 6188,
    "議": 6189,
    "譲": 6190,
    "護": 6191,
    "譽": 6192,
    "讃": 6193,
    "變": 6194,
    "讐": 6195,
    "讓": 6196,
    "讚": 6197,
    "计": 6198,
    "订": 6199,
    "讨": 6200,
    "让": 6201,
    "训": 6202,
    "议": 6203,
    "记": 6204,
    "许": 6205,
    "论": 6206,
    "设": 6207,
    "证": 6208,
    "诉": 6209,
    "词": 6210,
    "诏": 6211,
    "译": 6212,
    "试": 6213,
    "诗": 6214,
    "诚": 6215,
    "话": 6216,
    "询": 6217,
    "语": 6218,
    "说": 6219,
    "请": 6220,
    "诸": 6221,
    "诽": 6222,
    "课": 6223,
    "谈": 6224,
    "谊": 6225,
    "谐": 6226,
    "谢": 6227,
    "谣": 6228,
    "谭": 6229,
    "谱": 6230,
    "谷": 6231,
    "豆": 6232,
    "豉": 6233,
    "豊": 6234,
    "豐": 6235,
    "豚": 6236,
    "象": 6237,
    "豢": 6238,
    "豪": 6239,
    "豫": 6240,
    "豹": 6241,
    "貌": 6242,
    "貍": 6243,
    "貓": 6244,
    "貝": 6245,
    "貞": 6246,
    "負": 6247,
    "財": 6248,
    "貢": 6249,
    "貧": 6250,
    "貨": 6251,
    "貫": 6252,
    "責": 6253,
    "貰": 6254,
    "貴": 6255,
    "貶": 6256,
    "買": 6257,
    "貸": 6258,
    "賀": 6259,
    "資": 6260,
    "賈": 6261,
    "賊": 6262,
    "賑": 6263,
    "賓": 6264,
    "賛": 6265,
    "賞": 6266,
    "賢": 6267,
    "賣": 6268,
    "賦": 6269,
    "質": 6270,
    "賭": 6271,
    "賴": 6272,
    "賽": 6273,
    "賾": 6274,
    "贈": 6275,
    "贊": 6276,
    "贖": 6277,
    "贝": 6278,
    "贞": 6279,
    "贡": 6280,
    "责": 6281,
    "贤": 6282,
    "货": 6283,
    "贫": 6284,
    "贵": 6285,
    "贸": 6286,
    "费": 6287,
    "贾": 6288,
    "资": 6289,
    "赉": 6290,
    "赋": 6291,
    "赎": 6292,
    "赐": 6293,
    "赖": 6294,
    "赛": 6295,
    "赞": 6296,
    "赤": 6297,
    "走": 6298,
    "赳": 6299,
    "赴": 6300,
    "赵": 6301,
    "起": 6302,
    "趁": 6303,
    "超": 6304,
    "越": 6305,
    "趙": 6306,
    "趣": 6307,
    "足": 6308,
    "跃": 6309,
    "跑": 6310,
    "距": 6311,
    "跟": 6312,
    "跡": 6313,
    "跨": 6314,
    "跪": 6315,
    "路": 6316,
    "跳": 6317,
    "踊": 6318,
    "踏": 6319,
    "踩": 6320,
    "蹄": 6321,
    "蹊": 6322,
    "蹟": 6323,
    "蹴": 6324,
    "躍": 6325,
    "身": 6326,
    "躬": 6327,
    "躰": 6328,
    "躲": 6329,
    "車": 6330,
    "軌": 6331,
    "軍": 6332,
    "軒": 6333,
    "転": 6334,
    "軽": 6335,
    "軾": 6336,
    "載": 6337,
    "輔": 6338,
    "輕": 6339,
    "輝": 6340,
    "輩": 6341,
    "輪": 6342,
    "輯": 6343,
    "輸": 6344,
    "輿": 6345,
    "轉": 6346,
    "轍": 6347,
    "轟": 6348,
    "车": 6349,
    "轨": 6350,
    "轮": 6351,
    "轸": 6352,
    "轻": 6353,
    "辇": 6354,
    "辈": 6355,
    "辉": 6356,
    "辖": 6357,
    "辙": 6358,
    "辛": 6359,
    "辞": 6360,
    "辣": 6361,
    "辨": 6362,
    "辯": 6363,
    "辰": 6364,
    "農": 6365,
    "辵": 6366,
    "边": 6367,
    "辺": 6368,
    "辻": 6369,
    "込": 6370,
    "辽": 6371,
    "达": 6372,
    "辿": 6373,
    "迁": 6374,
    "迂": 6375,
    "迄": 6376,
    "迅": 6377,
    "过": 6378,
    "迎": 6379,
    "运": 6380,
    "近": 6381,
    "返": 6382,
    "还": 6383,
    "这": 6384,
    "进": 6385,
    "远": 6386,
    "连": 6387,
    "迟": 6388,
    "迢": 6389,
    "迦": 6390,
    "迪": 6391,
    "迫": 6392,
    "述": 6393,
    "迴": 6394,
    "迷": 6395,
    "迹": 6396,
    "追": 6397,
    "退": 6398,
    "送": 6399,
    "适": 6400,
    "逃": 6401,
    "逆": 6402,
    "选": 6403,
    "逊": 6404,
    "透": 6405,
    "逐": 6406,
    "途": 6407,
    "逗": 6408,
    "這": 6409,
    "通": 6410,
    "逞": 6411,
    "速": 6412,
    "造": 6413,
    "逢": 6414,
    "連": 6415,
    "逮": 6416,
    "週": 6417,
    "進": 6418,
    "逸": 6419,
    "遁": 6420,
    "遂": 6421,
    "遅": 6422,
    "遇": 6423,
    "遊": 6424,
    "運": 6425,
    "過": 6426,
    "道": 6427,
    "達": 6428,
    "違": 6429,
    "遗": 6430,
    "遙": 6431,
    "遝": 6432,
    "遞": 6433,
    "遠": 6434,
    "遣": 6435,
    "遥": 6436,
    "適": 6437,
    "遭": 6438,
    "遵": 6439,
    "遷": 6440,
    "選": 6441,
    "遺": 6442,
    "遼": 6443,
    "邀": 6444,
    "還": 6445,
    "邇": 6446,
    "邉": 6447,
    "邊": 6448,
    "邑": 6449,
    "邓": 6450,
    "邕": 6451,
    "邗": 6452,
    "邛": 6453,
    "那": 6454,
    "邦": 6455,
    "邪": 6456,
    "邮": 6457,
    "邱": 6458,
    "邵": 6459,
    "邸": 6460,
    "邻": 6461,
    "邽": 6462,
    "郁": 6463,
    "郊": 6464,
    "郎": 6465,
    "郑": 6466,
    "郝": 6467,
    "郞": 6468,
    "郡": 6469,
    "部": 6470,
    "郭": 6471,
    "郯": 6472,
    "郵": 6473,
    "郷": 6474,
    "都": 6475,
    "鄂": 6476,
    "鄉": 6477,
    "鄒": 6478,
    "鄞": 6479,
    "鄧": 6480,
    "鄭": 6481,
    "鄰": 6482,
    "鄱": 6483,
    "酉": 6484,
    "酋": 6485,
    "配": 6486,
    "酒": 6487,
    "酔": 6488,
    "酢": 6489,
    "酥": 6490,
    "酬": 6491,
    "酱": 6492,
    "酷": 6493,
    "酸": 6494,
    "醇": 6495,
    "醉": 6496,
    "醋": 6497,
    "醍": 6498,
    "醐": 6499,
    "醒": 6500,
    "醜": 6501,
    "醪": 6502,
    "醫": 6503,
    "醬": 6504,
    "醴": 6505,
    "醸": 6506,
    "釀": 6507,
    "采": 6508,
    "釈": 6509,
    "釉": 6510,
    "释": 6511,
    "釋": 6512,
    "里": 6513,
    "重": 6514,
    "野": 6515,
    "量": 6516,
    "釐": 6517,
    "金": 6518,
    "釗": 6519,
    "釘": 6520,
    "釜": 6521,
    "針": 6522,
    "釣": 6523,
    "釧": 6524,
    "鈔": 6525,
    "鈞": 6526,
    "鈴": 6527,
    "鉄": 6528,
    "鉅": 6529,
    "鉢": 6530,
    "鉦": 6531,
    "鉱": 6532,
    "鉴": 6533,
    "銀": 6534,
    "銃": 6535,
    "銅": 6536,
    "銑": 6537,
    "銖": 6538,
    "銘": 6539,
    "銭": 6540,
    "鋒": 6541,
    "鋳": 6542,
    "鋸": 6543,
    "鋼": 6544,
    "錄": 6545,
    "錆": 6546,
    "錐": 6547,
    "錘": 6548,
    "錢": 6549,
    "錦": 6550,
    "錫": 6551,
    "錬": 6552,
    "錯": 6553,
    "録": 6554,
    "鍊": 6555,
    "鍛": 6556,
    "鍬": 6557,
    "鍵": 6558,
    "鍾": 6559,
    "鎌": 6560,
    "鎖": 6561,
    "鎧": 6562,
    "鎬": 6563,
    "鎭": 6564,
    "鎮": 6565,
    "鏑": 6566,
    "鏟": 6567,
    "鏡": 6568,
    "鐘": 6569,
    "鐵": 6570,
    "鐸": 6571,
    "鑄": 6572,
    "鑑": 6573,
    "鑓": 6574,
    "鑫": 6575,
    "针": 6576,
    "钉": 6577,
    "钊": 6578,
    "钟": 6579,
    "钢": 6580,
    "钦": 6581,
    "钧": 6582,
    "钰": 6583,
    "钱": 6584,
    "钳": 6585,
    "铁": 6586,
    "铜": 6587,
    "铲": 6588,
    "银": 6589,
    "销": 6590,
    "锅": 6591,
    "错": 6592,
    "锡": 6593,
    "锦": 6594,
    "镇": 6595,
    "長": 6596,
    "长": 6597,
    "門": 6598,
    "閃": 6599,
    "閉": 6600,
    "開": 6601,
    "閏": 6602,
    "閑": 6603,
    "間": 6604,
    "閘": 6605,
    "関": 6606,
    "閣": 6607,
    "閤": 6608,
    "閥": 6609,
    "閩": 6610,
    "閻": 6611,
    "閾": 6612,
    "闇": 6613,
    "闍": 6614,
    "闘": 6615,
    "關": 6616,
    "闞": 6617,
    "闢": 6618,
    "门": 6619,
    "问": 6620,
    "闯": 6621,
    "闲": 6622,
    "间": 6623,
    "闹": 6624,
    "闻": 6625,
    "阜": 6626,
    "阝": 6627,
    "阞": 6628,
    "队": 6629,
    "阪": 6630,
    "防": 6631,
    "阳": 6632,
    "阵": 6633,
    "阿": 6634,
    "陀": 6635,
    "陂": 6636,
    "附": 6637,
    "际": 6638,
    "陆": 6639,
    "陈": 6640,
    "陉": 6641,
    "降": 6642,
    "限": 6643,
    "陛": 6644,
    "院": 6645,
    "陣": 6646,
    "除": 6647,
    "陥": 6648,
    "险": 6649,
    "陰": 6650,
    "陳": 6651,
    "陵": 6652,
    "陶": 6653,
    "陷": 6654,
    "陸": 6655,
    "険": 6656,
    "陽": 6657,
    "隅": 6658,
    "隆": 6659,
    "隈": 6660,
    "隊": 6661,
    "隋": 6662,
    "隍": 6663,
    "階": 6664,
    "随": 6665,
    "隐": 6666,
    "隘": 6667,
    "際": 6668,
    "障": 6669,
    "隠": 6670,
    "隣": 6671,
    "隧": 6672,
    "隨": 6673,
    "險": 6674,
    "隱": 6675,
    "隷": 6676,
    "隻": 6677,
    "隼": 6678,
    "难": 6679,
    "雀": 6680,
    "雁": 6681,
    "雄": 6682,
    "雅": 6683,
    "集": 6684,
    "雇": 6685,
    "雍": 6686,
    "雑": 6687,
    "雒": 6688,
    "雙": 6689,
    "雛": 6690,
    "雜": 6691,
    "雞": 6692,
    "離": 6693,
    "難": 6694,
    "雨": 6695,
    "雪": 6696,
    "雫": 6697,
    "雲": 6698,
    "零": 6699,
    "雷": 6700,
    "電": 6701,
    "雾": 6702,
    "霄": 6703,
    "震": 6704,
    "霊": 6705,
    "霍": 6706,
    "霜": 6707,
    "霞": 6708,
    "霧": 6709,
    "霰": 6710,
    "露": 6711,
    "霸": 6712,
    "霾": 6713,
    "靈": 6714,
    "青": 6715,
    "靖": 6716,
    "静": 6717,
    "靜": 6718,
    "非": 6719,
    "面": 6720,
    "革": 6721,
    "靳": 6722,
    "靴": 6723,
    "鞄": 6724,
    "鞍": 6725,
    "鞏": 6726,
    "鞘": 6727,
    "鞠": 6728,
    "鞭": 6729,
    "韋": 6730,
    "韑": 6731,
    "韓": 6732,
    "韦": 6733,
    "韩": 6734,
    "韮": 6735,
    "音": 6736,
    "韵": 6737,
    "韶": 6738,
    "韻": 6739,
    "響": 6740,
    "頁": 6741,
    "頂": 6742,
    "頃": 6743,
    "項": 6744,
    "順": 6745,
    "須": 6746,
    "頌": 6747,
    "頓": 6748,
    "頗": 6749,
    "領": 6750,
    "頬": 6751,
    "頭": 6752,
    "頼": 6753,
    "題": 6754,
    "額": 6755,
    "顏": 6756,
    "顔": 6757,
    "顕": 6758,
    "願": 6759,
    "顚": 6760,
    "類": 6761,
    "顥": 6762,
    "顧": 6763,
    "顯": 6764,
    "顶": 6765,
    "项": 6766,
    "顺": 6767,
    "须": 6768,
    "顾": 6769,
    "颂": 6770,
    "颍": 6771,
    "频": 6772,
    "颖": 6773,
    "颗": 6774,
    "题": 6775,
    "颜": 6776,
    "额": 6777,
    "颢": 6778,
    "颤": 6779,
    "風": 6780,
    "颪": 6781,
    "颯": 6782,
    "颱": 6783,
    "风": 6784,
    "飚": 6785,
    "飛": 6786,
    "飜": 6787,
    "飞": 6788,
    "食": 6789,
    "飠": 6790,
    "飢": 6791,
    "飩": 6792,
    "飯": 6793,
    "飲": 6794,
    "飴": 6795,
    "飼": 6796,
    "飽": 6797,
    "飾": 6798,
    "餃": 6799,
    "餅": 6800,
    "養": 6801,
    "餌": 6802,
    "餐": 6803,
    "餓": 6804,
    "餘": 6805,
    "餛": 6806,
    "館": 6807,
    "饂": 6808,
    "饅": 6809,
    "饗": 6810,
    "饣": 6811,
    "饥": 6812,
    "饨": 6813,
    "饭": 6814,
    "饶": 6815,
    "饺": 6816,
    "饼": 6817,
    "馄": 6818,
    "馆": 6819,
    "首": 6820,
    "香": 6821,
    "馨": 6822,
    "馬": 6823,
    "馮": 6824,
    "馳": 6825,
    "馴": 6826,
    "駄": 6827,
    "駅": 6828,
    "駆": 6829,
    "駈": 6830,
    "駐": 6831,
    "駒": 6832,
    "駕": 6833,
    "駿": 6834,
    "騎": 6835,
    "騒": 6836,
    "験": 6837,
    "騨": 6838,
    "騷": 6839,
    "驀": 6840,
    "驅": 6841,
    "驍": 6842,
    "驕": 6843,
    "驗": 6844,
    "驚": 6845,
    "驛": 6846,
    "驟": 6847,
    "驥": 6848,
    "马": 6849,
    "驶": 6850,
    "驹": 6851,
    "驾": 6852,
    "骆": 6853,
    "骏": 6854,
    "骥": 6855,
    "骨": 6856,
    "髀": 6857,
    "體": 6858,
    "高": 6859,
    "髙": 6860,
    "髪": 6861,
    "髮": 6862,
    "髯": 6863,
    "髷": 6864,
    "鬥": 6865,
    "鬧": 6866,
    "鬯": 6867,
    "鬱": 6868,
    "鬻": 6869,
    "鬼": 6870,
    "魁": 6871,
    "魂": 6872,
    "魅": 6873,
    "魍": 6874,
    "魎": 6875,
    "魏": 6876,
    "魑": 6877,
    "魔": 6878,
    "魚": 6879,
    "魯": 6880,
    "鮎": 6881,
    "鮨": 6882,
    "鮫": 6883,
    "鮮": 6884,
    "鯉": 6885,
    "鯛": 6886,
    "鯤": 6887,
    "鰍": 6888,
    "鰐": 6889,
    "鰯": 6890,
    "鱒": 6891,
    "鱗": 6892,
    "鱼": 6893,
    "鲜": 6894,
    "鳥": 6895,
    "鳩": 6896,
    "鳳": 6897,
    "鳴": 6898,
    "鳶": 6899,
    "鴎": 6900,
    "鴨": 6901,
    "鴻": 6902,
    "鵜": 6903,
    "鵡": 6904,
    "鵬": 6905,
    "鶉": 6906,
    "鶏": 6907,
    "鶚": 6908,
    "鶯": 6909,
    "鶴": 6910,
    "鶻": 6911,
    "鶿": 6912,
    "鷄": 6913,
    "鷗": 6914,
    "鷥": 6915,
    "鷲": 6916,
    "鷹": 6917,
    "鷺": 6918,
    "鸚": 6919,
    "鸞": 6920,
    "鸟": 6921,
    "鸡": 6922,
    "鸣": 6923,
    "鸪": 6924,
    "鸬": 6925,
    "鸭": 6926,
    "鸵": 6927,
    "鸶": 6928,
    "鸽": 6929,
    "鸿": 6930,
    "鹂": 6931,
    "鹅": 6932,
    "鹏": 6933,
    "鹚": 6934,
    "鹧": 6935,
    "鹭": 6936,
    "鹰": 6937,
    "鹽": 6938,
    "鹿": 6939,
    "麒": 6940,
    "麗": 6941,
    "麟": 6942,
    "麥": 6943,
    "麦": 6944,
    "麵": 6945,
    "麺": 6946,
    "麻": 6947,
    "麼": 6948,
    "麿": 6949,
    "黃": 6950,
    "黄": 6951,
    "黌": 6952,
    "黎": 6953,
    "黏": 6954,
    "黑": 6955,
    "黒": 6956,
    "默": 6957,
    "黙": 6958,
    "黛": 6959,
    "點": 6960,
    "黟": 6961,
    "黨": 6962,
    "鼈": 6963,
    "鼎": 6964,
    "鼓": 6965,
    "鼻": 6966,
    "鼾": 6967,
    "齊": 6968,
    "齋": 6969,
    "齐": 6970,
    "齡": 6971,
    "龄": 6972,
    "龍": 6973,
    "龙": 6974,
    "龜": 6975,
    "龟": 6976,
    "Ꙃ": 6977,
    "ꙃ": 6978,
    "Ꙇ": 6979,
    "ꙇ": 6980,
    "ꙋ": 6981,
    "Ꙍ": 6982,
    "ꙍ": 6983,
    "ꙑ": 6984,
    "Ꙓ": 6985,
    "ꙗ": 6986,
    "ꙛ": 6987,
    "Ꙥ": 6988,
    "ꙥ": 6989,
    "꙯": 6990,
    "Ꚇ": 6991,
    "Ꚍ": 6992,
    "ꚍ": 6993,
    "Ꚏ": 6994,
    "ꚏ": 6995,
    "Ꚗ": 6996,
    "Ꚙ": 6997,
    "ꚙ": 6998,
    "ꛯ": 6999,
    "꜖": 7000,
    "ꜧ": 7001,
    "ꜩ": 7002,
    "Ꜫ": 7003,
    "ꜫ": 7004,
    "ꜭ": 7005,
    "Ꜵ": 7006,
    "ꜵ": 7007,
    "ꜷ": 7008,
    "ꜹ": 7009,
    "Ꜻ": 7010,
    "ꜻ": 7011,
    "ꝁ": 7012,
    "ꝉ": 7013,
    "Ꝏ": 7014,
    "ꝏ": 7015,
    "ꝑ": 7016,
    "ꝣ": 7017,
    "ꞇ": 7018,
    "꞉": 7019,
    "ꞌ": 7020,
    "ꞑ": 7021,
    "Ꞟ": 7022,
    "Ꞣ": 7023,
    "ꞣ": 7024,
    "Ꞧ": 7025,
    "Ɪ": 7026,
    "Ꞵ": 7027,
    "ꞵ": 7028,
    "Ꞷ": 7029,
    "ꞷ": 7030,
    "Ꞹ": 7031,
    "Ꟈ": 7032,
    "ꟈ": 7033,
    "ꟓ": 7034,
    "ꟕ": 7035,
    "Ꟗ": 7036,
    "ꟗ": 7037,
    "ꟼ": 7038,
    "ꟽ": 7039,
    "ꬱ": 7040,
    "ꬴ": 7041,
    "ꬷ": 7042,
    "ꬸ": 7043,
    "ꭃ": 7044,
    "ꭐ": 7045,
    "ꭑ": 7046,
    "ꭒ": 7047,
    "ꭓ": 7048,
    "ꭡ": 7049,
    "ꭥ": 7050,
    "가": 7051,
    "각": 7052,
    "간": 7053,
    "갈": 7054,
    "감": 7055,
    "갑": 7056,
    "갔": 7057,
    "강": 7058,
    "같": 7059,
    "개": 7060,
    "갤": 7061,
    "거": 7062,
    "건": 7063,
    "걸": 7064,
    "검": 7065,
    "것": 7066,
    "게": 7067,
    "격": 7068,
    "견": 7069,
    "결": 7070,
    "경": 7071,
    "곁": 7072,
    "계": 7073,
    "고": 7074,
    "곡": 7075,
    "곤": 7076,
    "골": 7077,
    "곰": 7078,
    "곳": 7079,
    "공": 7080,
    "과": 7081,
    "곽": 7082,
    "관": 7083,
    "광": 7084,
    "괴": 7085,
    "교": 7086,
    "구": 7087,
    "국": 7088,
    "군": 7089,
    "굿": 7090,
    "권": 7091,
    "궤": 7092,
    "귀": 7093,
    "규": 7094,
    "균": 7095,
    "그": 7096,
    "극": 7097,
    "근": 7098,
    "글": 7099,
    "금": 7100,
    "급": 7101,
    "긍": 7102,
    "기": 7103,
    "길": 7104,
    "김": 7105,
    "깊": 7106,
    "까": 7107,
    "깨": 7108,
    "께": 7109,
    "껸": 7110,
    "꽃": 7111,
    "꾼": 7112,
    "끓": 7113,
    "끝": 7114,
    "끼": 7115,
    "나": 7116,
    "낙": 7117,
    "난": 7118,
    "날": 7119,
    "낡": 7120,
    "남": 7121,
    "낮": 7122,
    "낯": 7123,
    "내": 7124,
    "냄": 7125,
    "냉": 7126,
    "냐": 7127,
    "냥": 7128,
    "너": 7129,
    "넋": 7130,
    "널": 7131,
    "넘": 7132,
    "네": 7133,
    "넷": 7134,
    "녀": 7135,
    "년": 7136,
    "녕": 7137,
    "녘": 7138,
    "노": 7139,
    "녹": 7140,
    "놀": 7141,
    "놈": 7142,
    "농": 7143,
    "놓": 7144,
    "뇌": 7145,
    "뇽": 7146,
    "누": 7147,
    "눈": 7148,
    "눌": 7149,
    "뉴": 7150,
    "느": 7151,
    "늑": 7152,
    "는": 7153,
    "늘": 7154,
    "니": 7155,
    "닉": 7156,
    "닌": 7157,
    "님": 7158,
    "다": 7159,
    "닥": 7160,
    "단": 7161,
    "달": 7162,
    "닭": 7163,
    "닮": 7164,
    "담": 7165,
    "답": 7166,
    "당": 7167,
    "닿": 7168,
    "대": 7169,
    "댄": 7170,
    "댐": 7171,
    "더": 7172,
    "덕": 7173,
    "덤": 7174,
    "덮": 7175,
    "데": 7176,
    "도": 7177,
    "독": 7178,
    "돈": 7179,
    "돌": 7180,
    "돔": 7181,
    "동": 7182,
    "돼": 7183,
    "됐": 7184,
    "되": 7185,
    "된": 7186,
    "두": 7187,
    "둑": 7188,
    "둘": 7189,
    "뒷": 7190,
    "듀": 7191,
    "드": 7192,
    "득": 7193,
    "든": 7194,
    "들": 7195,
    "등": 7196,
    "디": 7197,
    "딕": 7198,
    "딘": 7199,
    "딜": 7200,
    "딩": 7201,
    "따": 7202,
    "딸": 7203,
    "땀": 7204,
    "땅": 7205,
    "때": 7206,
    "떨": 7207,
    "떻": 7208,
    "똥": 7209,
    "뚫": 7210,
    "뜨": 7211,
    "뜬": 7212,
    "라": 7213,
    "락": 7214,
    "란": 7215,
    "람": 7216,
    "랏": 7217,
    "랑": 7218,
    "래": 7219,
    "랙": 7220,
    "랜": 7221,
    "랠": 7222,
    "램": 7223,
    "량": 7224,
    "러": 7225,
    "럭": 7226,
    "럼": 7227,
    "레": 7228,
    "려": 7229,
    "력": 7230,
    "련": 7231,
    "렬": 7232,
    "령": 7233,
    "례": 7234,
    "로": 7235,
    "록": 7236,
    "론": 7237,
    "롱": 7238,
    "료": 7239,
    "룡": 7240,
    "루": 7241,
    "룽": 7242,
    "류": 7243,
    "르": 7244,
    "를": 7245,
    "름": 7246,
    "리": 7247,
    "릭": 7248,
    "린": 7249,
    "림": 7250,
    "립": 7251,
    "마": 7252,
    "막": 7253,
    "만": 7254,
    "말": 7255,
    "맑": 7256,
    "맛": 7257,
    "망": 7258,
    "맞": 7259,
    "매": 7260,
    "맨": 7261,
    "맹": 7262,
    "맺": 7263,
    "머": 7264,
    "먹": 7265,
    "먼": 7266,
    "메": 7267,
    "멘": 7268,
    "며": 7269,
    "멱": 7270,
    "면": 7271,
    "멸": 7272,
    "명": 7273,
    "모": 7274,
    "목": 7275,
    "못": 7276,
    "몽": 7277,
    "뫼": 7278,
    "묘": 7279,
    "무": 7280,
    "문": 7281,
    "물": 7282,
    "미": 7283,
    "민": 7284,
    "믿": 7285,
    "밀": 7286,
    "바": 7287,
    "박": 7288,
    "반": 7289,
    "받": 7290,
    "발": 7291,
    "밤": 7292,
    "밥": 7293,
    "방": 7294,
    "밭": 7295,
    "배": 7296,
    "백": 7297,
    "밴": 7298,
    "뱀": 7299,
    "버": 7300,
    "번": 7301,
    "벌": 7302,
    "범": 7303,
    "법": 7304,
    "베": 7305,
    "변": 7306,
    "별": 7307,
    "병": 7308,
    "볕": 7309,
    "보": 7310,
    "복": 7311,
    "볶": 7312,
    "본": 7313,
    "볼": 7314,
    "봇": 7315,
    "봉": 7316,
    "부": 7317,
    "북": 7318,
    "분": 7319,
    "불": 7320,
    "붉": 7321,
    "붙": 7322,
    "뷰": 7323,
    "브": 7324,
    "븐": 7325,
    "블": 7326,
    "비": 7327,
    "빅": 7328,
    "빈": 7329,
    "빌": 7330,
    "빙": 7331,
    "빛": 7332,
    "빠": 7333,
    "뿌": 7334,
    "삐": 7335,
    "사": 7336,
    "산": 7337,
    "살": 7338,
    "삼": 7339,
    "상": 7340,
    "새": 7341,
    "색": 7342,
    "샘": 7343,
    "생": 7344,
    "샤": 7345,
    "서": 7346,
    "석": 7347,
    "선": 7348,
    "설": 7349,
    "섬": 7350,
    "섭": 7351,
    "섯": 7352,
    "성": 7353,
    "섶": 7354,
    "세": 7355,
    "센": 7356,
    "셀": 7357,
    "셔": 7358,
    "션": 7359,
    "셜": 7360,
    "소": 7361,
    "속": 7362,
    "손": 7363,
    "솔": 7364,
    "솜": 7365,
    "송": 7366,
    "솥": 7367,
    "쇠": 7368,
    "쇼": 7369,
    "수": 7370,
    "숙": 7371,
    "순": 7372,
    "술": 7373,
    "숭": 7374,
    "숲": 7375,
    "쉬": 7376,
    "슈": 7377,
    "스": 7378,
    "슬": 7379,
    "습": 7380,
    "승": 7381,
    "시": 7382,
    "식": 7383,
    "신": 7384,
    "실": 7385,
    "심": 7386,
    "십": 7387,
    "싱": 7388,
    "싸": 7389,
    "싹": 7390,
    "쌍": 7391,
    "쌓": 7392,
    "썸": 7393,
    "쎈": 7394,
    "쏙": 7395,
    "쏴": 7396,
    "쓸": 7397,
    "씨": 7398,
    "아": 7399,
    "악": 7400,
    "안": 7401,
    "않": 7402,
    "알": 7403,
    "암": 7404,
    "았": 7405,
    "앙": 7406,
    "앞": 7407,
    "애": 7408,
    "앨": 7409,
    "야": 7410,
    "약": 7411,
    "양": 7412,
    "얕": 7413,
    "어": 7414,
    "억": 7415,
    "언": 7416,
    "얼": 7417,
    "엄": 7418,
    "업": 7419,
    "없": 7420,
    "엇": 7421,
    "었": 7422,
    "에": 7423,
    "엑": 7424,
    "엔": 7425,
    "엘": 7426,
    "여": 7427,
    "역": 7428,
    "연": 7429,
    "열": 7430,
    "염": 7431,
    "엽": 7432,
    "영": 7433,
    "예": 7434,
    "오": 7435,
    "옥": 7436,
    "온": 7437,
    "올": 7438,
    "옹": 7439,
    "와": 7440,
    "완": 7441,
    "왕": 7442,
    "왜": 7443,
    "외": 7444,
    "왼": 7445,
    "요": 7446,
    "욕": 7447,
    "용": 7448,
    "우": 7449,
    "욱": 7450,
    "운": 7451,
    "울": 7452,
    "웃": 7453,
    "웅": 7454,
    "원": 7455,
    "월": 7456,
    "웨": 7457,
    "위": 7458,
    "윙": 7459,
    "유": 7460,
    "육": 7461,
    "윤": 7462,
    "융": 7463,
    "으": 7464,
    "은": 7465,
    "을": 7466,
    "음": 7467,
    "읍": 7468,
    "응": 7469,
    "의": 7470,
    "이": 7471,
    "익": 7472,
    "인": 7473,
    "일": 7474,
    "읽": 7475,
    "임": 7476,
    "있": 7477,
    "잉": 7478,
    "잊": 7479,
    "잎": 7480,
    "자": 7481,
    "작": 7482,
    "잔": 7483,
    "잘": 7484,
    "잡": 7485,
    "장": 7486,
    "재": 7487,
    "잭": 7488,
    "쟁": 7489,
    "쟝": 7490,
    "저": 7491,
    "적": 7492,
    "전": 7493,
    "절": 7494,
    "젊": 7495,
    "접": 7496,
    "정": 7497,
    "제": 7498,
    "젠": 7499,
    "져": 7500,
    "조": 7501,
    "족": 7502,
    "좀": 7503,
    "좁": 7504,
    "종": 7505,
    "좋": 7506,
    "좌": 7507,
    "죄": 7508,
    "주": 7509,
    "죽": 7510,
    "준": 7511,
    "줄": 7512,
    "줌": 7513,
    "중": 7514,
    "쥐": 7515,
    "즈": 7516,
    "즌": 7517,
    "증": 7518,
    "지": 7519,
    "직": 7520,
    "진": 7521,
    "집": 7522,
    "짓": 7523,
    "징": 7524,
    "짖": 7525,
    "짜": 7526,
    "짝": 7527,
    "짠": 7528,
    "짱": 7529,
    "째": 7530,
    "쩌": 7531,
    "쪼": 7532,
    "쪽": 7533,
    "찌": 7534,
    "찜": 7535,
    "차": 7536,
    "찬": 7537,
    "참": 7538,
    "창": 7539,
    "채": 7540,
    "책": 7541,
    "챔": 7542,
    "처": 7543,
    "천": 7544,
    "철": 7545,
    "첩": 7546,
    "첫": 7547,
    "청": 7548,
    "체": 7549,
    "첼": 7550,
    "쳤": 7551,
    "초": 7552,
    "촌": 7553,
    "총": 7554,
    "최": 7555,
    "추": 7556,
    "축": 7557,
    "춘": 7558,
    "춤": 7559,
    "충": 7560,
    "츄": 7561,
    "츠": 7562,
    "층": 7563,
    "치": 7564,
    "친": 7565,
    "칠": 7566,
    "침": 7567,
    "칩": 7568,
    "카": 7569,
    "칼": 7570,
    "캔": 7571,
    "캡": 7572,
    "커": 7573,
    "컵": 7574,
    "켈": 7575,
    "켜": 7576,
    "콘": 7577,
    "콜": 7578,
    "콤": 7579,
    "콩": 7580,
    "콰": 7581,
    "퀄": 7582,
    "퀸": 7583,
    "크": 7584,
    "클": 7585,
    "큼": 7586,
    "키": 7587,
    "킬": 7588,
    "킹": 7589,
    "타": 7590,
    "탁": 7591,
    "탄": 7592,
    "탈": 7593,
    "탑": 7594,
    "탕": 7595,
    "태": 7596,
    "택": 7597,
    "탱": 7598,
    "터": 7599,
    "턱": 7600,
    "턴": 7601,
    "털": 7602,
    "테": 7603,
    "텔": 7604,
    "토": 7605,
    "통": 7606,
    "퇴": 7607,
    "투": 7608,
    "퉁": 7609,
    "트": 7610,
    "특": 7611,
    "틀": 7612,
    "티": 7613,
    "틱": 7614,
    "틴": 7615,
    "파": 7616,
    "판": 7617,
    "팔": 7618,
    "팥": 7619,
    "패": 7620,
    "팩": 7621,
    "팬": 7622,
    "퍼": 7623,
    "펀": 7624,
    "펌": 7625,
    "페": 7626,
    "펫": 7627,
    "편": 7628,
    "평": 7629,
    "폐": 7630,
    "포": 7631,
    "폭": 7632,
    "폴": 7633,
    "표": 7634,
    "풀": 7635,
    "품": 7636,
    "풍": 7637,
    "퓨": 7638,
    "프": 7639,
    "픈": 7640,
    "플": 7641,
    "픔": 7642,
    "피": 7643,
    "필": 7644,
    "핑": 7645,
    "하": 7646,
    "학": 7647,
    "한": 7648,
    "할": 7649,
    "함": 7650,
    "합": 7651,
    "항": 7652,
    "해": 7653,
    "햇": 7654,
    "했": 7655,
    "행": 7656,
    "향": 7657,
    "허": 7658,
    "헌": 7659,
    "험": 7660,
    "헤": 7661,
    "혁": 7662,
    "현": 7663,
    "혈": 7664,
    "협": 7665,
    "형": 7666,
    "호": 7667,
    "혼": 7668,
    "홈": 7669,
    "홉": 7670,
    "홍": 7671,
    "화": 7672,
    "확": 7673,
    "환": 7674,
    "활": 7675,
    "황": 7676,
    "회": 7677,
    "효": 7678,
    "후": 7679,
    "훈": 7680,
    "휘": 7681,
    "휴": 7682,
    "흥": 7683,
    "희": 7684,
    "히": 7685,
    "힐": 7686,
    "힘": 7687,
    "힙": 7688,
    "﨑": 7689,
    "︎": 7690,
    "️": 7691,
    "︠": 7692,
    "︡": 7693,
    "�": 7694,
    "𐌀": 7695,
    "𐌃": 7696,
    "𐌅": 7697,
    "𐌉": 7698,
    "𐌊": 7699,
    "𐌍": 7700,
    "𐌔": 7701,
    "𐌕": 7702,
    "𐌖": 7703,
    "𐌰": 7704,
    "𐌱": 7705,
    "𐌲": 7706,
    "𐌴": 7707,
    "𐌸": 7708,
    "𐌹": 7709,
    "𐌺": 7710,
    "𐌻": 7711,
    "𐌽": 7712,
    "𐌿": 7713,
    "𐍂": 7714,
    "𐍃": 7715,
    "𐍄": 7716,
    "𐍅": 7717,
    "𐍈": 7718,
    "𐎠": 7719,
    "𐎧": 7720,
    "𐎫": 7721,
    "𐎱": 7722,
    "𐎼": 7723,
    "𐎿": 7724,
    "𐏁": 7725,
    "𐏂": 7726,
    "𐐫": 7727,
    "𐤀": 7728,
    "𐤁": 7729,
    "𐤈": 7730,
    "𐤋": 7731,
    "𐤍": 7732,
    "𐤏": 7733,
    "𐤐": 7734,
    "𐤑": 7735,
    "𐤒": 7736,
    "𐤓": 7737,
    "𐤕": 7738,
    "𐬃": 7739,
    "𐬴": 7740,
    "𐰀": 7741,
    "𐰇": 7742,
    "𐱃": 7743,
    "𑄇": 7744,
    "𑐎": 7745,
    "𑐥": 7746,
    "𒀭": 7747,
    "𒁕": 7748,
    "𒁹": 7749,
    "𒂗": 7750,
    "𒅎": 7751,
    "𒇻": 7752,
    "𒉡": 7753,
    "𒉺": 7754,
    "𒊑": 7755,
    "𒋙": 7756,
    "𒍣": 7757,
    "𓂀": 7758,
    "𓂋": 7759,
    "𓃠": 7760,
    "𓈉": 7761,
    "𓈖": 7762,
    "𓊝": 7763,
    "𓋹": 7764,
    "𓏠": 7765,
    "𗂧": 7766,
    "𗴂": 7767,
    "𗴲": 7768,
    "𗹭": 7769,
    "𘜶": 7770,
    "𝼍": 7771,
    "𝼛": 7772,
    "𝼦": 7773,
    "🀄": 7774,
    "🃏": 7775,
    "🃕": 7776,
    "🅘": 7777,
    "🅰": 7778,
    "🅱": 7779,
    "🅲": 7780,
    "🅳": 7781,
    "🅵": 7782,
    "🅶": 7783,
    "🅻": 7784,
    "🅽": 7785,
    "🅾": 7786,
    "🅿": 7787,
    "🆀": 7788,
    "🆁": 7789,
    "🆂": 7790,
    "🆃": 7791,
    "🆅": 7792,
    "🆎": 7793,
    "🆑": 7794,
    "🆓": 7795,
    "🆔": 7796,
    "🆕": 7797,
    "🆖": 7798,
    "🆗": 7799,
    "🆘": 7800,
    "🆙": 7801,
    "🆚": 7802,
    "🇦": 7803,
    "🇧": 7804,
    "🇨": 7805,
    "🇩": 7806,
    "🇪": 7807,
    "🇫": 7808,
    "🇬": 7809,
    "🇭": 7810,
    "🇮": 7811,
    "🇯": 7812,
    "🇰": 7813,
    "🇱": 7814,
    "🇲": 7815,
    "🇳": 7816,
    "🇴": 7817,
    "🇵": 7818,
    "🇶": 7819,
    "🇷": 7820,
    "🇸": 7821,
    "🇹": 7822,
    "🇺": 7823,
    "🇻": 7824,
    "🇼": 7825,
    "🇽": 7826,
    "🇾": 7827,
    "🇿": 7828,
    "🌀": 7829,
    "🌁": 7830,
    "🌃": 7831,
    "🌄": 7832,
    "🌅": 7833,
    "🌆": 7834,
    "🌇": 7835,
    "🌈": 7836,
    "🌉": 7837,
    "🌊": 7838,
    "🌋": 7839,
    "🌌": 7840,
    "🌍": 7841,
    "🌎": 7842,
    "🌏": 7843,
    "🌐": 7844,
    "🌑": 7845,
    "🌒": 7846,
    "🌓": 7847,
    "🌔": 7848,
    "🌕": 7849,
    "🌖": 7850,
    "🌗": 7851,
    "🌘": 7852,
    "🌙": 7853,
    "🌚": 7854,
    "🌛": 7855,
    "🌞": 7856,
    "🌟": 7857,
    "🌠": 7858,
    "🌡": 7859,
    "🌤": 7860,
    "🌥": 7861,
    "🌦": 7862,
    "🌧": 7863,
    "🌨": 7864,
    "🌩": 7865,
    "🌪": 7866,
    "🌫": 7867,
    "🌬": 7868,
    "🌭": 7869,
    "🌮": 7870,
    "🌰": 7871,
    "🌱": 7872,
    "🌲": 7873,
    "🌳": 7874,
    "🌴": 7875,
    "🌵": 7876,
    "🌶": 7877,
    "🌷": 7878,
    "🌸": 7879,
    "🌹": 7880,
    "🌺": 7881,
    "🌻": 7882,
    "🌼": 7883,
    "🌽": 7884,
    "🌾": 7885,
    "🌿": 7886,
    "🍀": 7887,
    "🍁": 7888,
    "🍂": 7889,
    "🍃": 7890,
    "🍄": 7891,
    "🍅": 7892,
    "🍆": 7893,
    "🍇": 7894,
    "🍈": 7895,
    "🍉": 7896,
    "🍊": 7897,
    "🍋": 7898,
    "🍌": 7899,
    "🍍": 7900,
    "🍎": 7901,
    "🍏": 7902,
    "🍐": 7903,
    "🍑": 7904,
    "🍒": 7905,
    "🍓": 7906,
    "🍔": 7907,
    "🍕": 7908,
    "🍖": 7909,
    "🍗": 7910,
    "🍙": 7911,
    "🍚": 7912,
    "🍛": 7913,
    "🍜": 7914,
    "🍝": 7915,
    "🍞": 7916,
    "🍟": 7917,
    "🍠": 7918,
    "🍡": 7919,
    "🍢": 7920,
    "🍣": 7921,
    "🍤": 7922,
    "🍥": 7923,
    "🍦": 7924,
    "🍧": 7925,
    "🍨": 7926,
    "🍩": 7927,
    "🍪": 7928,
    "🍫": 7929,
    "🍬": 7930,
    "🍭": 7931,
    "🍮": 7932,
    "🍯": 7933,
    "🍰": 7934,
    "🍱": 7935,
    "🍲": 7936,
    "🍳": 7937,
    "🍴": 7938,
    "🍵": 7939,
    "🍶": 7940,
    "🍷": 7941,
    "🍸": 7942,
    "🍹": 7943,
    "🍺": 7944,
    "🍻": 7945,
    "🍼": 7946,
    "🍽": 7947,
    "🍾": 7948,
    "🍿": 7949,
    "🎀": 7950,
    "🎁": 7951,
    "🎂": 7952,
    "🎃": 7953,
    "🎄": 7954,
    "🎅": 7955,
    "🎆": 7956,
    "🎇": 7957,
    "🎈": 7958,
    "🎉": 7959,
    "🎊": 7960,
    "🎋": 7961,
    "🎌": 7962,
    "🎍": 7963,
    "🎎": 7964,
    "🎏": 7965,
    "🎐": 7966,
    "🎑": 7967,
    "🎒": 7968,
    "🎓": 7969,
    "🎖": 7970,
    "🎗": 7971,
    "🎙": 7972,
    "🎚": 7973,
    "🎛": 7974,
    "🎞": 7975,
    "🎟": 7976,
    "🎠": 7977,
    "🎡": 7978,
    "🎢": 7979,
    "🎣": 7980,
    "🎤": 7981,
    "🎥": 7982,
    "🎦": 7983,
    "🎧": 7984,
    "🎨": 7985,
    "🎩": 7986,
    "🎪": 7987,
    "🎫": 7988,
    "🎬": 7989,
    "🎭": 7990,
    "🎮": 7991,
    "🎯": 7992,
    "🎰": 7993,
    "🎱": 7994,
    "🎲": 7995,
    "🎳": 7996,
    "🎴": 7997,
    "🎵": 7998,
    "🎶": 7999,
    "🎷": 8000,
    "🎸": 8001,
    "🎹": 8002,
    "🎺": 8003,
    "🎻": 8004,
    "🎼": 8005,
    "🎾": 8006,
    "🎿": 8007,
    "🏀": 8008,
    "🏁": 8009,
    "🏂": 8010,
    "🏃": 8011,
    "🏄": 8012,
    "🏅": 8013,
    "🏆": 8014,
    "🏇": 8015,
    "🏈": 8016,
    "🏉": 8017,
    "🏊": 8018,
    "🏋": 8019,
    "🏌": 8020,
    "🏍": 8021,
    "🏎": 8022,
    "🏏": 8023,
    "🏐": 8024,
    "🏑": 8025,
    "🏒": 8026,
    "🏓": 8027,
    "🏔": 8028,
    "🏕": 8029,
    "🏖": 8030,
    "🏗": 8031,
    "🏘": 8032,
    "🏙": 8033,
    "🏚": 8034,
    "🏛": 8035,
    "🏜": 8036,
    "🏝": 8037,
    "🏞": 8038,
    "🏟": 8039,
    "🏠": 8040,
    "🏡": 8041,
    "🏢": 8042,
    "🏤": 8043,
    "🏥": 8044,
    "🏦": 8045,
    "🏧": 8046,
    "🏨": 8047,
    "🏪": 8048,
    "🏫": 8049,
    "🏬": 8050,
    "🏭": 8051,
    "🏮": 8052,
    "🏯": 8053,
    "🏰": 8054,
    "🏳": 8055,
    "🏴": 8056,
    "🏵": 8057,
    "🏷": 8058,
    "🏸": 8059,
    "🏹": 8060,
    "🏺": 8061,
    "🏻": 8062,
    "🏼": 8063,
    "🏽": 8064,
    "🏾": 8065,
    "🏿": 8066,
    "🐀": 8067,
    "🐁": 8068,
    "🐂": 8069,
    "🐃": 8070,
    "🐄": 8071,
    "🐅": 8072,
    "🐆": 8073,
    "🐇": 8074,
    "🐈": 8075,
    "🐉": 8076,
    "🐊": 8077,
    "🐋": 8078,
    "🐌": 8079,
    "🐍": 8080,
    "🐎": 8081,
    "🐏": 8082,
    "🐐": 8083,
    "🐑": 8084,
    "🐒": 8085,
    "🐓": 8086,
    "🐔": 8087,
    "🐕": 8088,
    "🐖": 8089,
    "🐗": 8090,
    "🐘": 8091,
    "🐙": 8092,
    "🐚": 8093,
    "🐛": 8094,
    "🐜": 8095,
    "🐝": 8096,
    "🐞": 8097,
    "🐟": 8098,
    "🐠": 8099,
    "🐡": 8100,
    "🐢": 8101,
    "🐣": 8102,
    "🐤": 8103,
    "🐥": 8104,
    "🐦": 8105,
    "🐧": 8106,
    "🐨": 8107,
    "🐩": 8108,
    "🐪": 8109,
    "🐫": 8110,
    "🐬": 8111,
    "🐭": 8112,
    "🐮": 8113,
    "🐯": 8114,
    "🐰": 8115,
    "🐱": 8116,
    "🐲": 8117,
    "🐳": 8118,
    "🐴": 8119,
    "🐵": 8120,
    "🐶": 8121,
    "🐷": 8122,
    "🐸": 8123,
    "🐹": 8124,
    "🐺": 8125,
    "🐻": 8126,
    "🐼": 8127,
    "🐾": 8128,
    "🐿": 8129,
    "👀": 8130,
    "👁": 8131,
    "👂": 8132,
    "👃": 8133,
    "👄": 8134,
    "👅": 8135,
    "👆": 8136,
    "👇": 8137,
    "👈": 8138,
    "👉": 8139,
    "👊": 8140,
    "👋": 8141,
    "👌": 8142,
    "👍": 8143,
    "👎": 8144,
    "👏": 8145,
    "👐": 8146,
    "👑": 8147,
    "👒": 8148,
    "👓": 8149,
    "👔": 8150,
    "👕": 8151,
    "👖": 8152,
    "👗": 8153,
    "👘": 8154,
    "👙": 8155,
    "👚": 8156,
    "👛": 8157,
    "👜": 8158,
    "👞": 8159,
    "👟": 8160,
    "👠": 8161,
    "👡": 8162,
    "👢": 8163,
    "👣": 8164,
    "👤": 8165,
    "👥": 8166,
    "👦": 8167,
    "👧": 8168,
    "👨": 8169,
    "👩": 8170,
    "👪": 8171,
    "👫": 8172,
    "👬": 8173,
    "👭": 8174,
    "👮": 8175,
    "👯": 8176,
    "👰": 8177,
    "👱": 8178,
    "👲": 8179,
    "👳": 8180,
    "👴": 8181,
    "👵": 8182,
    "👶": 8183,
    "👷": 8184,
    "👸": 8185,
    "👹": 8186,
    "👺": 8187,
    "👻": 8188,
    "👼": 8189,
    "👽": 8190,
    "👾": 8191,
    "👿": 8192,
    "💀": 8193,
    "💁": 8194,
    "💂": 8195,
    "💃": 8196,
    "💄": 8197,
    "💅": 8198,
    "💆": 8199,
    "💇": 8200,
    "💈": 8201,
    "💉": 8202,
    "💊": 8203,
    "💋": 8204,
    "💌": 8205,
    "💍": 8206,
    "💎": 8207,
    "💏": 8208,
    "💐": 8209,
    "💑": 8210,
    "💒": 8211,
    "💓": 8212,
    "💔": 8213,
    "💕": 8214,
    "💖": 8215,
    "💗": 8216,
    "💘": 8217,
    "💙": 8218,
    "💚": 8219,
    "💛": 8220,
    "💜": 8221,
    "💝": 8222,
    "💞": 8223,
    "💠": 8224,
    "💡": 8225,
    "💢": 8226,
    "💣": 8227,
    "💤": 8228,
    "💥": 8229,
    "💦": 8230,
    "💧": 8231,
    "💨": 8232,
    "💩": 8233,
    "💪": 8234,
    "💫": 8235,
    "💬": 8236,
    "💭": 8237,
    "💮": 8238,
    "💯": 8239,
    "💰": 8240,
    "💱": 8241,
    "💲": 8242,
    "💳": 8243,
    "💴": 8244,
    "💵": 8245,
    "💶": 8246,
    "💷": 8247,
    "💸": 8248,
    "💹": 8249,
    "💺": 8250,
    "💻": 8251,
    "💼": 8252,
    "💽": 8253,
    "💾": 8254,
    "💿": 8255,
    "📀": 8256,
    "📁": 8257,
    "📂": 8258,
    "📃": 8259,
    "📄": 8260,
    "📅": 8261,
    "📆": 8262,
    "📇": 8263,
    "📈": 8264,
    "📉": 8265,
    "📊": 8266,
    "📋": 8267,
    "📌": 8268,
    "📍": 8269,
    "📎": 8270,
    "📏": 8271,
    "📐": 8272,
    "📑": 8273,
    "📒": 8274,
    "📓": 8275,
    "📔": 8276,
    "📕": 8277,
    "📖": 8278,
    "📗": 8279,
    "📘": 8280,
    "📙": 8281,
    "📚": 8282,
    "📛": 8283,
    "📜": 8284,
    "📝": 8285,
    "📞": 8286,
    "📟": 8287,
    "📠": 8288,
    "📡": 8289,
    "📢": 8290,
    "📣": 8291,
    "📤": 8292,
    "📥": 8293,
    "📦": 8294,
    "📧": 8295,
    "📨": 8296,
    "📩": 8297,
    "📬": 8298,
    "📮": 8299,
    "📯": 8300,
    "📰": 8301,
    "📱": 8302,
    "📲": 8303,
    "📳": 8304,
    "📴": 8305,
    "📵": 8306,
    "📶": 8307,
    "📷": 8308,
    "📸": 8309,
    "📹": 8310,
    "📺": 8311,
    "📻": 8312,
    "📼": 8313,
    "📽": 8314,
    "📿": 8315,
    "🔀": 8316,
    "🔁": 8317,
    "🔂": 8318,
    "🔃": 8319,
    "🔄": 8320,
    "🔆": 8321,
    "🔇": 8322,
    "🔈": 8323,
    "🔉": 8324,
    "🔊": 8325,
    "🔋": 8326,
    "🔌": 8327,
    "🔍": 8328,
    "🔎": 8329,
    "🔏": 8330,
    "🔐": 8331,
    "🔑": 8332,
    "🔒": 8333,
    "🔓": 8334,
    "🔔": 8335,
    "🔕": 8336,
    "🔖": 8337,
    "🔗": 8338,
    "🔘": 8339,
    "🔙": 8340,
    "🔚": 8341,
    "🔛": 8342,
    "🔜": 8343,
    "🔝": 8344,
    "🔞": 8345,
    "🔟": 8346,
    "🔠": 8347,
    "🔡": 8348,
    "🔢": 8349,
    "🔣": 8350,
    "🔤": 8351,
    "🔥": 8352,
    "🔦": 8353,
    "🔧": 8354,
    "🔨": 8355,
    "🔩": 8356,
    "🔪": 8357,
    "🔫": 8358,
    "🔬": 8359,
    "🔭": 8360,
    "🔮": 8361,
    "🔯": 8362,
    "🔰": 8363,
    "🔱": 8364,
    "🔲": 8365,
    "🔳": 8366,
    "🔴": 8367,
    "🔵": 8368,
    "🔶": 8369,
    "🔷": 8370,
    "🔸": 8371,
    "🔹": 8372,
    "🔺": 8373,
    "🔻": 8374,
    "🔼": 8375,
    "🔽": 8376,
    "🕉": 8377,
    "🕊": 8378,
    "🕋": 8379,
    "🕌": 8380,
    "🕍": 8381,
    "🕎": 8382,
    "🕐": 8383,
    "🕑": 8384,
    "🕒": 8385,
    "🕓": 8386,
    "🕔": 8387,
    "🕕": 8388,
    "🕖": 8389,
    "🕗": 8390,
    "🕘": 8391,
    "🕙": 8392,
    "🕚": 8393,
    "🕛": 8394,
    "🕜": 8395,
    "🕝": 8396,
    "🕞": 8397,
    "🕟": 8398,
    "🕡": 8399,
    "🕢": 8400,
    "🕣": 8401,
    "🕤": 8402,
    "🕥": 8403,
    "🕦": 8404,
    "🕧": 8405,
    "🕯": 8406,
    "🕰": 8407,
    "🕳": 8408,
    "🕴": 8409,
    "🕵": 8410,
    "🕶": 8411,
    "🕷": 8412,
    "🕸": 8413,
    "🕹": 8414,
    "🕺": 8415,
    "🖇": 8416,
    "🖊": 8417,
    "🖋": 8418,
    "🖌": 8419,
    "🖍": 8420,
    "🖐": 8421,
    "🖖": 8422,
    "🖤": 8423,
    "🖥": 8424,
    "🖧": 8425,
    "🖨": 8426,
    "🖮": 8427,
    "🖱": 8428,
    "🖼": 8429,
    "🗂": 8430,
    "🗃": 8431,
    "🗄": 8432,
    "🗑": 8433,
    "🗒": 8434,
    "🗓": 8435,
    "🗙": 8436,
    "🗜": 8437,
    "🗝": 8438,
    "🗞": 8439,
    "🗡": 8440,
    "🗣": 8441,
    "🗨": 8442,
    "🗯": 8443,
    "🗳": 8444,
    "🗺": 8445,
    "🗻": 8446,
    "🗼": 8447,
    "🗽": 8448,
    "🗾": 8449,
    "🗿": 8450,
    "😀": 8451,
    "😁": 8452,
    "😂": 8453,
    "😃": 8454,
    "😄": 8455,
    "😅": 8456,
    "😇": 8457,
    "😈": 8458,
    "😉": 8459,
    "😊": 8460,
    "😋": 8461,
    "😌": 8462,
    "😍": 8463,
    "😎": 8464,
    "😏": 8465,
    "😐": 8466,
    "😑": 8467,
    "😒": 8468,
    "😓": 8469,
    "😔": 8470,
    "😕": 8471,
    "😖": 8472,
    "😘": 8473,
    "😛": 8474,
    "😜": 8475,
    "😝": 8476,
    "😞": 8477,
    "😟": 8478,
    "😠": 8479,
    "😡": 8480,
    "😢": 8481,
    "😣": 8482,
    "😤": 8483,
    "😥": 8484,
    "😨": 8485,
    "😩": 8486,
    "😫": 8487,
    "😬": 8488,
    "😭": 8489,
    "😮": 8490,
    "😰": 8491,
    "😱": 8492,
    "😲": 8493,
    "😳": 8494,
    "😴": 8495,
    "😵": 8496,
    "😶": 8497,
    "😷": 8498,
    "😹": 8499,
    "😺": 8500,
    "😻": 8501,
    "😼": 8502,
    "😽": 8503,
    "😿": 8504,
    "🙁": 8505,
    "🙂": 8506,
    "🙃": 8507,
    "🙄": 8508,
    "🙅": 8509,
    "🙇": 8510,
    "🙈": 8511,
    "🙉": 8512,
    "🙊": 8513,
    "🙋": 8514,
    "🙌": 8515,
    "🙍": 8516,
    "🙎": 8517,
    "🙏": 8518,
    "🚀": 8519,
    "🚁": 8520,
    "🚂": 8521,
    "🚃": 8522,
    "🚄": 8523,
    "🚅": 8524,
    "🚆": 8525,
    "🚇": 8526,
    "🚈": 8527,
    "🚉": 8528,
    "🚊": 8529,
    "🚋": 8530,
    "🚌": 8531,
    "🚍": 8532,
    "🚏": 8533,
    "🚐": 8534,
    "🚑": 8535,
    "🚒": 8536,
    "🚓": 8537,
    "🚔": 8538,
    "🚕": 8539,
    "🚖": 8540,
    "🚗": 8541,
    "🚘": 8542,
    "🚙": 8543,
    "🚚": 8544,
    "🚛": 8545,
    "🚜": 8546,
    "🚝": 8547,
    "🚞": 8548,
    "🚠": 8549,
    "🚡": 8550,
    "🚢": 8551,
    "🚣": 8552,
    "🚤": 8553,
    "🚥": 8554,
    "🚦": 8555,
    "🚧": 8556,
    "🚨": 8557,
    "🚩": 8558,
    "🚪": 8559,
    "🚫": 8560,
    "🚬": 8561,
    "🚭": 8562,
    "🚮": 8563,
    "🚰": 8564,
    "🚱": 8565,
    "🚲": 8566,
    "🚴": 8567,
    "🚵": 8568,
    "🚶": 8569,
    "🚷": 8570,
    "🚸": 8571,
    "🚹": 8572,
    "🚺": 8573,
    "🚻": 8574,
    "🚼": 8575,
    "🚽": 8576,
    "🚿": 8577,
    "🛀": 8578,
    "🛁": 8579,
    "🛂": 8580,
    "🛄": 8581,
    "🛋": 8582,
    "🛌": 8583,
    "🛍": 8584,
    "🛎": 8585,
    "🛏": 8586,
    "🛐": 8587,
    "🛑": 8588,
    "🛒": 8589,
    "🛕": 8590,
    "🛖": 8591,
    "🛗": 8592,
    "🛜": 8593,
    "🛝": 8594,
    "🛞": 8595,
    "🛟": 8596,
    "🛠": 8597,
    "🛡": 8598,
    "🛢": 8599,
    "🛣": 8600,
    "🛤": 8601,
    "🛥": 8602,
    "🛩": 8603,
    "🛫": 8604,
    "🛬": 8605,
    "🛰": 8606,
    "🛳": 8607,
    "🛴": 8608,
    "🛵": 8609,
    "🛶": 8610,
    "🛷": 8611,
    "🛸": 8612,
    "🛹": 8613,
    "🛺": 8614,
    "🛻": 8615,
    "🛼": 8616,
    "🜨": 8617,
    "🟠": 8618,
    "🟡": 8619,
    "🟢": 8620,
    "🟣": 8621,
    "🟤": 8622,
    "🟥": 8623,
    "🟦": 8624,
    "🟧": 8625,
    "🟨": 8626,
    "🟩": 8627,
    "🟫": 8628,
    "🟰": 8629,
    "🡺": 8630,
    "🤌": 8631,
    "🤍": 8632,
    "🤎": 8633,
    "🤏": 8634,
    "🤐": 8635,
    "🤑": 8636,
    "🤒": 8637,
    "🤓": 8638,
    "🤔": 8639,
    "🤕": 8640,
    "🤖": 8641,
    "🤗": 8642,
    "🤘": 8643,
    "🤙": 8644,
    "🤚": 8645,
    "🤛": 8646,
    "🤜": 8647,
    "🤝": 8648,
    "🤞": 8649,
    "🤟": 8650,
    "🤠": 8651,
    "🤡": 8652,
    "🤢": 8653,
    "🤣": 8654,
    "🤤": 8655,
    "🤥": 8656,
    "🤦": 8657,
    "🤧": 8658,
    "🤨": 8659,
    "🤩": 8660,
    "🤪": 8661,
    "🤫": 8662,
    "🤬": 8663,
    "🤮": 8664,
    "🤯": 8665,
    "🤰": 8666,
    "🤱": 8667,
    "🤲": 8668,
    "🤳": 8669,
    "🤴": 8670,
    "🤵": 8671,
    "🤶": 8672,
    "🤷": 8673,
    "🤸": 8674,
    "🤹": 8675,
    "🤺": 8676,
    "🤼": 8677,
    "🤽": 8678,
    "🤾": 8679,
    "🤿": 8680,
    "🥀": 8681,
    "🥁": 8682,
    "🥂": 8683,
    "🥃": 8684,
    "🥄": 8685,
    "🥅": 8686,
    "🥇": 8687,
    "🥈": 8688,
    "🥉": 8689,
    "🥊": 8690,
    "🥋": 8691,
    "🥌": 8692,
    "🥍": 8693,
    "🥎": 8694,
    "🥏": 8695,
    "🥐": 8696,
    "🥑": 8697,
    "🥒": 8698,
    "🥓": 8699,
    "🥔": 8700,
    "🥕": 8701,
    "🥖": 8702,
    "🥗": 8703,
    "🥘": 8704,
    "🥙": 8705,
    "🥚": 8706,
    "🥛": 8707,
    "🥜": 8708,
    "🥝": 8709,
    "🥞": 8710,
    "🥟": 8711,
    "🥡": 8712,
    "🥢": 8713,
    "🥣": 8714,
    "🥤": 8715,
    "🥥": 8716,
    "🥦": 8717,
    "🥧": 8718,
    "🥨": 8719,
    "🥩": 8720,
    "🥪": 8721,
    "🥫": 8722,
    "🥬": 8723,
    "🥭": 8724,
    "🥰": 8725,
    "🥱": 8726,
    "🥲": 8727,
    "🥳": 8728,
    "🥴": 8729,
    "🥵": 8730,
    "🥶": 8731,
    "🥷": 8732,
    "🥹": 8733,
    "🥺": 8734,
    "🥽": 8735,
    "🥾": 8736,
    "🦀": 8737,
    "🦁": 8738,
    "🦂": 8739,
    "🦃": 8740,
    "🦄": 8741,
    "🦅": 8742,
    "🦆": 8743,
    "🦇": 8744,
    "🦈": 8745,
    "🦉": 8746,
    "🦊": 8747,
    "🦋": 8748,
    "🦌": 8749,
    "🦍": 8750,
    "🦎": 8751,
    "🦏": 8752,
    "🦐": 8753,
    "🦑": 8754,
    "🦒": 8755,
    "🦓": 8756,
    "🦔": 8757,
    "🦕": 8758,
    "🦖": 8759,
    "🦗": 8760,
    "🦘": 8761,
    "🦙": 8762,
    "🦚": 8763,
    "🦛": 8764,
    "🦜": 8765,
    "🦝": 8766,
    "🦞": 8767,
    "🦟": 8768,
    "🦠": 8769,
    "🦡": 8770,
    "🦢": 8771,
    "🦣": 8772,
    "🦥": 8773,
    "🦦": 8774,
    "🦧": 8775,
    "🦨": 8776,
    "🦩": 8777,
    "🦪": 8778,
    "🦫": 8779,
    "🦬": 8780,
    "🦭": 8781,
    "🦯": 8782,
    "🦰": 8783,
    "🦱": 8784,
    "🦲": 8785,
    "🦳": 8786,
    "🦴": 8787,
    "🦵": 8788,
    "🦶": 8789,
    "🦷": 8790,
    "🦸": 8791,
    "🦹": 8792,
    "🦺": 8793,
    "🦻": 8794,
    "🦼": 8795,
    "🦽": 8796,
    "🦾": 8797,
    "🧀": 8798,
    "🧁": 8799,
    "🧂": 8800,
    "🧃": 8801,
    "🧄": 8802,
    "🧅": 8803,
    "🧇": 8804,
    "🧈": 8805,
    "🧉": 8806,
    "🧊": 8807,
    "🧌": 8808,
    "🧍": 8809,
    "🧎": 8810,
    "🧏": 8811,
    "🧐": 8812,
    "🧑": 8813,
    "🧒": 8814,
    "🧓": 8815,
    "🧔": 8816,
    "🧕": 8817,
    "🧖": 8818,
    "🧗": 8819,
    "🧘": 8820,
    "🧙": 8821,
    "🧚": 8822,
    "🧛": 8823,
    "🧜": 8824,
    "🧝": 8825,
    "🧞": 8826,
    "🧟": 8827,
    "🧠": 8828,
    "🧡": 8829,
    "🧢": 8830,
    "🧣": 8831,
    "🧤": 8832,
    "🧥": 8833,
    "🧦": 8834,
    "🧧": 8835,
    "🧨": 8836,
    "🧩": 8837,
    "🧪": 8838,
    "🧫": 8839,
    "🧬": 8840,
    "🧭": 8841,
    "🧮": 8842,
    "🧯": 8843,
    "🧰": 8844,
    "🧱": 8845,
    "🧲": 8846,
    "🧳": 8847,
    "🧴": 8848,
    "🧵": 8849,
    "🧶": 8850,
    "🧷": 8851,
    "🧸": 8852,
    "🧹": 8853,
    "🧺": 8854,
    "🧻": 8855,
    "🧼": 8856,
    "🧽": 8857,
    "🧾": 8858,
    "🧿": 8859,
    "🩰": 8860,
    "🩱": 8861,
    "🩲": 8862,
    "🩳": 8863,
    "🩴": 8864,
    "🩶": 8865,
    "🩷": 8866,
    "🩸": 8867,
    "🩹": 8868,
    "🩺": 8869,
    "🩻": 8870,
    "🪀": 8871,
    "🪁": 8872,
    "🪂": 8873,
    "🪃": 8874,
    "🪄": 8875,
    "🪅": 8876,
    "🪆": 8877,
    "🪇": 8878,
    "🪈": 8879,
    "🪐": 8880,
    "🪑": 8881,
    "🪓": 8882,
    "🪔": 8883,
    "🪕": 8884,
    "🪖": 8885,
    "🪗": 8886,
    "🪘": 8887,
    "🪙": 8888,
    "🪚": 8889,
    "🪛": 8890,
    "🪜": 8891,
    "🪝": 8892,
    "🪞": 8893,
    "🪟": 8894,
    "🪠": 8895,
    "🪡": 8896,
    "🪢": 8897,
    "🪣": 8898,
    "🪤": 8899,
    "🪥": 8900,
    "🪦": 8901,
    "🪧": 8902,
    "🪨": 8903,
    "🪩": 8904,
    "🪪": 8905,
    "🪫": 8906,
    "🪬": 8907,
    "🪰": 8908,
    "🪱": 8909,
    "🪲": 8910,
    "🪳": 8911,
    "🪴": 8912,
    "🪵": 8913,
    "🪶": 8914,
    "🪷": 8915,
    "🪸": 8916,
    "🪺": 8917,
    "🪽": 8918,
    "🫀": 8919,
    "🫁": 8920,
    "🫂": 8921,
    "🫅": 8922,
    "🫏": 8923,
    "🫐": 8924,
    "🫒": 8925,
    "🫓": 8926,
    "🫖": 8927,
    "🫘": 8928,
    "🫙": 8929,
    "🫚": 8930,
    "🫛": 8931,
    "🫠": 8932,
    "🫡": 8933,
    "🫣": 8934,
    "🫥": 8935,
    "🫦": 8936,
    "🫧": 8937,
    "🫨": 8938,
    "🫱": 8939,
    "🫵": 8940,
    "🫶": 8941,
    "𠄩": 8942,
    "𧹼": 8943,
    "𨑮": 8944,
    " d": 8945,
    "es": 8946,
    " l": 8947,
    "en": 8948,
    "on": 8949,
    " de": 8950,
    "an": 8951,
    " p": 8952,
    "re": 8953,
    " s": 8954,
    "ti": 8955,
    " c": 8956,
    "er": 8957,
    "is": 8958,
    " a": 8959,
    "ou": 8960,
    "in": 8961,
    "ar": 8962,
    "qu": 8963,
    "le": 8964,
    "et": 8965,
    "it": 8966,
    "ent": 8967,
    " la": 8968,
    "or": 8969,
    " m": 8970,
    "ur": 8971,
    "un": 8972,
    "te": 8973,
    "il": 8974,
    " et": 8975,
    " L": 8976,
    " le": 8977,
    "tion": 8978,
    "al": 8979,
    "om": 8980,
    " f": 8981,
    " 1": 8982,
    " en": 8983,
    "ra": 8984,
    " à": 8985,
    " C": 8986,
    " t": 8987,
    "el": 8988,
    " (": 8989,
    "ri": 8990,
    "ré": 8991,
    " un": 8992,
    " des": 8993,
    "us": 8994,
    "que": 8995,
    " n": 8996,
    "our": 8997,
    " S": 8998,
    "est": 8999,
    "ant": 9000,
    " du": 9001,
    "ment": 9002,
    "ro": 9003,
    " P": 9004,
    " M": 9005,
    "ie": 9006,
    "ch": 9007,
    "ce": 9008,
    " 2": 9009,
    "ta": 9010,
    " les": 9011,
    " é": 9012,
    " v": 9013,
    "ans": 9014,
    " par": 9015,
    "au": 9016,
    "as": 9017,
    " A": 9018,
    "ol": 9019,
    " au": 9020,
    "ne": 9021,
    "me": 9022,
    " est": 9023,
    " B": 9024,
    "ve": 9025,
    " qu": 9026,
    "ation": 9027,
    " b": 9028,
    "at": 9029,
    " D": 9030,
    "ont": 9031,
    "se": 9032,
    "res": 9033,
    "si": 9034,
    " 19": 9035,
    "ci": 9036,
    " R": 9037,
    "de": 9038,
    " 20": 9039,
    "ée": 9040,
    " g": 9041,
    " com": 9042,
    " dé": 9043,
    "té": 9044,
    "ai": 9045,
    " re": 9046,
    "li": 9047,
    "ag": 9048,
    " T": 9049,
    " E": 9050,
    " dans": 9051,
    "ais": 9052,
    " I": 9053,
    " F": 9054,
    "oi": 9055,
    " j": 9056,
    "mp": 9057,
    " G": 9058,
    " con": 9059,
    " ré": 9060,
    " une": 9061,
    "ran": 9062,
    "di": 9063,
    " pour": 9064,
    " se": 9065,
    " in": 9066,
    " N": 9067,
    "ers": 9068,
    " ch": 9069,
    "ul": 9070,
    " *": 9071,
    " pl": 9072,
    "os": 9073,
    " e": 9074,
    "am": 9075,
    " sur": 9076,
    "ain": 9077,
    " Le": 9078,
    " J": 9079,
    " o": 9080,
    "les": 9081,
    "elle": 9082,
    " H": 9083,
    "ac": 9084,
    "ale": 9085,
    "ité": 9086,
    "ig": 9087,
    "ot": 9088,
    "tu": 9089,
    " pro": 9090,
    "ic": 9091,
    "ux": 9092,
    "ère": 9093,
    "ter": 9094,
    "ait": 9095,
    " qui": 9096,
    " h": 9097,
    "pe": 9098,
    "ille": 9099,
    "ff": 9100,
    "og": 9101,
    "ab": 9102,
    " r": 9103,
    " V": 9104,
    "ut": 9105,
    "--": 9106,
    "vi": 9107,
    " il": 9108,
    "ist": 9109,
    " que": 9110,
    "urs": 9111,
    "ces": 9112,
    "vec": 9113,
    "né": 9114,
    " La": 9115,
    "pp": 9116,
    "ouv": 9117,
    "bre": 9118,
    "end": 9119,
    "tre": 9120,
    "and": 9121,
    "ge": 9122,
    "mi": 9123,
    "ue": 9124,
    "ite": 9125,
    "ques": 9126,
    "ph": 9127,
    "ion": 9128,
    "ort": 9129,
    " avec": 9130,
    "ui": 9131,
    "ès": 9132,
    "ique": 9133,
    " plus": 9134,
    " 201": 9135,
    " son": 9136,
    " Il": 9137,
    "ine": 9138,
    "ous": 9139,
    "éri": 9140,
    "une": 9141,
    "ction": 9142,
    "ien": 9143,
    "aire": 9144,
    "),": 9145,
    "ons": 9146,
    "és": 9147,
    " di": 9148,
    " »": 9149,
    "ois": 9150,
    " ex": 9151,
    " «": 9152,
    " Ch": 9153,
    "ér": 9154,
    "oc": 9155,
    " En": 9156,
    "ub": 9157,
    "pr": 9158,
    "00": 9159,
    " an": 9160,
    "ad": 9161,
    "la": 9162,
    " W": 9163,
    "age": 9164,
    "st": 9165,
    " K": 9166,
    "op": 9167,
    " comm": 9168,
    "ir": 9169,
    " O": 9170,
    "um": 9171,
    " sa": 9172,
    "im": 9173,
    " pr": 9174,
    " pré": 9175,
    " av": 9176,
    "ard": 9177,
    "che": 9178,
    " ou": 9179,
    "uis": 9180,
    " pas": 9181,
    ").": 9182,
    " 200": 9183,
    "ap": 9184,
    "onn": 9185,
    " pe": 9186,
    "##": 9187,
    "ill": 9188,
    "ure": 9189,
    "aux": 9190,
    "ord": 9191,
    " Les": 9192,
    "ors": 9193,
    " sont": 9194,
    " parti": 9195,
    "ts": 9196,
    " su": 9197,
    " 18": 9198,
    "ond": 9199,
    "ette": 9200,
    "ni": 9201,
    " tr": 9202,
    "ay": 9203,
    " U": 9204,
    " 3": 9205,
    "he": 9206,
    " ce": 9207,
    "tique": 9208,
    "lle": 9209,
    "oir": 9210,
    "entre": 9211,
    " :": 9212,
    "iè": 9213,
    " aux": 9214,
    " ar": 9215,
    "ct": 9216,
    "ise": 9217,
    " comp": 9218,
    "ence": 9219,
    "nes": 9220,
    "**": 9221,
    " nom": 9222,
    " tra": 9223,
    "teur": 9224,
    " ra": 9225,
    "ins": 9226,
    "lé": 9227,
    "remi": 9228,
    " **": 9229,
    " mo": 9230,
    "ing": 9231,
    "oire": 9232,
    "du": 9233,
    " mar": 9234,
    " Par": 9235,
    " ne": 9236,
    "iste": 9237,
    "orm": 9238,
    " été": 9239,
    "tes": 9240,
    "tin": 9241,
    "ées": 9242,
    "iv": 9243,
    "ance": 9244,
    "av": 9245,
    "ru": 9246,
    "ens": 9247,
    "mbre": 9248,
    " éta": 9249,
    "id": 9250,
    "19": 9251,
    " te": 9252,
    " comme": 9253,
    " deux": 9254,
    " ses": 9255,
    " al": 9256,
    "mb": 9257,
    " ##": 9258,
    " Fran": 9259,
    " É": 9260,
    " premi": 9261,
    " 199": 9262,
    "----": 9263,
    " ac": 9264,
    "ations": 9265,
    "tres": 9266,
    "ib": 9267,
    "mes": 9268,
    " Mar": 9269,
    "raph": 9270,
    "all": 9271,
    "ier": 9272,
    "ob": 9273,
    " tou": 9274,
    " mon": 9275,
    " cont": 9276,
    "ences": 9277,
    "tif": 9278,
    "éc": 9279,
    "ants": 9280,
    "..": 9281,
    "ture": 9282,
    "éd": 9283,
    "par": 9284,
    " mais": 9285,
    "ours": 9286,
    "imp": 9287,
    "ém": 9288,
    "erm": 9289,
    " An": 9290,
    "sion": 9291,
    " no": 9292,
    "amp": 9293,
    " 4": 9294,
    "sent": 9295,
    "ég": 9296,
    "ograph": 9297,
    "cle": 9298,
    "près": 9299,
    "oy": 9300,
    " app": 9301,
    "ang": 9302,
    "rit": 9303,
    "ments": 9304,
    "cip": 9305,
    "fér": 9306,
    "rou": 9307,
    " 202": 9308,
    " -": 9309,
    " déc": 9310,
    " entre": 9311,
    "tions": 9312,
    " |": 9313,
    "lis": 9314,
    "ert": 9315,
    "oci": 9316,
    "ess": 9317,
    "ron": 9318,
    "co": 9319,
    "ass": 9320,
    "ec": 9321,
    "alement": 9322,
    " fran": 9323,
    "ace": 9324,
    " cl": 9325,
    "od": 9326,
    "ss": 9327,
    "ubli": 9328,
    " Ar": 9329,
    " 5": 9330,
    "olog": 9331,
    " dis": 9332,
    "tiv": 9333,
    "th": 9334,
    " elle": 9335,
    " gé": 9336,
    " cons": 9337,
    "alis": 9338,
    " fait": 9339,
    " car": 9340,
    " Je": 9341,
    " ju": 9342,
    "eur": 9343,
    "ême": 9344,
    " De": 9345,
    "oit": 9346,
    "nées": 9347,
    "çais": 9348,
    "ov": 9349,
    "ong": 9350,
    "rand": 9351,
    "aint": 9352,
    " fin": 9353,
    "ex": 9354,
    "ussi": 9355,
    " ser": 9356,
    "pé": 9357,
    "ales": 9358,
    " cette": 9359,
    "én": 9360,
    " je": 9361,
    "ire": 9362,
    "oin": 9363,
    "aires": 9364,
    "rois": 9365,
    " 198": 9366,
    "ici": 9367,
    "ati": 9368,
    "aine": 9369,
    "ante": 9370,
    " lui": 9371,
    "iens": 9372,
    "férences": 9373,
    "être": 9374,
    " Al": 9375,
    "elles": 9376,
    "enne": 9377,
    " rég": 9378,
    "ate": 9379,
    " for": 9380,
    " or": 9381,
    " ont": 9382,
    " français": 9383,
    " \"": 9384,
    "ouve": 9385,
    "vers": 9386,
    " In": 9387,
    " Elle": 9388,
    "igne": 9389,
    " ég": 9390,
    " sous": 9391,
    " inter": 9392,
    " ter": 9393,
    " X": 9394,
    "em": 9395,
    "able": 9396,
    "alité": 9397,
    " col": 9398,
    "po": 9399,
    " fil": 9400,
    "itu": 9401,
    "uti": 9402,
    "oli": 9403,
    "onne": 9404,
    " aussi": 9405,
    "use": 9406,
    " France": 9407,
    " me": 9408,
    "ographie": 9409,
    "tis": 9410,
    "ouver": 9411,
    "tra": 9412,
    "ia": 9413,
    "omm": 9414,
    " am": 9415,
    " 197": 9416,
    "év": 9417,
    "iss": 9418,
    " 6": 9419,
    " ti": 9420,
    "uer": 9421,
    "cu": 9422,
    " était": 9423,
    " mé": 9424,
    "ven": 9425,
    " es": 9426,
    " éc": 9427,
    "sid": 9428,
    " 17": 9429,
    " siè": 9430,
    "ich": 9431,
    " 9": 9432,
    "20": 9433,
    "ten": 9434,
    "uv": 9435,
    " ma": 9436,
    "iques": 9437,
    "ann": 9438,
    " Not": 9439,
    "qui": 9440,
    "éra": 9441,
    " of": 9442,
    " y": 9443,
    " k": 9444,
    " leur": 9445,
    "ble": 9446,
    "ourn": 9447,
    "lan": 9448,
    " puis": 9449,
    " at": 9450,
    " Y": 9451,
    " rec": 9452,
    "endant": 9453,
    "18": 9454,
    " où": 9455,
    " mil": 9456,
    " imp": 9457,
    " géné": 9458,
    "titu": 9459,
    " fut": 9460,
    "are": 9461,
    " prin": 9462,
    "ari": 9463,
    "insi": 9464,
    " lors": 9465,
    " même": 9466,
    " également": 9467,
    "ères": 9468,
    " Q": 9469,
    " pers": 9470,
    "ris": 9471,
    " dont": 9472,
    "ak": 9473,
    " commun": 9474,
    "min": 9475,
    " publi": 9476,
    " Saint": 9477,
    "ton": 9478,
    "été": 9479,
    " 7": 9480,
    " che": 9481,
    "orta": 9482,
    " Paris": 9483,
    "lement": 9484,
    " exter": 9485,
    "erv": 9486,
    "️,": 9487,
    " Notes": 9488,
    " cou": 9489,
    " ob": 9490,
    "ath": 9491,
    " 196": 9492,
    "ieu": 9493,
    "ient": 9494,
    "orte": 9495,
    "lè": 9496,
    " Ré": 9497,
    "puis": 9498,
    "tive": 9499,
    "ral": 9500,
    "II": 9501,
    "lo": 9502,
    " commune": 9503,
    " %": 9504,
    " Re": 9505,
    "ode": 9506,
    "ud": 9507,
    "vis": 9508,
    " ad": 9509,
    "ata": 9510,
    "enti": 9511,
    " diff": 9512,
    "aient": 9513,
    " ro": 9514,
    " don": 9515,
    " »,": 9516,
    " né": 9517,
    "utilis": 9518,
    "riv": 9519,
    " 8": 9520,
    "if": 9521,
    " Ce": 9522,
    "man": 9523,
    " jus": 9524,
    " Liens": 9525,
    "ages": 9526,
    "ures": 9527,
    " Un": 9528,
    " min": 9529,
    " pos": 9530,
    " trois": 9531,
    "asse": 9532,
    " ph": 9533,
    " cré": 9534,
    " externes": 9535,
    "éta": 9536,
    "emp": 9537,
    "ges": 9538,
    "ays": 9539,
    "fin": 9540,
    "tri": 9541,
    " ainsi": 9542,
    " Car": 9543,
    " ans": 9544,
    " après": 9545,
    "érie": 9546,
    "ution": 9547,
    " sou": 9548,
    "cl": 9549,
    "istoire": 9550,
    "az": 9551,
    "tiques": 9552,
    "omp": 9553,
    "cher": 9554,
    "ents": 9555,
    " références": 9556,
    " nombre": 9557,
    " nation": 9558,
    " sec": 9559,
    "tant": 9560,
    " mus": 9561,
    "tic": 9562,
    " sy": 9563,
    "its": 9564,
    " 194": 9565,
    " temp": 9566,
    "aison": 9567,
    " der": 9568,
    " —": 9569,
    "--------": 9570,
    " rep": 9571,
    " jou": 9572,
    " être": 9573,
    "ampion": 9574,
    "form": 9575,
    "ern": 9576,
    "erg": 9577,
    " situ": 9578,
    " 16": 9579,
    "vier": 9580,
    " Jean": 9581,
    "tement": 9582,
    " premier": 9583,
    "eau": 9584,
    "des": 9585,
    "ole": 9586,
    " off": 9587,
    " res": 9588,
    "jet": 9589,
    "ieurs": 9590,
    "ix": 9591,
    " The": 9592,
    "ell": 9593,
    "ctions": 9594,
    "teurs": 9595,
    " perm": 9596,
    "ow": 9597,
    " contre": 9598,
    "hé": 9599,
    " 15": 9600,
    "ric": 9601,
    " sc": 9602,
    " alors": 9603,
    "roupe": 9604,
    "ense": 9605,
    "ines": 9606,
    " trans": 9607,
    " trav": 9608,
    "ign": 9609,
    "nement": 9610,
    " Au": 9611,
    " peut": 9612,
    "omme": 9613,
    " 10": 9614,
    "...": 9615,
    "ues": 9616,
    " Z": 9617,
    " siècle": 9618,
    " grand": 9619,
    "ase": 9620,
    "ième": 9621,
    "️.": 9622,
    " 195": 9623,
    " Jo": 9624,
    "app": 9625,
    "anis": 9626,
    " dép": 9627,
    " déb": 9628,
    "éric": 9629,
    " tout": 9630,
    " première": 9631,
    " ren": 9632,
    " ces": 9633,
    "stru": 9634,
    "tor": 9635,
    " exp": 9636,
    "els": 9637,
    " partie": 9638,
    "ente": 9639,
    " per": 9640,
    "gl": 9641,
    "ortail": 9642,
    " poli": 9643,
    " sep": 9644,
    " personn": 9645,
    "mé": 9646,
    "ies": 9647,
    " ann": 9648,
    " prop": 9649,
    "agn": 9650,
    "000": 9651,
    " À": 9652,
    " acc": 9653,
    " soci": 9654,
    "oû": 9655,
    "tats": 9656,
    " utilis": 9657,
    "mment": 9658,
    ",.": 9659,
    "cien": 9660,
    " ville": 9661,
    "ik": 9662,
    "ats": 9663,
    "ach": 9664,
    "rent": 9665,
    " Portail": 9666,
    "ry": 9667,
    " on": 9668,
    " vers": 9669,
    " man": 9670,
    " rela": 9671,
    " év": 9672,
    " ép": 9673,
    "elon": 9674,
    " princip": 9675,
    "ore": 9676,
    "pes": 9677,
    "istor": 9678,
    " Cl": 9679,
    "ème": 9680,
    " produ": 9681,
    " Con": 9682,
    "ités": 9683,
    "IS": 9684,
    " 🗓": 9685,
    " sans": 9686,
    " années": 9687,
    "uerre": 9688,
    " depuis": 9689,
    "élé": 9690,
    "omb": 9691,
    "oul": 9692,
    " présent": 9693,
    " plusieurs": 9694,
    " cour": 9695,
    "agne": 9696,
    " prof": 9697,
    " esp": 9698,
    " Pro": 9699,
    "erta": 9700,
    " 193": 9701,
    " dire": 9702,
    " Ne": 9703,
    "rière": 9704,
    " fam": 9705,
    " région": 9706,
    "tives": 9707,
    " cor": 9708,
    " ab": 9709,
    "illet": 9710,
    " jusqu": 9711,
    "esse": 9712,
    "anc": 9713,
    " ligne": 9714,
    "tit": 9715,
    "ép": 9716,
    "ieux": 9717,
    " remp": 9718,
    " conn": 9719,
    " eff": 9720,
    " sui": 9721,
    "ma": 9722,
    "ption": 9723,
    "ug": 9724,
    "aut": 9725,
    " ».": 9726,
    "art": 9727,
    "vel": 9728,
    "rib": 9729,
    " éle": 9730,
    " form": 9731,
    " cap": 9732,
    "ah": 9733,
    "rier": 9734,
    "Un": 9735,
    " Qu": 9736,
    "aî": 9737,
    "erie": 9738,
    " 📅": 9739,
    " Dans": 9740,
    "ateur": 9741,
    "anvier": 9742,
    "ête": 9743,
    " avait": 9744,
    " derni": 9745,
    " bien": 9746,
    "illes": 9747,
    " avant": 9748,
    "vant": 9749,
    "dition": 9750,
    " rés": 9751,
    "ellement": 9752,
    " vol": 9753,
    "one": 9754,
    "out": 9755,
    "int": 9756,
    " groupe": 9757,
    " the": 9758,
    " conf": 9759,
    "rée": 9760,
    "ver": 9761,
    "lig": 9762,
    " po": 9763,
    "ili": 9764,
    " janvier": 9765,
    " ri": 9766,
    " 12": 9767,
    " mai": 9768,
    " permet": 9769,
    " mort": 9770,
    "opul": 9771,
    "ade": 9772,
    "ène": 9773,
    " sol": 9774,
    " nouv": 9775,
    "port": 9776,
    " cin": 9777,
    "mar": 9778,
    " ass": 9779,
    " Cette": 9780,
    " Th": 9781,
    " nota": 9782,
    "nation": 9783,
    "atri": 9784,
    "arti": 9785,
    "oût": 9786,
    "ind": 9787,
    "lu": 9788,
    "résent": 9789,
    " ret": 9790,
    "ril": 9791,
    " monde": 9792,
    "tel": 9793,
    " fois": 9794,
    " film": 9795,
    "An": 9796,
    "cc": 9797,
    "ils": 9798,
    " long": 9799,
    " 14": 9800,
    "enn": 9801,
    " sta": 9802,
    "onde": 9803,
    "ok": 9804,
    " pays": 9805,
    " rou": 9806,
    " ent": 9807,
    " ###": 9808,
    "ches": 9809,
    "vient": 9810,
    "quipe": 9811,
    "aille": 9812,
    " Sh": 9813,
    " Une": 9814,
    " très": 9815,
    "essour": 9816,
    " fond": 9817,
    "up": 9818,
    "obre": 9819,
    "uss": 9820,
    "rer": 9821,
    "tés": 9822,
    "cembre": 9823,
    " conc": 9824,
    " hab": 9825,
    "tembre": 9826,
    "cons": 9827,
    " juin": 9828,
    " sé": 9829,
    "ologie": 9830,
    "yn": 9831,
    " réalis": 9832,
    " Ressour": 9833,
    "ze": 9834,
    "rande": 9835,
    "endre": 9836,
    " juillet": 9837,
    "ration": 9838,
    "rie": 9839,
    "su": 9840,
    "rig": 9841,
    "nex": 9842,
    " mars": 9843,
    " st": 9844,
    "17": 9845,
    " Ph": 9846,
    " mod": 9847,
    "ierre": 9848,
    " 13": 9849,
    "ler": 9850,
    " Des": 9851,
    "ôle": 9852,
    " décembre": 9853,
    "ive": 9854,
    "ature": 9855,
    " popul": 9856,
    " oct": 9857,
    " septembre": 9858,
    " vie": 9859,
    " Bi": 9860,
    "core": 9861,
    " mat": 9862,
    "ame": 9863,
    " cel": 9864,
    " Se": 9865,
    " rép": 9866,
    " temps": 9867,
    " nouve": 9868,
    "ide": 9869,
    "vembre": 9870,
    " pass": 9871,
    "sition": 9872,
    " dépar": 9873,
    "):": 9874,
    " poin": 9875,
    "mée": 9876,
    " fem": 9877,
    "aul": 9878,
    "BN": 9879,
    "amb": 9880,
    " dro": 9881,
    "mand": 9882,
    "fic": 9883,
    "land": 9884,
    " place": 9885,
    " St": 9886,
    " novembre": 9887,
    " notamment": 9888,
    " Char": 9889,
    " améric": 9890,
    " octobre": 9891,
    " quel": 9892,
    " offici": 9893,
    "gn": 9894,
    "ice": 9895,
    "rés": 9896,
    " fon": 9897,
    " si": 9898,
    " {": 9899,
    "lex": 9900,
    " 000": 9901,
    "rix": 9902,
    " ins": 9903,
    "In": 9904,
    "aur": 9905,
    "ission": 9906,
    "tat": 9907,
    "oph": 9908,
    " leurs": 9909,
    "uc": 9910,
    "ball": 9911,
    "ISBN": 9912,
    "tro": 9913,
    " Pour": 9914,
    "cri": 9915,
    " 11": 9916,
    " famille": 9917,
    " représent": 9918,
    " Me": 9919,
    "ps": 9920,
    " aff": 9921,
    "ae": 9922,
    " tous": 9923,
    "avi": 9924,
    " char": 9925,
    " avril": 9926,
    " ver": 9927,
    " vis": 9928,
    " déf": 9929,
    "ampionn": 9930,
    "oot": 9931,
    "ganis": 9932,
    " z": 9933,
    " certa": 9934,
    "orti": 9935,
    "ains": 9936,
    "mer": 9937,
    " différ": 9938,
    "lic": 9939,
    "ulture": 9940,
    "ome": 9941,
    "ché": 9942,
    "tég": 9943,
    " can": 9944,
    "Ar": 9945,
    "ulté": 9946,
    " constru": 9947,
    " autres": 9948,
    " loc": 9949,
    "ivers": 9950,
    " Son": 9951,
    "to": 9952,
    "alle": 9953,
    "ane": 9954,
    " On": 9955,
    "évrier": 9956,
    "antes": 9957,
    " faire": 9958,
    " août": 9959,
    "atre": 9960,
    " 0": 9961,
    " avoir": 9962,
    "uit": 9963,
    " mal": 9964,
    " États": 9965,
    " dével": 9966,
    "iti": 9967,
    " politique": 9968,
    "aiss": 9969,
    "ke": 9970,
    " Col": 9971,
    " km": 9972,
    " dom": 9973,
    " tour": 9974,
    "uel": 9975,
    "viron": 9976,
    "uses": 9977,
    "cul": 9978,
    " dou": 9979,
    "gne": 9980,
    "10": 9981,
    " péri": 9982,
    "78": 9983,
    " rapp": 9984,
    " février": 9985,
    "olution": 9986,
    " 192": 9987,
    "istes": 9988,
    "œuv": 9989,
    "mble": 9990,
    " non": 9991,
    "vin": 9992,
    "péci": 9993,
    " saison": 9994,
    "ose": 9995,
    "ule": 9996,
    " étu": 9997,
    " cours": 9998,
    " encore": 9999,
    " moins": 10000,
    "lus": 10001,
    " série": 10002,
    " lég": 10003,
    " Mon": 10004,
    " as": 10005,
    "ys": 10006,
    "vision": 10007,
    "16": 10008,
    " co": 10009,
    "ves": 10010,
    "lier": 10011,
    "ourg": 10012,
    " présid": 10013,
    " –": 10014,
    " and": 10015,
    " général": 10016,
    "cess": 10017,
    " Mus": 10018,
    "ande": 10019,
    " gouver": 10020,
    "per": 10021,
    "hn": 10022,
    " habit": 10023,
    "lie": 10024,
    "ites": 10025,
    "io": 10026,
    " française": 10027,
    "15": 10028,
    " préc": 10029,
    "pec": 10030,
    "ital": 10031,
    "be": 10032,
    " Gu": 10033,
    "dic": 10034,
    "ail": 10035,
    " Après": 10036,
    "éb": 10037,
    "ax": 10038,
    " début": 10039,
    "ouis": 10040,
    "aï": 10041,
    " spéci": 10042,
    "Unis": 10043,
    "voir": 10044,
    "ienne": 10045,
    "ètres": 10046,
    "éro": 10047,
    "ls": 10048,
    " bas": 10049,
    " ag": 10050,
    " tech": 10051,
    "ki": 10052,
    " suite": 10053,
    "nexes": 10054,
    " sud": 10055,
    "ress": 10056,
    "aque": 10057,
    " Bar": 10058,
    "ibli": 10059,
    "ditions": 10060,
    " lieu": 10061,
    " fr": 10062,
    "yle": 10063,
    "cont": 10064,
    " nouveau": 10065,
    " 🔹": 10066,
    " 2015": 10067,
    "14": 10068,
    " li": 10069,
    " titre": 10070,
    "eu": 10071,
    "ram": 10072,
    " cent": 10073,
    " cô": 10074,
    " soit": 10075,
    "ouvent": 10076,
    "bum": 10077,
    " Ge": 10078,
    "ticles": 10079,
    "itaire": 10080,
    " guerre": 10081,
    " rom": 10082,
    " 2010": 10083,
    " nord": 10084,
    " partir": 10085,
    " public": 10086,
    " rest": 10087,
    "cid": 10088,
    "éné": 10089,
    "assi": 10090,
    "cé": 10091,
    " télé": 10092,
    "onom": 10093,
    "rê": 10094,
    " internation": 10095,
    "sement": 10096,
    "lection": 10097,
    " peu": 10098,
    "uni": 10099,
    "ast": 10100,
    " men": 10101,
    "lise": 10102,
    "lin": 10103,
    " fa": 10104,
    "12": 10105,
    " dém": 10106,
    "ori": 10107,
    "autres": 10108,
    " im": 10109,
    " fer": 10110,
    "aines": 10111,
    " [": 10112,
    "ances": 10113,
    " import": 10114,
    "seau": 10115,
    "pl": 10116,
    " sorti": 10117,
    " grande": 10118,
    " compos": 10119,
    " moy": 10120,
    " selon": 10121,
    " emp": 10122,
    " dur": 10123,
    " port": 10124,
    "Le": 10125,
    " pouv": 10126,
    " compr": 10127,
    " Voir": 10128,
    "acc": 10129,
    " mont": 10130,
    " Mont": 10131,
    " Jac": 10132,
    " ils": 10133,
    " club": 10134,
    "ras": 10135,
    "Al": 10136,
    "200": 10137,
    "uro": 10138,
    "tal": 10139,
    "adi": 10140,
    " pendant": 10141,
    " thé": 10142,
    "éré": 10143,
    " dist": 10144,
    "rain": 10145,
    "ret": 10146,
    "ison": 10147,
    " quatre": 10148,
    " territ": 10149,
    " Cor": 10150,
    " Cou": 10151,
    " orig": 10152,
    " inf": 10153,
    "oth": 10154,
    "enant": 10155,
    "je": 10156,
    "âte": 10157,
    " 2018": 10158,
    " Liste": 10159,
    "bles": 10160,
    " histor": 10161,
    " Références": 10162,
    " vill": 10163,
    " 2014": 10164,
    "13": 10165,
    " département": 10166,
    "aise": 10167,
    "ian": 10168,
    " site": 10169,
    " ty": 10170,
    " &": 10171,
    "cou": 10172,
    "vice": 10173,
    " w": 10174,
    " aut": 10175,
    "ile": 10176,
    "cteur": 10177,
    "rait": 10178,
    " devient": 10179,
    "ises": 10180,
    "cture": 10181,
    "suite": 10182,
    " 2013": 10183,
    " 2020": 10184,
    "ilité": 10185,
    "rale": 10186,
    "entes": 10187,
    "sions": 10188,
    " Mich": 10189,
    " 2011": 10190,
    "mo": 10191,
    " enf": 10192,
    "illi": 10193,
    "oix": 10194,
    "vent": 10195,
    "ération": 10196,
    " 2016": 10197,
    "iel": 10198,
    "rop": 10199,
    " liv": 10200,
    "aill": 10201,
    "arch": 10202,
    " indi": 10203,
    " 25": 10204,
    "cep": 10205,
    "lay": 10206,
    " vic": 10207,
    " nouvelle": 10208,
    " Tr": 10209,
    " Histoire": 10210,
    " espè": 10211,
    " Pe": 10212,
    "ger": 10213,
    "minist": 10214,
    "rique": 10215,
    "ith": 10216,
    "ange": 10217,
    " syst": 10218,
    "dia": 10219,
    " Can": 10220,
    " 2012": 10221,
    "dre": 10222,
    " cri": 10223,
    " mondi": 10224,
    "ourd": 10225,
    " =": 10226,
    "opp": 10227,
    " Be": 10228,
    " Sch": 10229,
    "tifs": 10230,
    "ony": 10231,
    " 2017": 10232,
    " cas": 10233,
    " `": 10234,
    " Ad": 10235,
    " Biographie": 10236,
    " tant": 10237,
    " XV": 10238,
    "nivers": 10239,
    " national": 10240,
    "val": 10241,
    " milli": 10242,
    "sp": 10243,
    " Sa": 10244,
    "oires": 10245,
    " Rob": 10246,
    " disp": 10247,
    "fois": 10248,
    "ét": 10249,
    "iter": 10250,
    " met": 10251,
    " New": 10252,
    " nature": 10253,
    "serv": 10254,
    "aud": 10255,
    "isme": 10256,
    " cli": 10257,
    " toute": 10258,
    " pres": 10259,
    " alle": 10260,
    "lac": 10261,
    " 2007": 10262,
    " 2008": 10263,
    " vous": 10264,
    " autre": 10265,
    " 190": 10266,
    " arti": 10267,
    " fonction": 10268,
    " ;": 10269,
    "hi": 10270,
    " 30": 10271,
    "istre": 10272,
    "oles": 10273,
    " données": 10274,
    "lor": 10275,
    " meille": 10276,
    "ars": 10277,
    " sp": 10278,
    " ouv": 10279,
    " Comm": 10280,
    " ind": 10281,
    " 2009": 10282,
    " comb": 10283,
    " jour": 10284,
    "aw": 10285,
    "consulté": 10286,
    " gr": 10287,
    " dit": 10288,
    " appar": 10289,
    "aume": 10290,
    "èrent": 10291,
    " celui": 10292,
    "État": 10293,
    " donc": 10294,
    "urent": 10295,
    "ly": 10296,
    " pol": 10297,
    "ock": 10298,
    " lib": 10299,
    "uli": 10300,
    " particu": 10301,
    "éli": 10302,
    "yant": 10303,
    " mes": 10304,
    " angl": 10305,
    "pendant": 10306,
    "ets": 10307,
    "sionn": 10308,
    " Articles": 10309,
    " prog": 10310,
    " gra": 10311,
    " 2019": 10312,
    " Com": 10313,
    "oppe": 10314,
    "urop": 10315,
    " constitu": 10316,
    " celle": 10317,
    " fils": 10318,
    " Br": 10319,
    "son": 10320,
    "ateurs": 10321,
    " /": 10322,
    " nous": 10323,
    "ampionnat": 10324,
    " peti": 10325,
    " quelques": 10326,
    " part": 10327,
    " située": 10328,
    "urope": 10329,
    "ck": 10330,
    " plan": 10331,
    " liste": 10332,
    "emple": 10333,
    "---": 10334,
    "rage": 10335,
    " 2022": 10336,
    "ouse": 10337,
    " recher": 10338,
    "cription": 10339,
    " habitants": 10340,
    "ables": 10341,
    " ca": 10342,
    " chef": 10343,
    " John": 10344,
    " gar": 10345,
    " appel": 10346,
    " repr": 10347,
    " journ": 10348,
    " 🗓️": 10349,
    " lit": 10350,
    " 📜": 10351,
    "ommes": 10352,
    "der": 10353,
    " th": 10354,
    " connexes": 10355,
    "ilm": 10356,
    " 24": 10357,
    "temp": 10358,
    " relatives": 10359,
    "anti": 10360,
    " +": 10361,
    "ootball": 10362,
    "èle": 10363,
    "èrement": 10364,
    "cs": 10365,
    " coll": 10366,
    " Louis": 10367,
    " nationale": 10368,
    " Pierre": 10369,
    " match": 10370,
    "poque": 10371,
    " rôle": 10372,
    "histoire": 10373,
    "ros": 10374,
    " chez": 10375,
    " origin": 10376,
    "Ie": 10377,
    "iment": 10378,
    "ity": 10379,
    " deven": 10380,
    "50": 10381,
    " projet": 10382,
    "ork": 10383,
    " musique": 10384,
    " période": 10385,
    "âteau": 10386,
    " carac": 10387,
    "eb": 10388,
    " techn": 10389,
    " 189": 10390,
    " étaient": 10391,
    " consid": 10392,
    "tr": 10393,
    " reg": 10394,
    " Ressources": 10395,
    " nive": 10396,
    " tot": 10397,
    "alif": 10398,
    " relative": 10399,
    "ime": 10400,
    " 2006": 10401,
    " Pal": 10402,
    "ones": 10403,
    "apon": 10404,
    "dis": 10405,
    " ensuite": 10406,
    " doc": 10407,
    " rencont": 10408,
    " forme": 10409,
    "ick": 10410,
    " Bibli": 10411,
    " 2000": 10412,
    " gouvernement": 10413,
    " particip": 10414,
    " village": 10415,
    " sub": 10416,
    "ina": 10417,
    " jours": 10418,
    "ument": 10419,
    "iles": 10420,
    " cir": 10421,
    " inc": 10422,
    "téri": 10423,
    " société": 10424,
    " El": 10425,
    " tard": 10426,
    " Man": 10427,
    " contin": 10428,
    " lang": 10429,
    " 22": 10430,
    " vi": 10431,
    "ner": 10432,
    " supp": 10433,
    " Grand": 10434,
    " Sta": 10435,
    " communes": 10436,
    "çois": 10437,
    "jours": 10438,
    " Ex": 10439,
    " Mal": 10440,
    " dés": 10441,
    "ière": 10442,
    "arg": 10443,
    "La": 10444,
    " Di": 10445,
    "rag": 10446,
    "ennes": 10447,
    " suiv": 10448,
    " second": 10449,
    " trouve": 10450,
    " camp": 10451,
    " dess": 10452,
    "ox": 10453,
    " conse": 10454,
    " 978": 10455,
    "uropé": 10456,
    "âtre": 10457,
    "ède": 10458,
    "tient": 10459,
    " Ces": 10460,
    "œur": 10461,
    "mis": 10462,
    "ôt": 10463,
    "join": 10464,
    " Bel": 10465,
    " réc": 10466,
    " roi": 10467,
    "aliste": 10468,
    " père": 10469,
    "ka": 10470,
    " reç": 10471,
    " 23": 10472,
    " succ": 10473,
    " organis": 10474,
    " population": 10475,
    "auv": 10476,
    "air": 10477,
    "11": 10478,
    "tent": 10479,
    " dernier": 10480,
    "idé": 10481,
    "lace": 10482,
    " Ils": 10483,
    "hui": 10484,
    "équipe": 10485,
    "----------------": 10486,
    " deuxième": 10487,
    "ana": 10488,
    "usion": 10489,
    " bou": 10490,
    "mbl": 10491,
    " homme": 10492,
    "yl": 10493,
    " bar": 10494,
    ");": 10495,
    " tourn": 10496,
    "yp": 10497,
    " près": 10498,
    " anglais": 10499,
    "rant": 10500,
    " ét": 10501,
    "orig": 10502,
    " lim": 10503,
    "aff": 10504,
    " joue": 10505,
    " mois": 10506,
    " dev": 10507,
    " développe": 10508,
    " président": 10509,
    " ---": 10510,
    " œuv": 10511,
    " 188": 10512,
    "let": 10513,
    "ting": 10514,
    "ota": 10515,
    " base": 10516,
    " Inter": 10517,
    "🇫🇷": 10518,
    "âti": 10519,
    "ust": 10520,
    "oie": 10521,
    " nécess": 10522,
    "org": 10523,
    "année": 10524,
    " marqu": 10525,
    " iss": 10526,
    "'s": 10527,
    " oc": 10528,
    " 2005": 10529,
    "oun": 10530,
    " He": 10531,
    " ✨": 10532,
    "duction": 10533,
    "mon": 10534,
    " sup": 10535,
    "}}": 10536,
    "uvent": 10537,
    " mis": 10538,
    " classe": 10539,
    "ada": 10540,
    " environ": 10541,
    "era": 10542,
    " culture": 10543,
    "ara": 10544,
    "urb": 10545,
    " {\\": 10546,
    " Lors": 10547,
    " souvent": 10548,
    " II": 10549,
    "199": 10550,
    " Dis": 10551,
    "estion": 10552,
    "cup": 10553,
    " américain": 10554,
    " service": 10555,
    "esp": 10556,
    "enre": 10557,
    " Sc": 10558,
    " centre": 10559,
    " rap": 10560,
    " Charles": 10561,
    " rév": 10562,
    "arge": 10563,
    " Am": 10564,
    "aît": 10565,
    "iers": 10566,
    "téris": 10567,
    " europé": 10568,
    " toujours": 10569,
    " travers": 10570,
    " jeu": 10571,
    " but": 10572,
    " Pr": 10573,
    " 2021": 10574,
    " cad": 10575,
    "ards": 10576,
    "éma": 10577,
    "mbres": 10578,
    " peuvent": 10579,
    " face": 10580,
    "aute": 10581,
    " Soci": 10582,
    " dési": 10583,
    "inter": 10584,
    " contra": 10585,
    "ète": 10586,
    "ué": 10587,
    " Te": 10588,
    "ules": 10589,
    "fi": 10590,
    " rapport": 10591,
    " personnes": 10592,
    " 🇫🇷": 10593,
    " prob": 10594,
    " Mais": 10595,
    " nombreux": 10596,
    " chaque": 10597,
    "alités": 10598,
    "aissance": 10599,
    "ote": 10600,
    " 2004": 10601,
    "igh": 10602,
    " por": 10603,
    "mande": 10604,
    " beau": 10605,
    " 28": 10606,
    " ess": 10607,
    "téra": 10608,
    " muni": 10609,
    " rue": 10610,
    "origine": 10611,
    "ative": 10612,
    "ication": 10613,
    " porte": 10614,
    " Ab": 10615,
    " sig": 10616,
    " 26": 10617,
    " Nord": 10618,
    "anci": 10619,
    " année": 10620,
    " ayant": 10621,
    "odes": 10622,
    "tien": 10623,
    "eux": 10624,
    " vit": 10625,
    " fl": 10626,
    " toutes": 10627,
    " Roy": 10628,
    " commer": 10629,
    "tation": 10630,
    " compte": 10631,
    "ira": 10632,
    "él": 10633,
    "raî": 10634,
    " femme": 10635,
    " Paul": 10636,
    "titul": 10637,
    "ordre": 10638,
    "oss": 10639,
    "rang": 10640,
    "jourd": 10641,
    " point": 10642,
    " Hen": 10643,
    " 186": 10644,
    "urg": 10645,
    " 🤝": 10646,
    " situé": 10647,
    "ute": 10648,
    "cole": 10649,
    "for": 10650,
    " maj": 10651,
    " donn": 10652,
    " pein": 10653,
    "erb": 10654,
    "ouest": 10655,
    "Xe": 10656,
    "uire": 10657,
    "unes": 10658,
    " term": 10659,
    " Or": 10660,
    " étant": 10661,
    "att": 10662,
    "dio": 10663,
    "inf": 10664,
    " intitul": 10665,
    "èse": 10666,
    " territoire": 10667,
    " cinq": 10668,
    "ppe": 10669,
    " 27": 10670,
    "tionn": 10671,
    "alog": 10672,
    "old": 10673,
    "eng": 10674,
    "ologique": 10675,
    " élect": 10676,
    " Cet": 10677,
    " afin": 10678,
    " aur": 10679,
    " log": 10680,
    "erre": 10681,
    " cal": 10682,
    " simp": 10683,
    " 21": 10684,
    "uf": 10685,
    " Sp": 10686,
    "off": 10687,
    "cad": 10688,
    "iné": 10689,
    "usse": 10690,
    "ision": 10691,
    " Val": 10692,
    " cro": 10693,
    " roy": 10694,
    "ini": 10695,
    " rend": 10696,
    " article": 10697,
    " 2023": 10698,
    "tition": 10699,
    " prend": 10700,
    " reste": 10701,
    " système": 10702,
    " Comp": 10703,
    "Fran": 10704,
    " reconn": 10705,
    "ville": 10706,
    "sible": 10707,
    "ames": 10708,
    " Ber": 10709,
    " bi": 10710,
    " mise": 10711,
    " réseau": 10712,
    "âce": 10713,
    " pra": 10714,
    " production": 10715,
    " niveau": 10716,
    " cet": 10717,
    " Ste": 10718,
    "gé": 10719,
    "enir": 10720,
    " équi": 10721,
    " 🧑": 10722,
    "yd": 10723,
    "inc": 10724,
    " voy": 10725,
    " Sur": 10726,
    " Ren": 10727,
    "eures": 10728,
    "auté": 10729,
    " Cons": 10730,
    "ustri": 10731,
    " fais": 10732,
    "ley": 10733,
    " Ro": 10734,
    "alisation": 10735,
    " Gr": 10736,
    " provin": 10737,
    " prom": 10738,
    " 1999": 10739,
    " travail": 10740,
    " coup": 10741,
    " Is": 10742,
    " bâti": 10743,
    " seul": 10744,
    "quer": 10745,
    " chans": 10746,
    "ty": 10747,
    " 🏆": 10748,
    " 🏛": 10749,
    " épis": 10750,
    "ition": 10751,
    " Sud": 10752,
    " membres": 10753,
    " bata": 10754,
    " 187": 10755,
    "ll": 10756,
    " mag": 10757,
    " prix": 10758,
    " doit": 10759,
    "était": 10760,
    "Ch": 10761,
    " cat": 10762,
    " ense": 10763,
    " Sal": 10764,
    "quel": 10765,
    " droit": 10766,
    "con": 10767,
    "oly": 10768,
    "pose": 10769,
    " jeune": 10770,
    " tête": 10771,
    " Bibliographie": 10772,
    "cident": 10773,
    "30": 10774,
    " municip": 10775,
    " écrit": 10776,
    "tière": 10777,
    " Ressource": 10778,
    " Geor": 10779,
    " capit": 10780,
    "position": 10781,
    " allemand": 10782,
    "Mar": 10783,
    " 🗓️,": 10784,
    " ref": 10785,
    " atte": 10786,
    "écur": 10787,
    "ano": 10788,
    "mat": 10789,
    " Gal": 10790,
    "ysi": 10791,
    "ublique": 10792,
    " nommé": 10793,
    "ha": 10794,
    "férence": 10795,
    " mari": 10796,
    "yc": 10797,
    " membre": 10798,
    " All": 10799,
    " mondiale": 10800,
    "ires": 10801,
    " 🌍": 10802,
    "xte": 10803,
    " parc": 10804,
    " carrière": 10805,
    "leur": 10806,
    "cer": 10807,
    "çon": 10808,
    " And": 10809,
    " hommes": 10810,
    " mot": 10811,
    " défin": 10812,
    " bat": 10813,
    " Fin": 10814,
    " Guerre": 10815,
    "ennent": 10816,
    "cipe": 10817,
    " 2003": 10818,
    " 29": 10819,
    " François": 10820,
    "ed": 10821,
    "exp": 10822,
    "jou": 10823,
    " 2002": 10824,
    "ception": 10825,
    "play": 10826,
    " Premi": 10827,
    "duit": 10828,
    " conserv": 10829,
    " officiel": 10830,
    "orn": 10831,
    " éch": 10832,
    " Site": 10833,
    " fille": 10834,
    " espèce": 10835,
    " poss": 10836,
    "nés": 10837,
    " maison": 10838,
    " Mo": 10839,
    "ld": 10840,
    "erne": 10841,
    "reg": 10842,
    " recherche": 10843,
    " Prix": 10844,
    "qué": 10845,
    " 2024": 10846,
    " num": 10847,
    " Coupe": 10848,
    " voit": 10849,
    " Tour": 10850,
    "ociation": 10851,
    "stitu": 10852,
    " 2001": 10853,
    " XI": 10854,
    " sein": 10855,
    " id": 10856,
    " Robert": 10857,
    " Tra": 10858,
    " corps": 10859,
    "tru": 10860,
    " mouve": 10861,
    "chi": 10862,
    "bert": 10863,
    "by": 10864,
    " présente": 10865,
    " sour": 10866,
    "erve": 10867,
    " Ed": 10868,
    " durant": 10869,
    " exemple": 10870,
    " étab": 10871,
    " scène": 10872,
    " pouvoir": 10873,
    " Co": 10874,
    "pré": 10875,
    " hum": 10876,
    " raison": 10877,
    " rel": 10878,
    " équipe": 10879,
    " Histor": 10880,
    " ital": 10881,
    " Har": 10882,
    "sur": 10883,
    " mètres": 10884,
    " fort": 10885,
    " trou": 10886,
    "duc": 10887,
    "érique": 10888,
    " 📍": 10889,
    "tier": 10890,
    " ancien": 10891,
    "èmes": 10892,
    "style": 10893,
    " Ang": 10894,
    " 📚": 10895,
    "ices": 10896,
    " annon": 10897,
    "même": 10898,
    "église": 10899,
    " profes": 10900,
    " actu": 10901,
    " 1990": 10902,
    "ene": 10903,
    "vé": 10904,
    " Rép": 10905,
    "gré": 10906,
    "univers": 10907,
    " brit": 10908,
    "rim": 10909,
    " blan": 10910,
    "da": 10911,
    " 1998": 10912,
    " sal": 10913,
    "oris": 10914,
    "igue": 10915,
    " femmes": 10916,
    " br": 10917,
    "élè": 10918,
    " inst": 10919,
    " château": 10920,
    " vari": 10921,
    "ash": 10922,
    " Rou": 10923,
    "estiv": 10924,
    "af": 10925,
    " six": 10926,
    "iller": 10927,
    ".,": 10928,
    "Or": 10929,
    " auteurs": 10930,
    "armée": 10931,
    "lles": 10932,
    " rev": 10933,
    "osé": 10934,
    "crit": 10935,
    " enfants": 10936,
    "oise": 10937,
    "oration": 10938,
    "pt": 10939,
    "quelle": 10940,
    "vo": 10941,
    " retour": 10942,
    " #": 10943,
    " Dan": 10944,
    " relig": 10945,
    "lant": 10946,
    "lément": 10947,
    " littéra": 10948,
    "display": 10949,
    "tait": 10950,
    "40": 10951,
    " class": 10952,
    " large": 10953,
    "tivité": 10954,
    " développement": 10955,
    " Sec": 10956,
    " type": 10957,
    "magne": 10958,
    " intitulé": 10959,
    "éch": 10960,
    "èg": 10961,
    "198": 10962,
    " administ": 10963,
    "_{": 10964,
    " divers": 10965,
    "ribution": 10966,
    "asion": 10967,
    " Aut": 10968,
    "cte": 10969,
    "displaystyle": 10970,
    " Si": 10971,
    " effec": 10972,
    "tiste": 10973,
    "uté": 10974,
    "ublic": 10975,
    " fac": 10976,
    "ression": 10977,
    "uments": 10978,
    " laquelle": 10979,
    " certains": 10980,
    "22": 10981,
    "autre": 10982,
    " troisième": 10983,
    " effet": 10984,
    " dès": 10985,
    "rist": 10986,
    " contr": 10987,
    " album": 10988,
    "émin": 10989,
    "dé": 10990,
    " priv": 10991,
    " Film": 10992,
    " premiers": 10993,
    "tagne": 10994,
    " piè": 10995,
    " serv": 10996,
    " route": 10997,
    " moi": 10998,
    " Selon": 10999,
    " Cas": 11000,
    "aj": 11001,
    "mont": 11002,
    "estival": 11003,
    " sera": 11004,
    " anci": 11005,
    " incl": 11006,
    " York": 11007,
    "article": 11008,
    "na": 11009,
    " devant": 11010,
    " Marie": 11011,
    " 📅,": 11012,
    "net": 11013,
    " rapide": 11014,
    " petit": 11015,
    "ds": 11016,
    " syn": 11017,
    " économ": 11018,
    "talie": 11019,
    " quit": 11020,
    " millions": 11021,
    "ulti": 11022,
    " ministre": 11023,
    "térieur": 11024,
    "ende": 11025,
    " rejoin": 11026,
    " Gé": 11027,
    " vict": 11028,
    " Jacques": 11029,
    " viv": 11030,
    "oll": 11031,
    "prise": 11032,
    " Su": 11033,
    "atiques": 11034,
    " généra": 11035,
    " Bou": 11036,
    " Per": 11037,
    "annique": 11038,
    "tie": 11039,
    "25": 11040,
    "xim": 11041,
    " sign": 11042,
    " not": 11043,
    " résul": 11044,
    "llemagne": 11045,
    " fig": 11046,
    " militaire": 11047,
    " Vic": 11048,
    "action": 11049,
    "fs": 11050,
    " seu": 11051,
    " division": 11052,
    " joueur": 11053,
    "jà": 11054,
    "rid": 11055,
    "ouss": 11056,
    "iki": 11057,
    " finale": 11058,
    " univers": 11059,
    " Phili": 11060,
    "andis": 11061,
    " grâce": 11062,
    " succès": 11063,
    " maî": 11064,
    " ceux": 11065,
    " plu": 11066,
    " mm": 11067,
    "amais": 11068,
    " poste": 11069,
    " atta": 11070,
    " cath": 11071,
    " cher": 11072,
    " 👑": 11073,
    "*,": 11074,
    "sence": 11075,
    " tu": 11076,
    " championnat": 11077,
    "uve": 11078,
    " longue": 11079,
    " caractéris": 11080,
    " !": 11081,
    " env": 11082,
    " opé": 11083,
    " professionn": 11084,
    " issu": 11085,
    " 🛡": 11086,
    " phot": 11087,
    " For": 11088,
    "ham": 11089,
    " football": 11090,
    "niques": 11091,
    "reur": 11092,
    " points": 11093,
    " As": 11094,
    "coup": 11095,
    "Europe": 11096,
    "île": 11097,
    " Dur": 11098,
    " Gar": 11099,
    "orie": 11100,
    "ible": 11101,
    " pris": 11102,
    "ura": 11103,
    "iz": 11104,
    " mère": 11105,
    " Du": 11106,
    " 179": 11107,
    "eff": 11108,
    " nombreuses": 11109,
    "rice": 11110,
    " va": 11111,
    " version": 11112,
    " fré": 11113,
    " Dé": 11114,
    "base": 11115,
    "berg": 11116,
    " éd": 11117,
    " sort": 11118,
    "ung": 11119,
    "men": 11120,
    " construction": 11121,
    " Marc": 11122,
    "issement": 11123,
    " proc": 11124,
    "anton": 11125,
    " op": 11126,
    "équ": 11127,
    "itaires": 11128,
    "24": 11129,
    "ber": 11130,
    "après": 11131,
    " décl": 11132,
    " propri": 11133,
    " création": 11134,
    " roman": 11135,
    " utilisé": 11136,
    "ult": 11137,
    "han": 11138,
    "ack": 11139,
    " déjà": 11140,
    " côté": 11141,
    " Pays": 11142,
    " mom": 11143,
    " mer": 11144,
    " ni": 11145,
    " Cependant": 11146,
    "vière": 11147,
    " découv": 11148,
    "ald": 11149,
    " Nation": 11150,
    " program": 11151,
    "rir": 11152,
    " No": 11153,
    " connu": 11154,
    "23": 11155,
    "70": 11156,
    "taire": 11157,
    " jamais": 11158,
    "èque": 11159,
    "ark": 11160,
    " chem": 11161,
    "fr": 11162,
    " passe": 11163,
    " Et": 11164,
    "uré": 11165,
    " aujourd": 11166,
    " ✅": 11167,
    " méd": 11168,
    " Alex": 11169,
    "époque": 11170,
    " qualif": 11171,
    "umi": 11172,
    "illiam": 11173,
    " 100": 11174,
    " réalisé": 11175,
    " command": 11176,
    "45": 11177,
    "ela": 11178,
    "isation": 11179,
    "aces": 11180,
    " table": 11181,
    "jec": 11182,
    " Lond": 11183,
    "écurité": 11184,
    " let": 11185,
    " 1997": 11186,
    "uisse": 11187,
    "uelle": 11188,
    " San": 11189,
    "lég": 11190,
    " ord": 11191,
    " auc": 11192,
    "auteur": 11193,
    " Michel": 11194,
    "ainte": 11195,
    "neur": 11196,
    " Ac": 11197,
    " Ben": 11198,
    " 185": 11199,
    " fra": 11200,
    " 👨": 11201,
    " viol": 11202,
    " bois": 11203,
    "mique": 11204,
    "agit": 11205,
    " Ver": 11206,
    "ènes": 11207,
    "ocra": 11208,
    " international": 11209,
    " Jeux": 11210,
    "âge": 11211,
    " Ser": 11212,
    "lande": 11213,
    " colon": 11214,
    " Mad": 11215,
    " furent": 11216,
    " patri": 11217,
    " esti": 11218,
    "26": 11219,
    " formation": 11220,
    "tage": 11221,
    " sci": 11222,
    " Société": 11223,
    "ographique": 11224,
    " arch": 11225,
    " cadre": 11226,
    "bourg": 11227,
    " anim": 11228,
    "vie": 11229,
    "aude": 11230,
    " Che": 11231,
    " suivant": 11232,
    " quarti": 11233,
    "aye": 11234,
    "ip": 11235,
    " développ": 11236,
    " direction": 11237,
    "éon": 11238,
    "avant": 11239,
    " Bo": 11240,
    " intég": 11241,
    "ood": 11242,
    "bilité": 11243,
    "orld": 11244,
    " tandis": 11245,
    " Bro": 11246,
    "atoire": 11247,
    " 🌟": 11248,
    "utes": 11249,
    " 50": 11250,
    "asc": 11251,
    "ica": 11252,
    "vre": 11253,
    " ⏳": 11254,
    " 🚀": 11255,
    " main": 11256,
    " Bl": 11257,
    "atique": 11258,
    " partiellement": 11259,
    "uk": 11260,
    " 1996": 11261,
    " Bern": 11262,
    " tradition": 11263,
    "met": 11264,
    "estre": 11265,
    " République": 11266,
    "oign": 11267,
    " Mor": 11268,
    "ève": 11269,
    "ino": 11270,
    " unique": 11271,
    " feu": 11272,
    "aci": 11273,
    " autor": 11274,
    "temps": 11275,
    "ouverte": 11276,
    " commen": 11277,
    " seulement": 11278,
    " William": 11279,
    "ions": 11280,
    " Trans": 11281,
    " publié": 11282,
    "less": 11283,
    " voix": 11284,
    " genre": 11285,
    "niversité": 11286,
    " eu": 11287,
    "lev": 11288,
    " Lib": 11289,
    " différents": 11290,
    " signi": 11291,
    " britannique": 11292,
    " Pet": 11293,
    " cela": 11294,
    " Gra": 11295,
    "dec": 11296,
    " particuli": 11297,
    " livre": 11298,
    " elles": 11299,
    "iteur": 11300,
    " demi": 11301,
    " bon": 11302,
    "illon": 11303,
    " Rich": 11304,
    " totalité": 11305,
    " tomb": 11306,
    " milieu": 11307,
    " loi": 11308,
    "université": 11309,
    " trop": 11310,
    "agnie": 11311,
    " sport": 11312,
    " Gi": 11313,
    "SS": 11314,
    " colle": 11315,
    "auche": 11316,
    "**,": 11317,
    " chap": 11318,
    " Wiki": 11319,
    " études": 11320,
    "pecta": 11321,
    "66": 11322,
    " Canada": 11323,
    " Conse": 11324,
    "ario": 11325,
    "isse": 11326,
    "ost": 11327,
    " manière": 11328,
    "otte": 11329,
    "avid": 11330,
    "oud": 11331,
    " Plus": 11332,
    " Cat": 11333,
    " Cour": 11334,
    "ca": 11335,
    " ?": 11336,
    " rencontre": 11337,
    " province": 11338,
    "évolution": 11339,
    "émie": 11340,
    " beaucoup": 11341,
    " 📈": 11342,
    "gment": 11343,
    " puiss": 11344,
    "rêt": 11345,
    " is": 11346,
    " cy": 11347,
    "matique": 11348,
    " obten": 11349,
    " Jose": 11350,
    "face": 11351,
    "lit": 11352,
    "red": 11353,
    " Centre": 11354,
    " commence": 11355,
    "sy": 11356,
    "ardin": 11357,
    " 1991": 11358,
    " Avec": 11359,
    "uri": 11360,
    " Depuis": 11361,
    " 1995": 11362,
    " dernière": 11363,
    "formation": 11364,
    " siège": 11365,
    " ten": 11366,
    "assin": 11367,
    " dix": 11368,
    "60": 11369,
    " Nic": 11370,
    " Rec": 11371,
    " remporte": 11372,
    " 🔄": 11373,
    " XVII": 11374,
    " sortie": 11375,
    "roph": 11376,
    "frique": 11377,
    " 🗺": 11378,
    "ustral": 11379,
    "ords": 11380,
    " autom": 11381,
    " cinéma": 11382,
    "rite": 11383,
    " régiment": 11384,
    " moyenne": 11385,
    "ovie": 11386,
    "aly": 11387,
    "glise": 11388,
    "ume": 11389,
    " 🏞": 11390,
    " moment": 11391,
    "abord": 11392,
    " fai": 11393,
    "roï": 11394,
    " 1980": 11395,
    " Ses": 11396,
    " ve": 11397,
    "nements": 11398,
    " petite": 11399,
    " Cap": 11400,
    "En": 11401,
    " pal": 11402,
    "ky": 11403,
    " Tou": 11404,
    " eng": 11405,
    "rog": 11406,
    " zone": 11407,
    "resp": 11408,
    " historique": 11409,
    "rec": 11410,
    "spagne": 11411,
    "itre": 11412,
    "anté": 11413,
    "hô": 11414,
    "anne": 11415,
    "did": 11416,
    "Am": 11417,
    "cientif": 11418,
    "ovi": 11419,
    " to": 11420,
    " technique": 11421,
    "atabase": 11422,
    "️⃣": 11423,
    "sive": 11424,
    "ément": 11425,
    " grands": 11426,
    "stes": 11427,
    " travaux": 11428,
    "aître": 11429,
    " parmi": 11430,
    "35": 11431,
    "pi": 11432,
    "dam": 11433,
    " Rés": 11434,
    " 🏛️": 11435,
    " Rom": 11436,
    "ulaire": 11437,
    "28": 11438,
    "leurs": 11439,
    "olymp": 11440,
    "rich": 11441,
    "iche": 11442,
    " Chris": 11443,
    " III": 11444,
    " nouvelles": 11445,
    " Cal": 11446,
    " principale": 11447,
    "ambre": 11448,
    "ensemble": 11449,
    "uy": 11450,
    " Russ": 11451,
    " World": 11452,
    "48": 11453,
    " effectu": 11454,
    " 31": 11455,
    "cours": 11456,
    "eth": 11457,
    " initi": 11458,
    "onneur": 11459,
    " vidé": 11460,
    "ié": 11461,
    " équipes": 11462,
    " Henri": 11463,
    " physi": 11464,
    " haut": 11465,
    " précéd": 11466,
    " olymp": 11467,
    " trouv": 11468,
    " statu": 11469,
    " associ": 11470,
    " Thé": 11471,
    "sc": 11472,
    "tine": 11473,
    " Min": 11474,
    " meur": 11475,
    "album": 11476,
    " chanson": 11477,
    " professe": 11478,
    "tout": 11479,
    " 1994": 11480,
    " mouvement": 11481,
    " David": 11482,
    " travaill": 11483,
    " 🔢": 11484,
    "érit": 11485,
    " observ": 11486,
    " Nouv": 11487,
    "êque": 11488,
    " Parti": 11489,
    "inst": 11490,
    " autour": 11491,
    "rées": 11492,
    "rond": 11493,
    "orté": 11494,
    "loy": 11495,
    "itecture": 11496,
    "pédia": 11497,
    "21": 11498,
    "ël": 11499,
    "lique": 11500,
    "ary": 11501,
    " position": 11502,
    " administra": 11503,
    " quand": 11504,
    " élections": 11505,
    " 📊": 11506,
    "sse": 11507,
    "29": 11508,
    "enf": 11509,
    " 1992": 11510,
    " Bre": 11511,
    " produit": 11512,
    "gique": 11513,
    " champion": 11514,
    " bl": 11515,
    " kil": 11516,
    "moine": 11517,
    " terme": 11518,
    " théâtre": 11519,
    "rom": 11520,
    " participe": 11521,
    " meilleur": 11522,
    " Cro": 11523,
    " ⚔": 11524,
    " Gen": 11525,
    " catég": 11526,
    " Wikipédia": 11527,
    "épend": 11528,
    "aval": 11529,
    " mém": 11530,
    "The": 11531,
    " peup": 11532,
    " classi": 11533,
    " combat": 11534,
    "lam": 11535,
    "étu": 11536,
    " Del": 11537,
    " communauté": 11538,
    " 1993": 11539,
    "acité": 11540,
    "posi": 11541,
    "ampionnats": 11542,
    "ares": 11543,
    " Mc": 11544,
    "étique": 11545,
    " etc": 11546,
    " bataille": 11547,
    "37": 11548,
    "iver": 11549,
    " date": 11550,
    "trib": 11551,
    "terre": 11552,
    " fémin": 11553,
    " mor": 11554,
    "ôme": 11555,
    "êt": 11556,
    "orth": 11557,
    " particulier": 11558,
    "ctes": 11559,
    " dessin": 11560,
    " terre": 11561,
    " Bra": 11562,
    "respond": 11563,
    " ress": 11564,
    "ront": 11565,
    " major": 11566,
    " vale": 11567,
    " font": 11568,
    " mesure": 11569,
    " compé": 11570,
    "omin": 11571,
    " pa": 11572,
    "abb": 11573,
    "cles": 11574,
    " médi": 11575,
    "lire": 11576,
    "tivités": 11577,
    "anique": 11578,
    "197": 11579,
    "titude": 11580,
    " 1970": 11581,
    " music": 11582,
    " différentes": 11583,
    " propre": 11584,
    " langue": 11585,
    "com": 11586,
    "cide": 11587,
    " stru": 11588,
    " crois": 11589,
    " eux": 11590,
    "part": 11591,
    " change": 11592,
    " ``": 11593,
    "we": 11594,
    " ```": 11595,
    " gestion": 11596,
    "my": 11597,
    " ✍": 11598,
    " Conseil": 11599,
    " resp": 11600,
    "hab": 11601,
    " nécessaire": 11602,
    "of": 11603,
    "olique": 11604,
    " Mil": 11605,
    "anie": 11606,
    " donne": 11607,
    " he": 11608,
    " collab": 11609,
    " reven": 11610,
    " Ag": 11611,
    " scientif": 11612,
    " préf": 11613,
    "tivement": 11614,
    " urb": 11615,
    " demande": 11616,
    " frère": 11617,
    " asse": 11618,
    " prot": 11619,
    " créé": 11620,
    " domaine": 11621,
    "France": 11622,
    "27": 11623,
    " seule": 11624,
    "érieur": 11625,
    " Japon": 11626,
    " At": 11627,
    " Mat": 11628,
    " services": 11629,
    " parfois": 11630,
    " entraî": 11631,
    "ker": 11632,
    "aite": 11633,
    " américaine": 11634,
    "cy": 11635,
    " inform": 11636,
    " arriv": 11637,
    " ven": 11638,
    " suc": 11639,
    " Pl": 11640,
    " Fer": 11641,
    " remplac": 11642,
    "audi": 11643,
    " pie": 11644,
    "omas": 11645,
    "do": 11646,
    " station": 11647,
    "80": 11648,
    " bord": 11649,
    " moyen": 11650,
    " évol": 11651,
    ",,": 11652,
    " déta": 11653,
    "33": 11654,
    " 180": 11655,
    "veur": 11656,
    " Lo": 11657,
    " musée": 11658,
    " étudi": 11659,
    "cupation": 11660,
    " sem": 11661,
    "ola": 11662,
    " Pré": 11663,
    " laiss": 11664,
    " Cam": 11665,
    " principalement": 11666,
    " val": 11667,
    " specta": 11668,
    " propos": 11669,
    "oile": 11670,
    " publique": 11671,
    "abri": 11672,
    "jets": 11673,
    "ani": 11674,
    " sus": 11675,
    " Joseph": 11676,
    "téroï": 11677,
    " aurait": 11678,
    " comte": 11679,
    "entif": 11680,
    "ébec": 11681,
    "AN": 11682,
    " suivante": 11683,
    " sais": 11684,
    " référence": 11685,
    "dit": 11686,
    "tection": 11687,
    "êtes": 11688,
    "cent": 11689,
    " directeur": 11690,
    "dess": 11691,
    " Music": 11692,
    " Kar": 11693,
    " 40": 11694,
    " i": 11695,
    " lorsque": 11696,
    "homme": 11697,
    "environ": 11698,
    "Db": 11699,
    " pri": 11700,
    "ablement": 11701,
    "AS": 11702,
    "sh": 11703,
    " fréqu": 11704,
    " médec": 11705,
    " Londres": 11706,
    "nel": 11707,
    " sélection": 11708,
    " kilom": 11709,
    "ney": 11710,
    " x": 11711,
    "ilos": 11712,
    "fique": 11713,
    "médi": 11714,
    "duire": 11715,
    " répar": 11716,
    " tri": 11717,
    "resse": 11718,
    " correspond": 11719,
    " ple": 11720,
    " Gre": 11721,
    "écu": 11722,
    "illeurs": 11723,
    "oré": 11724,
    " Carrière": 11725,
    "yth": 11726,
    " victoire": 11727,
    " be": 11728,
    " Description": 11729,
    " Sim": 11730,
    " dispar": 11731,
    " soi": 11732,
    " maint": 11733,
    " œuvre": 11734,
    " dra": 11735,
    "ieur": 11736,
    " Mag": 11737,
    " Deux": 11738,
    " sécurité": 11739,
    " commerci": 11740,
    "tice": 11741,
    "za": 11742,
    " Tur": 11743,
    " Maur": 11744,
    "leterre": 11745,
    " Historique": 11746,
    "rige": 11747,
    " demand": 11748,
    " surtout": 11749,
    " canton": 11750,
    "olf": 11751,
    " Wal": 11752,
    " perform": 11753,
    "allée": 11754,
    " cependant": 11755,
    " sau": 11756,
    " minutes": 11757,
    " Don": 11758,
    " multi": 11759,
    " Méd": 11760,
    " principal": 11761,
    "ça": 11762,
    " inté": 11763,
    " chois": 11764,
    " XIXe": 11765,
    " Cont": 11766,
    " Mer": 11767,
    " Lu": 11768,
    " document": 11769,
    "tag": 11770,
    " internationale": 11771,
    "arts": 11772,
    " transport": 11773,
    " quartier": 11774,
    "vention": 11775,
    " féd": 11776,
    " Dist": 11777,
    " avaient": 11778,
    " emb": 11779,
    " scén": 11780,
    " dipl": 11781,
    "ots": 11782,
    " Ke": 11783,
    "ael": 11784,
    " premières": 11785,
    "argent": 11786,
    " conseil": 11787,
    " We": 11788,
    " recense": 11789,
    " jeunes": 11790,
    "chet": 11791,
    "\",": 11792,
[...]
