{
  "model_type": "AGBPETokenizer",
  "config": {
    "vocab_size": 16000,
    "min_frequency": 2,
    "special_tokens": [
      "<pad>",
      "<unk>",
      "<bos>",
      "<eos>"
    ],
    "attention_dim": 768,
    "num_heads": 12,
    "num_encoder_layers": 6,
    "ffn_dim_multiplier": 4
  },
  "stats": {
    "vocab_size": 16000,
    "num_merges": 7878
  },
  "special_tokens": {
    "<pad>": 0,
    "<unk>": 1,
    "<bos>": 2,
    "<eos>": 3
  },
  "vocab": {
    "<pad>": 0,
    "<unk>": 1,
    "<bos>": 2,
    "<eos>": 3,
    " ": 4,
    "!": 5,
    "\"": 6,
    "#": 7,
    "$": 8,
    "%": 9,
    "&": 10,
    "'": 11,
    "(": 12,
    ")": 13,
    "*": 14,
    "+": 15,
    ",": 16,
    "-": 17,
    ".": 18,
    "/": 19,
    "0": 20,
    "1": 21,
    "2": 22,
    "3": 23,
    "4": 24,
    "5": 25,
    "6": 26,
    "7": 27,
    "8": 28,
    "9": 29,
    ":": 30,
    ";": 31,
    "<": 32,
    "=": 33,
    ">": 34,
    "?": 35,
    "@": 36,
    "A": 37,
    "B": 38,
    "C": 39,
    "D": 40,
    "E": 41,
    "F": 42,
    "G": 43,
    "H": 44,
    "I": 45,
    "J": 46,
    "K": 47,
    "L": 48,
    "M": 49,
    "N": 50,
    "O": 51,
    "P": 52,
    "Q": 53,
    "R": 54,
    "S": 55,
    "T": 56,
    "U": 57,
    "V": 58,
    "W": 59,
    "X": 60,
    "Y": 61,
    "Z": 62,
    "[": 63,
    "\\": 64,
    "]": 65,
    "^": 66,
    "_": 67,
    "`": 68,
    "a": 69,
    "b": 70,
    "c": 71,
    "d": 72,
    "e": 73,
    "f": 74,
    "g": 75,
    "h": 76,
    "i": 77,
    "j": 78,
    "k": 79,
    "l": 80,
    "m": 81,
    "n": 82,
    "o": 83,
    "p": 84,
    "q": 85,
    "r": 86,
    "s": 87,
    "t": 88,
    "u": 89,
    "v": 90,
    "w": 91,
    "x": 92,
    "y": 93,
    "z": 94,
    "{": 95,
    "|": 96,
    "}": 97,
    "~": 98,
    "": 99,
    "": 100,
    "": 101,
    "": 102,
    "": 103,
    "": 104,
    "¡": 105,
    "¢": 106,
    "£": 107,
    "¤": 108,
    "¥": 109,
    "¦": 110,
    "§": 111,
    "©": 112,
    "«": 113,
    "¬": 114,
    "®": 115,
    "°": 116,
    "±": 117,
    "·": 118,
    "»": 119,
    "¿": 120,
    "À": 121,
    "Á": 122,
    "Â": 123,
    "Ä": 124,
    "Å": 125,
    "Æ": 126,
    "Ç": 127,
    "È": 128,
    "É": 129,
    "Ê": 130,
    "Ë": 131,
    "Ì": 132,
    "Í": 133,
    "Î": 134,
    "Ï": 135,
    "Ð": 136,
    "Ñ": 137,
    "Ò": 138,
    "Ó": 139,
    "Ô": 140,
    "Õ": 141,
    "Ö": 142,
    "×": 143,
    "Ø": 144,
    "Ù": 145,
    "Ú": 146,
    "Û": 147,
    "Ü": 148,
    "Ý": 149,
    "Þ": 150,
    "ß": 151,
    "à": 152,
    "á": 153,
    "â": 154,
    "ã": 155,
    "ä": 156,
    "å": 157,
    "æ": 158,
    "ç": 159,
    "è": 160,
    "é": 161,
    "ê": 162,
    "ë": 163,
    "ì": 164,
    "í": 165,
    "î": 166,
    "ï": 167,
    "ð": 168,
    "ñ": 169,
    "ò": 170,
    "ó": 171,
    "ô": 172,
    "õ": 173,
    "ö": 174,
    "÷": 175,
    "ø": 176,
    "ù": 177,
    "ú": 178,
    "û": 179,
    "ü": 180,
    "ý": 181,
    "þ": 182,
    "ÿ": 183,
    "Ā": 184,
    "ā": 185,
    "Ă": 186,
    "ă": 187,
    "ą": 188,
    "Ć": 189,
    "ć": 190,
    "Ĉ": 191,
    "ĉ": 192,
    "Ċ": 193,
    "ċ": 194,
    "Č": 195,
    "č": 196,
    "Ď": 197,
    "ď": 198,
    "Đ": 199,
    "đ": 200,
    "Ē": 201,
    "ē": 202,
    "Ĕ": 203,
    "ĕ": 204,
    "Ė": 205,
    "ė": 206,
    "Ę": 207,
    "ę": 208,
    "ě": 209,
    "ĝ": 210,
    "ğ": 211,
    "Ġ": 212,
    "ġ": 213,
    "ģ": 214,
    "Ĥ": 215,
    "Ħ": 216,
    "ħ": 217,
    "Ĩ": 218,
    "ĩ": 219,
    "Ī": 220,
    "ī": 221,
    "Ĭ": 222,
    "ĭ": 223,
    "Į": 224,
    "İ": 225,
    "ı": 226,
    "Ĵ": 227,
    "ĵ": 228,
    "Ķ": 229,
    "ķ": 230,
    "ĸ": 231,
    "ĺ": 232,
    "ļ": 233,
    "Ľ": 234,
    "ľ": 235,
    "Ł": 236,
    "ł": 237,
    "ń": 238,
    "ņ": 239,
    "ň": 240,
    "Ŋ": 241,
    "ŋ": 242,
    "Ō": 243,
    "ō": 244,
    "Ŏ": 245,
    "ŏ": 246,
    "Ő": 247,
    "ő": 248,
    "Œ": 249,
    "œ": 250,
    "ŕ": 251,
    "Ŗ": 252,
    "ŗ": 253,
    "Ř": 254,
    "ř": 255,
    "Ś": 256,
    "ś": 257,
    "Ŝ": 258,
    "ŝ": 259,
    "Ş": 260,
    "ş": 261,
    "Š": 262,
    "š": 263,
    "Ţ": 264,
    "ţ": 265,
    "Ť": 266,
    "ť": 267,
    "ŧ": 268,
    "Ũ": 269,
    "ũ": 270,
    "Ū": 271,
    "ū": 272,
    "ŭ": 273,
    "Ů": 274,
    "ů": 275,
    "Ű": 276,
    "ű": 277,
    "Ų": 278,
    "ų": 279,
    "Ŵ": 280,
    "ŵ": 281,
    "ŷ": 282,
    "Ÿ": 283,
    "Ź": 284,
    "ź": 285,
    "Ż": 286,
    "ż": 287,
    "Ž": 288,
    "ž": 289,
    "ƀ": 290,
    "Ɔ": 291,
    "Ɖ": 292,
    "Ǝ": 293,
    "Ə": 294,
    "Ɛ": 295,
    "ƒ": 296,
    "Ɣ": 297,
    "ƕ": 298,
    "Ɩ": 299,
    "Ɨ": 300,
    "ƛ": 301,
    "Ɯ": 302,
    "Ɲ": 303,
    "ƞ": 304,
    "ơ": 305,
    "Ƨ": 306,
    "Ư": 307,
    "ư": 308,
    "Ʒ": 309,
    "ǀ": 310,
    "ǁ": 311,
    "ǃ": 312,
    "ǎ": 313,
    "ǐ": 314,
    "ǒ": 315,
    "ǔ": 316,
    "ǖ": 317,
    "ǘ": 318,
    "ǚ": 319,
    "ǝ": 320,
    "Ǣ": 321,
    "ǣ": 322,
    "ǥ": 323,
    "Ǧ": 324,
    "ǧ": 325,
    "ǫ": 326,
    "Ǭ": 327,
    "ǭ": 328,
    "Ǵ": 329,
    "Ƕ": 330,
    "ǹ": 331,
    "ǿ": 332,
    "ȇ": 333,
    "Ș": 334,
    "ș": 335,
    "Ț": 336,
    "ț": 337,
    "ȝ": 338,
    "ȟ": 339,
    "ȣ": 340,
    "ȧ": 341,
    "ȩ": 342,
    "ȯ": 343,
    "Ȳ": 344,
    "ȳ": 345,
    "ȼ": 346,
    "Ɂ": 347,
    "ɂ": 348,
    "Ƀ": 349,
    "Ʉ": 350,
    "ɐ": 351,
    "ɑ": 352,
    "ɒ": 353,
    "ɓ": 354,
    "ɔ": 355,
    "ɕ": 356,
    "ɖ": 357,
    "ɘ": 358,
    "ə": 359,
    "ɚ": 360,
    "ɛ": 361,
    "ɜ": 362,
    "ɝ": 363,
    "ɞ": 364,
    "ɟ": 365,
    "ɡ": 366,
    "ɢ": 367,
    "ɣ": 368,
    "ɤ": 369,
    "ɥ": 370,
    "ɦ": 371,
    "ɨ": 372,
    "ɩ": 373,
    "ɪ": 374,
    "ɫ": 375,
    "ɬ": 376,
    "ɯ": 377,
    "ɰ": 378,
    "ɲ": 379,
    "ɳ": 380,
    "ɴ": 381,
    "ɵ": 382,
    "ɸ": 383,
    "ɹ": 384,
    "ɺ": 385,
    "ɻ": 386,
    "ɽ": 387,
    "ɾ": 388,
    "ʀ": 389,
    "ʁ": 390,
    "ʂ": 391,
    "ʃ": 392,
    "ʄ": 393,
    "ʇ": 394,
    "ʈ": 395,
    "ʉ": 396,
    "ʊ": 397,
    "ʋ": 398,
    "ʌ": 399,
    "ʍ": 400,
    "ʎ": 401,
    "ʏ": 402,
    "ʐ": 403,
    "ʑ": 404,
    "ʒ": 405,
    "ʔ": 406,
    "ʕ": 407,
    "ʙ": 408,
    "ʝ": 409,
    "ʟ": 410,
    "ʣ": 411,
    "ʤ": 412,
    "ʥ": 413,
    "ʦ": 414,
    "ʧ": 415,
    "ʹ": 416,
    "ʺ": 417,
    "ʻ": 418,
    "ʼ": 419,
    "ʽ": 420,
    "ʾ": 421,
    "ʿ": 422,
    "ˀ": 423,
    "ˁ": 424,
    "ˆ": 425,
    "ˇ": 426,
    "ˈ": 427,
    "ˊ": 428,
    "ˋ": 429,
    "ˌ": 430,
    "ˏ": 431,
    "ː": 432,
    "˕": 433,
    "˞": 434,
    "˥": 435,
    "˦": 436,
    "˧": 437,
    "˨": 438,
    "˩": 439,
    "ˮ": 440,
    "̀": 441,
    "́": 442,
    "̂": 443,
    "̃": 444,
    "̄": 445,
    "̅": 446,
    "̆": 447,
    "̇": 448,
    "̈": 449,
    "̉": 450,
    "̊": 451,
    "̋": 452,
    "̌": 453,
    "̍": 454,
    "̏": 455,
    "̐": 456,
    "̑": 457,
    "̓": 458,
    "̔": 459,
    "̕": 460,
    "̗": 461,
    "̚": 462,
    "̜": 463,
    "̝": 464,
    "̞": 465,
    "̟": 466,
    "̠": 467,
    "̣": 468,
    "̤": 469,
    "̥": 470,
    "̦": 471,
    "̧": 472,
    "̨": 473,
    "̩": 474,
    "̪": 475,
    "̯": 476,
    "̰": 477,
    "̱": 478,
    "̲": 479,
    "̴": 480,
    "̵": 481,
    "̶": 482,
    "͈": 483,
    "͏": 484,
    "͘": 485,
    "͜": 486,
    "͟": 487,
    "͡": 488,
    "ͤ": 489,
    "Ά": 490,
    "Έ": 491,
    "Ή": 492,
    "Ί": 493,
    "Ό": 494,
    "Ύ": 495,
    "ΐ": 496,
    "Α": 497,
    "Β": 498,
    "Γ": 499,
    "Δ": 500,
    "Ε": 501,
    "Ζ": 502,
    "Η": 503,
    "Θ": 504,
    "Ι": 505,
    "Κ": 506,
    "Λ": 507,
    "Μ": 508,
    "Ν": 509,
    "Ξ": 510,
    "Ο": 511,
    "Π": 512,
    "Ρ": 513,
    "Σ": 514,
    "Τ": 515,
    "Υ": 516,
    "Φ": 517,
    "Χ": 518,
    "Ψ": 519,
    "Ω": 520,
    "Ϋ": 521,
    "ά": 522,
    "έ": 523,
    "ή": 524,
    "ί": 525,
    "ΰ": 526,
    "α": 527,
    "β": 528,
    "γ": 529,
    "δ": 530,
    "ε": 531,
    "ζ": 532,
    "η": 533,
    "θ": 534,
    "ι": 535,
    "κ": 536,
    "λ": 537,
    "μ": 538,
    "ν": 539,
    "ξ": 540,
    "ο": 541,
    "π": 542,
    "ρ": 543,
    "ς": 544,
    "σ": 545,
    "τ": 546,
    "υ": 547,
    "φ": 548,
    "χ": 549,
    "ψ": 550,
    "ω": 551,
    "ϊ": 552,
    "ό": 553,
    "ύ": 554,
    "ώ": 555,
    "ϛ": 556,
    "Ϫ": 557,
    "ϫ": 558,
    "Ё": 559,
    "Ђ": 560,
    "Ѓ": 561,
    "Є": 562,
    "Ѕ": 563,
    "І": 564,
    "Ї": 565,
    "Ј": 566,
    "Љ": 567,
    "Њ": 568,
    "Ћ": 569,
    "Ќ": 570,
    "Ѝ": 571,
    "Ў": 572,
    "Џ": 573,
    "А": 574,
    "Б": 575,
    "В": 576,
    "Г": 577,
    "Д": 578,
    "Е": 579,
    "Ж": 580,
    "З": 581,
    "И": 582,
    "Й": 583,
    "К": 584,
    "Л": 585,
    "М": 586,
    "Н": 587,
    "О": 588,
    "П": 589,
    "Р": 590,
    "С": 591,
    "Т": 592,
    "У": 593,
    "Ф": 594,
    "Х": 595,
    "Ц": 596,
    "Ч": 597,
    "Ш": 598,
    "Щ": 599,
    "Ъ": 600,
    "Ы": 601,
    "Ь": 602,
    "Э": 603,
    "Ю": 604,
    "Я": 605,
    "а": 606,
    "б": 607,
    "в": 608,
    "г": 609,
    "д": 610,
    "е": 611,
    "ж": 612,
    "з": 613,
    "и": 614,
    "й": 615,
    "к": 616,
    "л": 617,
    "м": 618,
    "н": 619,
    "о": 620,
    "п": 621,
    "р": 622,
    "с": 623,
    "т": 624,
    "у": 625,
    "ф": 626,
    "х": 627,
    "ц": 628,
    "ч": 629,
    "ш": 630,
    "щ": 631,
    "ъ": 632,
    "ы": 633,
    "ь": 634,
    "э": 635,
    "ю": 636,
    "я": 637,
    "ѐ": 638,
    "ё": 639,
    "ђ": 640,
    "ѓ": 641,
    "є": 642,
    "ѕ": 643,
    "і": 644,
    "ї": 645,
    "ј": 646,
    "љ": 647,
    "њ": 648,
    "ћ": 649,
    "ќ": 650,
    "ѝ": 651,
    "ў": 652,
    "џ": 653,
    "Ѡ": 654,
    "ѡ": 655,
    "ѣ": 656,
    "ѧ": 657,
    "ѫ": 658,
    "ѳ": 659,
    "ѵ": 660,
    "Ѷ": 661,
    "ѷ": 662,
    "Ѻ": 663,
    "ѻ": 664,
    "Ѽ": 665,
    "ѽ": 666,
    "Ѿ": 667,
    "҃": 668,
    "҄": 669,
    "҅": 670,
    "҆": 671,
    "҇": 672,
    "҉": 673,
    "Ҋ": 674,
    "ҋ": 675,
    "ҍ": 676,
    "Ҏ": 677,
    "ҏ": 678,
    "Ґ": 679,
    "ґ": 680,
    "Ғ": 681,
    "ғ": 682,
    "Ҕ": 683,
    "ҕ": 684,
    "Җ": 685,
    "җ": 686,
    "Ҙ": 687,
    "ҙ": 688,
    "Қ": 689,
    "қ": 690,
    "Ҝ": 691,
    "ҝ": 692,
    "Ҟ": 693,
    "ҟ": 694,
    "Ң": 695,
    "ң": 696,
    "Ҥ": 697,
    "ҥ": 698,
    "Ҧ": 699,
    "ҧ": 700,
    "Ҫ": 701,
    "ҫ": 702,
    "Ҭ": 703,
    "ҭ": 704,
    "Ү": 705,
    "ү": 706,
    "Ұ": 707,
    "ұ": 708,
    "Ҳ": 709,
    "ҳ": 710,
    "ҵ": 711,
    "Ҷ": 712,
    "ҷ": 713,
    "Ҹ": 714,
    "ҹ": 715,
    "һ": 716,
    "Ҿ": 717,
    "ҿ": 718,
    "Ӏ": 719,
    "Ӂ": 720,
    "ӂ": 721,
    "Ӄ": 722,
    "ӄ": 723,
    "Ӆ": 724,
    "ӆ": 725,
    "Ӈ": 726,
    "ӈ": 727,
    "Ӊ": 728,
    "ӊ": 729,
    "Ӎ": 730,
    "ӎ": 731,
    "Ӑ": 732,
    "ӑ": 733,
    "Ӓ": 734,
    "ӓ": 735,
    "ӕ": 736,
    "Ӗ": 737,
    "ӗ": 738,
    "Ә": 739,
    "ә": 740,
    "Ӛ": 741,
    "ӛ": 742,
    "Ӝ": 743,
    "ӝ": 744,
    "Ӟ": 745,
    "ӟ": 746,
    "ӡ": 747,
    "Ӣ": 748,
    "ӣ": 749,
    "Ӥ": 750,
    "ӥ": 751,
    "Ӧ": 752,
    "ӧ": 753,
    "Ө": 754,
    "ө": 755,
    "Ӭ": 756,
    "ӭ": 757,
    "Ӯ": 758,
    "ӯ": 759,
    "Ӱ": 760,
    "ӱ": 761,
    "Ӳ": 762,
    "ӳ": 763,
    "Ӵ": 764,
    "ӵ": 765,
    "Ӹ": 766,
    "ӹ": 767,
    "Ӻ": 768,
    "ӻ": 769,
    "ӽ": 770,
    "Ԑ": 771,
    "ԓ": 772,
    "Ԛ": 773,
    "ԛ": 774,
    "ԥ": 775,
    "Ա": 776,
    "Բ": 777,
    "Գ": 778,
    "Դ": 779,
    "Ե": 780,
    "Զ": 781,
    "Է": 782,
    "Ը": 783,
    "Թ": 784,
    "Ժ": 785,
    "Ի": 786,
    "Լ": 787,
    "Խ": 788,
    "Կ": 789,
    "Հ": 790,
    "Ղ": 791,
    "Մ": 792,
    "Ն": 793,
    "Շ": 794,
    "Ո": 795,
    "Չ": 796,
    "Պ": 797,
    "Ջ": 798,
    "Ռ": 799,
    "Ս": 800,
    "Վ": 801,
    "Տ": 802,
    "Ց": 803,
    "Փ": 804,
    "Ք": 805,
    "Ֆ": 806,
    "ա": 807,
    "բ": 808,
    "գ": 809,
    "դ": 810,
    "ե": 811,
    "զ": 812,
    "է": 813,
    "ը": 814,
    "թ": 815,
    "ժ": 816,
    "ի": 817,
    "լ": 818,
    "խ": 819,
    "ծ": 820,
    "կ": 821,
    "հ": 822,
    "ձ": 823,
    "ղ": 824,
    "ճ": 825,
    "մ": 826,
    "յ": 827,
    "ն": 828,
    "շ": 829,
    "ո": 830,
    "չ": 831,
    "պ": 832,
    "ջ": 833,
    "ռ": 834,
    "ս": 835,
    "վ": 836,
    "տ": 837,
    "ր": 838,
    "ց": 839,
    "ւ": 840,
    "փ": 841,
    "ք": 842,
    "օ": 843,
    "ֆ": 844,
    "ְ": 845,
    "ֲ": 846,
    "ִ": 847,
    "ֵ": 848,
    "ֶ": 849,
    "ַ": 850,
    "ָ": 851,
    "ֹ": 852,
    "ּ": 853,
    "ֽ": 854,
    "־": 855,
    "׀": 856,
    "ׁ": 857,
    "ׂ": 858,
    "א": 859,
    "ב": 860,
    "ג": 861,
    "ד": 862,
    "ה": 863,
    "ו": 864,
    "ז": 865,
    "ח": 866,
    "ט": 867,
    "י": 868,
    "ך": 869,
    "כ": 870,
    "ל": 871,
    "ם": 872,
    "מ": 873,
    "ן": 874,
    "נ": 875,
    "ס": 876,
    "ע": 877,
    "ף": 878,
    "פ": 879,
    "ץ": 880,
    "צ": 881,
    "ק": 882,
    "ר": 883,
    "ש": 884,
    "ת": 885,
    "ײ": 886,
    "׳": 887,
    "״": 888,
    "،": 889,
    "؟": 890,
    "ؠ": 891,
    "ء": 892,
    "آ": 893,
    "أ": 894,
    "ؤ": 895,
    "إ": 896,
    "ئ": 897,
    "ا": 898,
    "ب": 899,
    "ة": 900,
    "ت": 901,
    "ث": 902,
    "ج": 903,
    "ح": 904,
    "خ": 905,
    "د": 906,
    "ذ": 907,
    "ر": 908,
    "ز": 909,
    "س": 910,
    "ش": 911,
    "ص": 912,
    "ض": 913,
    "ط": 914,
    "ظ": 915,
    "ع": 916,
    "غ": 917,
    "ـ": 918,
    "ف": 919,
    "ق": 920,
    "ك": 921,
    "ل": 922,
    "م": 923,
    "ن": 924,
    "ه": 925,
    "و": 926,
    "ى": 927,
    "ي": 928,
    "ً": 929,
    "ٌ": 930,
    "ٍ": 931,
    "َ": 932,
    "ُ": 933,
    "ِ": 934,
    "ّ": 935,
    "ْ": 936,
    "ٔ": 937,
    "ٰ": 938,
    "ٱ": 939,
    "ٹ": 940,
    "پ": 941,
    "چ": 942,
    "ڈ": 943,
    "ڑ": 944,
    "ژ": 945,
    "ښ": 946,
    "ڤ": 947,
    "ڨ": 948,
    "ک": 949,
    "ګ": 950,
    "گ": 951,
    "ڵ": 952,
    "ں": 953,
    "ھ": 954,
    "ہ": 955,
    "ۆ": 956,
    "ۇ": 957,
    "ی": 958,
    "ۍ": 959,
    "ێ": 960,
    "ے": 961,
    "ە": 962,
    "ۡ": 963,
    "ۢ": 964,
    "ۤ": 965,
    "ۥ": 966,
    "ۭ": 967,
    "۲": 968,
    "۳": 969,
    "۵": 970,
    "ܐ": 971,
    "ܒ": 972,
    "ܓ": 973,
    "ܕ": 974,
    "ܗ": 975,
    "ܘ": 976,
    "ܙ": 977,
    "ܛ": 978,
    "ܝ": 979,
    "ܟ": 980,
    "ܠ": 981,
    "ܡ": 982,
    "ܢ": 983,
    "ܣ": 984,
    "ܥ": 985,
    "ܦ": 986,
    "ܩ": 987,
    "ܪ": 988,
    "ܫ": 989,
    "ܬ": 990,
    "ܳ": 991,
    "ܺ": 992,
    "ݒ": 993,
    "ݠ": 994,
    "ݳ": 995,
    "ހ": 996,
    "ށ": 997,
    "ނ": 998,
    "ރ": 999,
    "ކ": 1000,
    "އ": 1001,
    "ވ": 1002,
    "މ": 1003,
    "ފ": 1004,
    "ދ": 1005,
    "ލ": 1006,
    "ގ": 1007,
    "ސ": 1008,
    "ޔ": 1009,
    "ޖ": 1010,
    "ޠ": 1011,
    "ޢ": 1012,
    "ަ": 1013,
    "ާ": 1014,
    "ި": 1015,
    "ީ": 1016,
    "ު": 1017,
    "ޫ": 1018,
    "ެ": 1019,
    "ޭ": 1020,
    "ޮ": 1021,
    "ް": 1022,
    "ࣰ": 1023,
    "ࣱ": 1024,
    "ࣲ": 1025,
    "ं": 1026,
    "ः": 1027,
    "अ": 1028,
    "आ": 1029,
    "इ": 1030,
    "ई": 1031,
    "उ": 1032,
    "ऋ": 1033,
    "ए": 1034,
    "क": 1035,
    "ख": 1036,
    "ग": 1037,
    "घ": 1038,
    "ङ": 1039,
    "च": 1040,
    "छ": 1041,
    "ज": 1042,
    "झ": 1043,
    "ञ": 1044,
    "ट": 1045,
    "ड": 1046,
    "ढ": 1047,
    "ण": 1048,
    "त": 1049,
    "थ": 1050,
    "द": 1051,
    "ध": 1052,
    "न": 1053,
    "प": 1054,
    "फ": 1055,
    "ब": 1056,
    "भ": 1057,
    "म": 1058,
    "य": 1059,
    "र": 1060,
    "ऱ": 1061,
    "ल": 1062,
    "व": 1063,
    "श": 1064,
    "ष": 1065,
    "स": 1066,
    "ह": 1067,
    "़": 1068,
    "ा": 1069,
    "ि": 1070,
    "ी": 1071,
    "ु": 1072,
    "ू": 1073,
    "ृ": 1074,
    "े": 1075,
    "ै": 1076,
    "ॉ": 1077,
    "ो": 1078,
    "ौ": 1079,
    "्": 1080,
    "ॐ": 1081,
    "ং": 1082,
    "আ": 1083,
    "ই": 1084,
    "ঈ": 1085,
    "উ": 1086,
    "ক": 1087,
    "খ": 1088,
    "গ": 1089,
    "ঘ": 1090,
    "ঙ": 1091,
    "চ": 1092,
    "ছ": 1093,
    "জ": 1094,
    "ঝ": 1095,
    "ঞ": 1096,
    "ট": 1097,
    "ঠ": 1098,
    "ড": 1099,
    "ঢ": 1100,
    "ণ": 1101,
    "ত": 1102,
    "থ": 1103,
    "দ": 1104,
    "ধ": 1105,
    "ন": 1106,
    "প": 1107,
    "ফ": 1108,
    "ব": 1109,
    "ভ": 1110,
    "ম": 1111,
    "য": 1112,
    "র": 1113,
    "ল": 1114,
    "শ": 1115,
    "স": 1116,
    "হ": 1117,
    "়": 1118,
    "া": 1119,
    "ি": 1120,
    "ী": 1121,
    "ু": 1122,
    "ূ": 1123,
    "ে": 1124,
    "ৈ": 1125,
    "ো": 1126,
    "ৌ": 1127,
    "্": 1128,
    "০": 1129,
    "৫": 1130,
    "৳": 1131,
    "ਕ": 1132,
    "ਗ": 1133,
    "ਘ": 1134,
    "ਜ": 1135,
    "ਟ": 1136,
    "ਤ": 1137,
    "ਦ": 1138,
    "ਨ": 1139,
    "ਪ": 1140,
    "ਬ": 1141,
    "ਯ": 1142,
    "ਰ": 1143,
    "ਲ": 1144,
    "ਵ": 1145,
    "ਸ": 1146,
    "ਹ": 1147,
    "ਾ": 1148,
    "ਿ": 1149,
    "ੀ": 1150,
    "ੂ": 1151,
    "ੰ": 1152,
    "ઉ": 1153,
    "છ": 1154,
    "ટ": 1155,
    "ડ": 1156,
    "ત": 1157,
    "દ": 1158,
    "ન": 1159,
    "પ": 1160,
    "મ": 1161,
    "ય": 1162,
    "ર": 1163,
    "ા": 1164,
    "ી": 1165,
    "ુ": 1166,
    "ે": 1167,
    "ો": 1168,
    "્": 1169,
    "ଅ": 1170,
    "ଗ": 1171,
    "ଟ": 1172,
    "ତ": 1173,
    "ନ": 1174,
    "ପ": 1175,
    "ମ": 1176,
    "ା": 1177,
    "ି": 1178,
    "ୁ": 1179,
    "ୋ": 1180,
    "୍": 1181,
    "அ": 1182,
    "ஆ": 1183,
    "இ": 1184,
    "உ": 1185,
    "எ": 1186,
    "ஒ": 1187,
    "ஓ": 1188,
    "க": 1189,
    "ங": 1190,
    "ச": 1191,
    "ஜ": 1192,
    "ட": 1193,
    "ண": 1194,
    "த": 1195,
    "ந": 1196,
    "ன": 1197,
    "ப": 1198,
    "ம": 1199,
    "ய": 1200,
    "ர": 1201,
    "ற": 1202,
    "ல": 1203,
    "ள": 1204,
    "ழ": 1205,
    "வ": 1206,
    "ஷ": 1207,
    "ஸ": 1208,
    "ா": 1209,
    "ி": 1210,
    "ீ": 1211,
    "ு": 1212,
    "ூ": 1213,
    "ெ": 1214,
    "ே": 1215,
    "ை": 1216,
    "ொ": 1217,
    "ோ": 1218,
    "்": 1219,
    "ం": 1220,
    "క": 1221,
    "ఖ": 1222,
    "గ": 1223,
    "చ": 1224,
    "డ": 1225,
    "ద": 1226,
    "ధ": 1227,
    "న": 1228,
    "ప": 1229,
    "మ": 1230,
    "ర": 1231,
    "ల": 1232,
    "స": 1233,
    "ా": 1234,
    "ి": 1235,
    "ు": 1236,
    "ె": 1237,
    "ొ": 1238,
    "్": 1239,
    "ಂ": 1240,
    "ಅ": 1241,
    "ಕ": 1242,
    "ಚ": 1243,
    "ಜ": 1244,
    "ಟ": 1245,
    "ಡ": 1246,
    "ಣ": 1247,
    "ನ": 1248,
    "ಪ": 1249,
    "ಮ": 1250,
    "ಯ": 1251,
    "ರ": 1252,
    "ವ": 1253,
    "ಾ": 1254,
    "ಿ": 1255,
    "ೀ": 1256,
    "ು": 1257,
    "ೂ": 1258,
    "ೊ": 1259,
    "್": 1260,
    "ം": 1261,
    "അ": 1262,
    "ക": 1263,
    "ഗ": 1264,
    "ങ": 1265,
    "ച": 1266,
    "ജ": 1267,
    "ഞ": 1268,
    "ട": 1269,
    "ഡ": 1270,
    "ണ": 1271,
    "ത": 1272,
    "ദ": 1273,
    "ന": 1274,
    "പ": 1275,
    "ബ": 1276,
    "മ": 1277,
    "യ": 1278,
    "ര": 1279,
    "റ": 1280,
    "ല": 1281,
    "ള": 1282,
    "വ": 1283,
    "ശ": 1284,
    "സ": 1285,
    "ാ": 1286,
    "ി": 1287,
    "ീ": 1288,
    "ു": 1289,
    "ൂ": 1290,
    "േ": 1291,
    "ൈ": 1292,
    "ൊ": 1293,
    "ോ": 1294,
    "്": 1295,
    "ൻ": 1296,
    "ർ": 1297,
    "ං": 1298,
    "අ": 1299,
    "ඉ": 1300,
    "ක": 1301,
    "ග": 1302,
    "ච": 1303,
    "ට": 1304,
    "ඩ": 1305,
    "ණ": 1306,
    "ත": 1307,
    "ථ": 1308,
    "ද": 1309,
    "න": 1310,
    "ප": 1311,
    "බ": 1312,
    "භ": 1313,
    "ම": 1314,
    "ය": 1315,
    "ර": 1316,
    "ල": 1317,
    "ව": 1318,
    "ශ": 1319,
    "ස": 1320,
    "ළ": 1321,
    "්": 1322,
    "ා": 1323,
    "ැ": 1324,
    "ි": 1325,
    "ී": 1326,
    "ු": 1327,
    "ෙ": 1328,
    "ේ": 1329,
    "ො": 1330,
    "ෝ": 1331,
    "ก": 1332,
    "ข": 1333,
    "ค": 1334,
    "ฆ": 1335,
    "ง": 1336,
    "จ": 1337,
    "ฉ": 1338,
    "ช": 1339,
    "ซ": 1340,
    "ฌ": 1341,
    "ญ": 1342,
    "ฎ": 1343,
    "ฐ": 1344,
    "ฑ": 1345,
    "ฒ": 1346,
    "ณ": 1347,
    "ด": 1348,
    "ต": 1349,
    "ถ": 1350,
    "ท": 1351,
    "ธ": 1352,
    "น": 1353,
    "บ": 1354,
    "ป": 1355,
    "ผ": 1356,
    "ฝ": 1357,
    "พ": 1358,
    "ฟ": 1359,
    "ภ": 1360,
    "ม": 1361,
    "ย": 1362,
    "ร": 1363,
    "ฤ": 1364,
    "ล": 1365,
    "ว": 1366,
    "ศ": 1367,
    "ษ": 1368,
    "ส": 1369,
    "ห": 1370,
    "อ": 1371,
    "ฮ": 1372,
    "ะ": 1373,
    "ั": 1374,
    "า": 1375,
    "ิ": 1376,
    "ี": 1377,
    "ึ": 1378,
    "ื": 1379,
    "ุ": 1380,
    "ู": 1381,
    "฿": 1382,
    "เ": 1383,
    "แ": 1384,
    "โ": 1385,
    "ใ": 1386,
    "ไ": 1387,
    "็": 1388,
    "่": 1389,
    "้": 1390,
    "๊": 1391,
    "๋": 1392,
    "์": 1393,
    "ํ": 1394,
    "๐": 1395,
    "๒": 1396,
    "๙": 1397,
    "ກ": 1398,
    "ງ": 1399,
    "ຍ": 1400,
    "ດ": 1401,
    "ຖ": 1402,
    "ນ": 1403,
    "ບ": 1404,
    "ຜ": 1405,
    "ພ": 1406,
    "ມ": 1407,
    "ລ": 1408,
    "ວ": 1409,
    "ສ": 1410,
    "ຫ": 1411,
    "ອ": 1412,
    "ະ": 1413,
    "ັ": 1414,
    "າ": 1415,
    "ີ": 1416,
    "ູ": 1417,
    "ຽ": 1418,
    "ເ": 1419,
    "ແ": 1420,
    "້": 1421,
    "ໍ": 1422,
    "་": 1423,
    "།": 1424,
    "ཀ": 1425,
    "ཁ": 1426,
    "ག": 1427,
    "ང": 1428,
    "ཅ": 1429,
    "ཆ": 1430,
    "ཇ": 1431,
    "ཉ": 1432,
    "ཏ": 1433,
    "ཐ": 1434,
    "ད": 1435,
    "ན": 1436,
    "པ": 1437,
    "ཕ": 1438,
    "བ": 1439,
    "མ": 1440,
    "ཙ": 1441,
    "ཚ": 1442,
    "ཛ": 1443,
    "ཝ": 1444,
    "ཞ": 1445,
    "ཟ": 1446,
    "འ": 1447,
    "ཡ": 1448,
    "ར": 1449,
    "ལ": 1450,
    "ཤ": 1451,
    "ས": 1452,
    "ཨ": 1453,
    "ི": 1454,
    "ུ": 1455,
    "ེ": 1456,
    "ོ": 1457,
    "ྐ": 1458,
    "ྒ": 1459,
    "ྗ": 1460,
    "ྙ": 1461,
    "ྟ": 1462,
    "ྡ": 1463,
    "ྣ": 1464,
    "ྦ": 1465,
    "ྨ": 1466,
    "ྩ": 1467,
    "ྫ": 1468,
    "ྱ": 1469,
    "ྲ": 1470,
    "ླ": 1471,
    "ྶ": 1472,
    "ྷ": 1473,
    "က": 1474,
    "ခ": 1475,
    "င": 1476,
    "စ": 1477,
    "ဇ": 1478,
    "ည": 1479,
    "ဏ": 1480,
    "တ": 1481,
    "ဒ": 1482,
    "န": 1483,
    "ပ": 1484,
    "ဗ": 1485,
    "မ": 1486,
    "ယ": 1487,
    "ရ": 1488,
    "လ": 1489,
    "ဝ": 1490,
    "သ": 1491,
    "ဟ": 1492,
    "အ": 1493,
    "ါ": 1494,
    "ာ": 1495,
    "ိ": 1496,
    "ီ": 1497,
    "ု": 1498,
    "ူ": 1499,
    "ေ": 1500,
    "ံ": 1501,
    "့": 1502,
    "း": 1503,
    "္": 1504,
    "်": 1505,
    "ျ": 1506,
    "ြ": 1507,
    "ွ": 1508,
    "ှ": 1509,
    "ა": 1510,
    "ბ": 1511,
    "გ": 1512,
    "დ": 1513,
    "ე": 1514,
    "ვ": 1515,
    "ზ": 1516,
    "თ": 1517,
    "ი": 1518,
    "კ": 1519,
    "ლ": 1520,
    "მ": 1521,
    "ნ": 1522,
    "ო": 1523,
    "პ": 1524,
    "ჟ": 1525,
    "რ": 1526,
    "ს": 1527,
    "ტ": 1528,
    "უ": 1529,
    "ფ": 1530,
    "ქ": 1531,
    "ღ": 1532,
    "ყ": 1533,
    "შ": 1534,
    "ჩ": 1535,
    "ც": 1536,
    "ძ": 1537,
    "წ": 1538,
    "ჭ": 1539,
    "ხ": 1540,
    "ჯ": 1541,
    "ᄀ": 1542,
    "ᄏ": 1543,
    "ᅡ": 1544,
    "ᅩ": 1545,
    "ᅪ": 1546,
    "ᅯ": 1547,
    "ሀ": 1548,
    "ሃ": 1549,
    "ህ": 1550,
    "ለ": 1551,
    "ሉ": 1552,
    "ላ": 1553,
    "ል": 1554,
    "ሕ": 1555,
    "መ": 1556,
    "ሚ": 1557,
    "ማ": 1558,
    "ሜ": 1559,
    "ም": 1560,
    "ሞ": 1561,
    "ሠ": 1562,
    "ሥ": 1563,
    "ረ": 1564,
    "ሪ": 1565,
    "ራ": 1566,
    "ሬ": 1567,
    "ር": 1568,
    "ሰ": 1569,
    "ሱ": 1570,
    "ሲ": 1571,
    "ስ": 1572,
    "ሻ": 1573,
    "ሽ": 1574,
    "ቀ": 1575,
    "ቁ": 1576,
    "ቅ": 1577,
    "በ": 1578,
    "ቡ": 1579,
    "ባ": 1580,
    "ቤ": 1581,
    "ብ": 1582,
    "ተ": 1583,
    "ቱ": 1584,
    "ቲ": 1585,
    "ታ": 1586,
    "ት": 1587,
    "ነ": 1588,
    "ኒ": 1589,
    "ና": 1590,
    "ኔ": 1591,
    "ን": 1592,
    "ኝ": 1593,
    "አ": 1594,
    "ኢ": 1595,
    "ኣ": 1596,
    "ኤ": 1597,
    "እ": 1598,
    "ከ": 1599,
    "ኩ": 1600,
    "ካ": 1601,
    "ክ": 1602,
    "ኮ": 1603,
    "ኵ": 1604,
    "ኸ": 1605,
    "ኹ": 1606,
    "ወ": 1607,
    "ዊ": 1608,
    "ዋ": 1609,
    "ው": 1610,
    "ዓ": 1611,
    "ዘ": 1612,
    "ዚ": 1613,
    "ዞ": 1614,
    "የ": 1615,
    "ዬ": 1616,
    "ይ": 1617,
    "ዮ": 1618,
    "ደ": 1619,
    "ዳ": 1620,
    "ዴ": 1621,
    "ድ": 1622,
    "ዶ": 1623,
    "ገ": 1624,
    "ጉ": 1625,
    "ጋ": 1626,
    "ግ": 1627,
    "ጐ": 1628,
    "ጤ": 1629,
    "ጥ": 1630,
    "ፀ": 1631,
    "ፈ": 1632,
    "ፋ": 1633,
    "ፌ": 1634,
    "ፍ": 1635,
    "ፕ": 1636,
    "ᐃ": 1637,
    "ᐅ": 1638,
    "ᐊ": 1639,
    "ᐏ": 1640,
    "ᐜ": 1641,
    "ᐣ": 1642,
    "ᐤ": 1643,
    "ᐦ": 1644,
    "ᑕ": 1645,
    "ᑦ": 1646,
    "ᑭ": 1647,
    "ᒃ": 1648,
    "ᒋ": 1649,
    "ᒐ": 1650,
    "ᒑ": 1651,
    "ᒡ": 1652,
    "ᒥ": 1653,
    "ᒧ": 1654,
    "ᒪ": 1655,
    "ᓂ": 1656,
    "ᓃ": 1657,
    "ᓄ": 1658,
    "ᓇ": 1659,
    "ᓈ": 1660,
    "ᓗ": 1661,
    "ᓪ": 1662,
    "ᓴ": 1663,
    "ᔅ": 1664,
    "ᔑ": 1665,
    "ᔪ": 1666,
    "ᔫ": 1667,
    "ᕐ": 1668,
    "ᕕ": 1669,
    "ᕝ": 1670,
    "ᕿ": 1671,
    "ᖅ": 1672,
    "ᙳ": 1673,
    "ᚠ": 1674,
    "ᚢ": 1675,
    "ᚦ": 1676,
    "ᚨ": 1677,
    "ᚱ": 1678,
    "ᚲ": 1679,
    "ᚷ": 1680,
    "ᚹ": 1681,
    "ᚺ": 1682,
    "ᚾ": 1683,
    "ᛁ": 1684,
    "ᛃ": 1685,
    "ᛇ": 1686,
    "ᛈ": 1687,
    "ᛉ": 1688,
    "ᛊ": 1689,
    "ᛋ": 1690,
    "ᛏ": 1691,
    "ᛒ": 1692,
    "ᛖ": 1693,
    "ᛗ": 1694,
    "ᛚ": 1695,
    "ᛜ": 1696,
    "ᛞ": 1697,
    "ᛟ": 1698,
    "ᛣ": 1699,
    "ᛦ": 1700,
    "ក": 1701,
    "ខ": 1702,
    "គ": 1703,
    "ង": 1704,
    "ច": 1705,
    "ជ": 1706,
    "ញ": 1707,
    "ដ": 1708,
    "ឋ": 1709,
    "ត": 1710,
    "ទ": 1711,
    "ន": 1712,
    "ប": 1713,
    "ព": 1714,
    "ភ": 1715,
    "ម": 1716,
    "យ": 1717,
    "រ": 1718,
    "ល": 1719,
    "ស": 1720,
    "ហ": 1721,
    "ឡ": 1722,
    "អ": 1723,
    "ឥ": 1724,
    "ា": 1725,
    "ិ": 1726,
    "ី": 1727,
    "ុ": 1728,
    "ូ": 1729,
    "ួ": 1730,
    "ឿ": 1731,
    "េ": 1732,
    "ែ": 1733,
    "ៃ": 1734,
    "ោ": 1735,
    "ៅ": 1736,
    "ំ": 1737,
    "ះ": 1738,
    "៉": 1739,
    "៊": 1740,
    "់": 1741,
    "័": 1742,
    "្": 1743,
    "᠋": 1744,
    "᠌": 1745,
    "ᠠ": 1746,
    "ᠡ": 1747,
    "ᠢ": 1748,
    "ᠣ": 1749,
    "ᠤ": 1750,
    "ᠥ": 1751,
    "ᠦ": 1752,
    "ᠧ": 1753,
    "ᠨ": 1754,
    "ᠩ": 1755,
    "ᠪ": 1756,
    "ᠬ": 1757,
    "ᠭ": 1758,
    "ᠮ": 1759,
    "ᠯ": 1760,
    "ᠰ": 1761,
    "ᠲ": 1762,
    "ᠳ": 1763,
    "ᠴ": 1764,
    "ᠵ": 1765,
    "ᠶ": 1766,
    "ᠷ": 1767,
    "ᠸ": 1768,
    "ᡠ": 1769,
    "ᡤ": 1770,
    "ᡩ": 1771,
    "ᨀ": 1772,
    "ᨄ": 1773,
    "ᨅ": 1774,
    "ᨆ": 1775,
    "ᨈ": 1776,
    "ᨊ": 1777,
    "ᨑ": 1778,
    "ᨒ": 1779,
    "ᨔ": 1780,
    "ᨕ": 1781,
    "ᨗ": 1782,
    "ᨘ": 1783,
    "ᨙ": 1784,
    "ᨚ": 1785,
    "ᨛ": 1786,
    "᨞": 1787,
    "᪸": 1788,
    "ᬚ": 1789,
    "ᬦ": 1790,
    "ᬩ": 1791,
    "ᬫ": 1792,
    "ᬭ": 1793,
    "ᬶ": 1794,
    "᭄": 1795,
    "ᱛ": 1796,
    "ᱜ": 1797,
    "ᱠ": 1798,
    "ᱡ": 1799,
    "ᱪ": 1800,
    "ᱫ": 1801,
    "ᱯ": 1802,
    "ᱰ": 1803,
    "ᱲ": 1804,
    "ᱴ": 1805,
    "ᱵ": 1806,
    "ᱷ": 1807,
    "Ს": 1808,
    "Ქ": 1809,
    "ᴇ": 1810,
    "ᴘ": 1811,
    "ᴛ": 1812,
    "ᴜ": 1813,
    "ᵬ": 1814,
    "ᵭ": 1815,
    "ᵱ": 1816,
    "ᶁ": 1817,
    "᷄": 1818,
    "᷅": 1819,
    "᷆": 1820,
    "ᷧ": 1821,
    "ᷩ": 1822,
    "ḁ": 1823,
    "ḇ": 1824,
    "Ḍ": 1825,
    "ḍ": 1826,
    "Ḏ": 1827,
    "ḏ": 1828,
    "ḗ": 1829,
    "ḡ": 1830,
    "Ḥ": 1831,
    "ḥ": 1832,
    "ḧ": 1833,
    "Ḩ": 1834,
    "ḩ": 1835,
    "Ḫ": 1836,
    "ḫ": 1837,
    "ḯ": 1838,
    "ḱ": 1839,
    "Ḳ": 1840,
    "ḳ": 1841,
    "Ḵ": 1842,
    "ḵ": 1843,
    "Ḷ": 1844,
    "ḷ": 1845,
    "ḿ": 1846,
    "ṁ": 1847,
    "ṃ": 1848,
    "ṅ": 1849,
    "ṇ": 1850,
    "ṉ": 1851,
    "ṍ": 1852,
    "ṑ": 1853,
    "ṓ": 1854,
    "ṗ": 1855,
    "Ṛ": 1856,
    "ṛ": 1857,
    "ṟ": 1858,
    "Ṣ": 1859,
    "ṣ": 1860,
    "Ṥ": 1861,
    "Ṭ": 1862,
    "ṭ": 1863,
    "Ṯ": 1864,
    "ṯ": 1865,
    "ṳ": 1866,
    "ṻ": 1867,
    "ṿ": 1868,
    "ẏ": 1869,
    "ẑ": 1870,
    "Ẓ": 1871,
    "ẓ": 1872,
    "Ẕ": 1873,
    "ẖ": 1874,
    "ẗ": 1875,
    "ẞ": 1876,
    "ẟ": 1877,
    "ạ": 1878,
    "Ả": 1879,
    "ả": 1880,
    "Ấ": 1881,
    "ấ": 1882,
    "Ầ": 1883,
    "ầ": 1884,
    "ẩ": 1885,
    "ậ": 1886,
    "ắ": 1887,
    "ằ": 1888,
    "ẳ": 1889,
    "ẵ": 1890,
    "ặ": 1891,
    "Ẹ": 1892,
    "ẹ": 1893,
    "ẻ": 1894,
    "ẽ": 1895,
    "ế": 1896,
    "ề": 1897,
    "ể": 1898,
    "Ễ": 1899,
    "ễ": 1900,
    "ệ": 1901,
    "ỉ": 1902,
    "ị": 1903,
    "Ọ": 1904,
    "ọ": 1905,
    "ỏ": 1906,
    "Ố": 1907,
    "ố": 1908,
    "Ồ": 1909,
    "ồ": 1910,
    "ổ": 1911,
    "Ỗ": 1912,
    "ỗ": 1913,
    "ộ": 1914,
    "Ớ": 1915,
    "ớ": 1916,
    "ờ": 1917,
    "Ở": 1918,
    "ở": 1919,
    "ỡ": 1920,
    "ợ": 1921,
    "ụ": 1922,
    "ủ": 1923,
    "ứ": 1924,
    "ừ": 1925,
    "Ử": 1926,
    "ử": 1927,
    "ữ": 1928,
    "Ự": 1929,
    "ự": 1930,
    "ỳ": 1931,
    "Ỹ": 1932,
    "ỹ": 1933,
    "ἀ": 1934,
    "ἁ": 1935,
    "ἄ": 1936,
    "ἅ": 1937,
    "Ἀ": 1938,
    "Ἁ": 1939,
    "Ἂ": 1940,
    "Ἄ": 1941,
    "Ἅ": 1942,
    "ἐ": 1943,
    "ἑ": 1944,
    "ἔ": 1945,
    "ἕ": 1946,
    "Ἐ": 1947,
    "Ἑ": 1948,
    "Ἓ": 1949,
    "Ἔ": 1950,
    "Ἕ": 1951,
    "ἡ": 1952,
    "ἢ": 1953,
    "ἤ": 1954,
    "ἧ": 1955,
    "Ἠ": 1956,
    "Ἡ": 1957,
    "Ἦ": 1958,
    "ἰ": 1959,
    "ἱ": 1960,
    "ἴ": 1961,
    "ἵ": 1962,
    "ἶ": 1963,
    "ἷ": 1964,
    "Ἰ": 1965,
    "Ἱ": 1966,
    "Ἴ": 1967,
    "ὀ": 1968,
    "ὁ": 1969,
    "ὃ": 1970,
    "ὄ": 1971,
    "ὅ": 1972,
    "Ὀ": 1973,
    "Ὁ": 1974,
    "Ὃ": 1975,
    "Ὄ": 1976,
    "Ὅ": 1977,
    "ὐ": 1978,
    "ὑ": 1979,
    "ὒ": 1980,
    "ὕ": 1981,
    "ὖ": 1982,
    "Ὑ": 1983,
    "Ὕ": 1984,
    "ὡ": 1985,
    "ὤ": 1986,
    "ὦ": 1987,
    "Ὠ": 1988,
    "Ὡ": 1989,
    "Ὤ": 1990,
    "Ὦ": 1991,
    "ὰ": 1992,
    "ὲ": 1993,
    "ὴ": 1994,
    "ὶ": 1995,
    "ὸ": 1996,
    "ὺ": 1997,
    "ὼ": 1998,
    "ᾰ": 1999,
    "ᾱ": 2000,
    "ᾳ": 2001,
    "ᾶ": 2002,
    "ῃ": 2003,
    "ῆ": 2004,
    "ῇ": 2005,
    "Ὲ": 2006,
    "ῐ": 2007,
    "ῖ": 2008,
    "ῤ": 2009,
    "ῥ": 2010,
    "ῦ": 2011,
    "Ῥ": 2012,
    "ῳ": 2013,
    "ῴ": 2014,
    "ῶ": 2015,
    "ῷ": 2016,
    "‐": 2017,
    "‒": 2018,
    "–": 2019,
    "—": 2020,
    "―": 2021,
    "‖": 2022,
    "‚": 2023,
    "„": 2024,
    "‟": 2025,
    "†": 2026,
    "‡": 2027,
    "•": 2028,
    "‧": 2029,
    "‪": 2030,
    "‰": 2031,
    "′": 2032,
    "‵": 2033,
    "‹": 2034,
    "›": 2035,
    "※": 2036,
    "‿": 2037,
    "⁄": 2038,
    "₤": 2039,
    "₩": 2040,
    "€": 2041,
    "₴": 2042,
    "₶": 2043,
    "₹": 2044,
    "₼": 2045,
    "₿": 2046,
    "⃗": 2047,
    "⃣": 2048,
    "℗": 2049,
    "℞": 2050,
    "℟": 2051,
    "Ↄ": 2052,
    "←": 2053,
    "↑": 2054,
    "→": 2055,
    "↓": 2056,
    "↔": 2057,
    "↕": 2058,
    "↖": 2059,
    "↗": 2060,
    "↘": 2061,
    "↙": 2062,
    "↝": 2063,
    "↦": 2064,
    "↩": 2065,
    "↪": 2066,
    "↲": 2067,
    "↳": 2068,
    "↴": 2069,
    "↺": 2070,
    "↻": 2071,
    "↽": 2072,
    "⇀": 2073,
    "⇄": 2074,
    "⇅": 2075,
    "⇆": 2076,
    "⇌": 2077,
    "⇒": 2078,
    "⇔": 2079,
    "⇛": 2080,
    "⇝": 2081,
    "⇩": 2082,
    "∀": 2083,
    "∂": 2084,
    "∃": 2085,
    "∅": 2086,
    "∆": 2087,
    "∇": 2088,
    "∈": 2089,
    "∉": 2090,
    "∊": 2091,
    "∏": 2092,
    "∑": 2093,
    "−": 2094,
    "∖": 2095,
    "∗": 2096,
    "∘": 2097,
    "∙": 2098,
    "√": 2099,
    "∝": 2100,
    "∞": 2101,
    "∠": 2102,
    "∣": 2103,
    "∥": 2104,
    "∧": 2105,
    "∨": 2106,
    "∩": 2107,
    "∪": 2108,
    "∫": 2109,
    "∮": 2110,
    "∴": 2111,
    "∼": 2112,
    "≃": 2113,
    "≅": 2114,
    "≈": 2115,
    "≐": 2116,
    "≠": 2117,
    "≡": 2118,
    "≢": 2119,
    "≤": 2120,
    "≥": 2121,
    "≪": 2122,
    "≫": 2123,
    "≺": 2124,
    "≻": 2125,
    "⊂": 2126,
    "⊃": 2127,
    "⊆": 2128,
    "⊔": 2129,
    "⊕": 2130,
    "⊗": 2131,
    "⊙": 2132,
    "⊢": 2133,
    "⊤": 2134,
    "⊥": 2135,
    "⊨": 2136,
    "⋂": 2137,
    "⋃": 2138,
    "⋅": 2139,
    "⋆": 2140,
    "⋊": 2141,
    "⋮": 2142,
    "⋯": 2143,
    "⋱": 2144,
    "⌈": 2145,
    "⌉": 2146,
    "⌊": 2147,
    "⌋": 2148,
    "⌚": 2149,
    "⌛": 2150,
    "⌨": 2151,
    "⌬": 2152,
    "⏎": 2153,
    "⏟": 2154,
    "⏩": 2155,
    "⏪": 2156,
    "⏫": 2157,
    "⏬": 2158,
    "⏭": 2159,
    "⏮": 2160,
    "⏯": 2161,
    "⏰": 2162,
    "⏱": 2163,
    "⏲": 2164,
    "⏳": 2165,
    "⏸": 2166,
    "⏹": 2167,
    "⏺": 2168,
    "─": 2169,
    "│": 2170,
    "┌": 2171,
    "┐": 2172,
    "└": 2173,
    "┘": 2174,
    "├": 2175,
    "┤": 2176,
    "┬": 2177,
    "┴": 2178,
    "┼": 2179,
    "╱": 2180,
    "█": 2181,
    "■": 2182,
    "□": 2183,
    "▪": 2184,
    "▫": 2185,
    "▭": 2186,
    "▲": 2187,
    "△": 2188,
    "▶": 2189,
    "►": 2190,
    "▼": 2191,
    "◀": 2192,
    "◄": 2193,
    "◆": 2194,
    "◌": 2195,
    "●": 2196,
    "◦": 2197,
    "◻": 2198,
    "◼": 2199,
    "◾": 2200,
    "☀": 2201,
    "☁": 2202,
    "☂": 2203,
    "☃": 2204,
    "☄": 2205,
    "★": 2206,
    "☆": 2207,
    "☉": 2208,
    "☊": 2209,
    "☎": 2210,
    "☑": 2211,
    "☔": 2212,
    "☕": 2213,
    "☘": 2214,
    "☝": 2215,
    "☠": 2216,
    "☢": 2217,
    "☣": 2218,
    "☥": 2219,
    "☦": 2220,
    "☪": 2221,
    "☭": 2222,
    "☮": 2223,
    "☯": 2224,
    "☰": 2225,
    "☸": 2226,
    "☺": 2227,
    "☿": 2228,
    "♀": 2229,
    "♂": 2230,
    "♃": 2231,
    "♈": 2232,
    "♉": 2233,
    "♊": 2234,
    "♋": 2235,
    "♌": 2236,
    "♍": 2237,
    "♎": 2238,
    "♏": 2239,
    "♐": 2240,
    "♑": 2241,
    "♒": 2242,
    "♓": 2243,
    "♔": 2244,
    "♕": 2245,
    "♖": 2246,
    "♗": 2247,
    "♘": 2248,
    "♙": 2249,
    "♛": 2250,
    "♝": 2251,
    "♟": 2252,
    "♠": 2253,
    "♡": 2254,
    "♢": 2255,
    "♣": 2256,
    "♥": 2257,
    "♦": 2258,
    "♨": 2259,
    "♭": 2260,
    "♯": 2261,
    "♰": 2262,
    "♻": 2263,
    "♾": 2264,
    "♿": 2265,
    "⚒": 2266,
    "⚓": 2267,
    "⚔": 2268,
    "⚕": 2269,
    "⚖": 2270,
    "⚗": 2271,
    "⚙": 2272,
    "⚛": 2273,
    "⚜": 2274,
    "⚠": 2275,
    "⚡": 2276,
    "⚤": 2277,
    "⚧": 2278,
    "⚪": 2279,
    "⚫": 2280,
    "⚭": 2281,
    "⚰": 2282,
    "⚱": 2283,
    "⚽": 2284,
    "⚾": 2285,
    "⛅": 2286,
    "⛈": 2287,
    "⛏": 2288,
    "⛑": 2289,
    "⛓": 2290,
    "⛔": 2291,
    "⛩": 2292,
    "⛪": 2293,
    "⛰": 2294,
    "⛱": 2295,
    "⛲": 2296,
    "⛳": 2297,
    "⛴": 2298,
    "⛵": 2299,
    "⛷": 2300,
    "⛸": 2301,
    "⛹": 2302,
    "⛺": 2303,
    "⛽": 2304,
    "✂": 2305,
    "✅": 2306,
    "✈": 2307,
    "✉": 2308,
    "✊": 2309,
    "✋": 2310,
    "✌": 2311,
    "✍": 2312,
    "✎": 2313,
    "✏": 2314,
    "✒": 2315,
    "✓": 2316,
    "✔": 2317,
    "✖": 2318,
    "✗": 2319,
    "✝": 2320,
    "✟": 2321,
    "✠": 2322,
    "✡": 2323,
    "✨": 2324,
    "✩": 2325,
    "✳": 2326,
    "✴": 2327,
    "✻": 2328,
    "❄": 2329,
    "❌": 2330,
    "❎": 2331,
    "❓": 2332,
    "❔": 2333,
    "❖": 2334,
    "❗": 2335,
    "❤": 2336,
    "❻": 2337,
    "➔": 2338,
    "➕": 2339,
    "➖": 2340,
    "➗": 2341,
    "➜": 2342,
    "➝": 2343,
    "➡": 2344,
    "➤": 2345,
    "➰": 2346,
    "⟨": 2347,
    "⟩": 2348,
    "⟵": 2349,
    "⟶": 2350,
    "⟷": 2351,
    "⟹": 2352,
    "⟺": 2353,
    "⟼": 2354,
    "⠅": 2355,
    "⠚": 2356,
    "⠟": 2357,
    "⠯": 2358,
    "⠵": 2359,
    "⠺": 2360,
    "⠾": 2361,
    "⤵": 2362,
    "⤷": 2363,
    "⥋": 2364,
    "⦁": 2365,
    "⨁": 2366,
    "⨂": 2367,
    "⨯": 2368,
    "⩽": 2369,
    "⩾": 2370,
    "⬄": 2371,
    "⬅": 2372,
    "⬆": 2373,
    "⬇": 2374,
    "⬛": 2375,
    "⬜": 2376,
    "⭐": 2377,
    "⭑": 2378,
    "⭕": 2379,
    "Ⱇ": 2380,
    "ⱇ": 2381,
    "ⱡ": 2382,
    "ⱪ": 2383,
    "ⲉ": 2384,
    "ⲙ": 2385,
    "ⲛ": 2386,
    "ⲟ": 2387,
    "Ⲡ": 2388,
    "ⲡ": 2389,
    "ⲣ": 2390,
    "ⲩ": 2391,
    "ⴰ": 2392,
    "ⴱ": 2393,
    "ⴳ": 2394,
    "ⴷ": 2395,
    "ⴹ": 2396,
    "ⴻ": 2397,
    "ⴼ": 2398,
    "ⴽ": 2399,
    "ⵀ": 2400,
    "ⵃ": 2401,
    "ⵄ": 2402,
    "ⵅ": 2403,
    "ⵇ": 2404,
    "ⵉ": 2405,
    "ⵊ": 2406,
    "ⵍ": 2407,
    "ⵎ": 2408,
    "ⵏ": 2409,
    "ⵓ": 2410,
    "ⵔ": 2411,
    "ⵕ": 2412,
    "ⵖ": 2413,
    "ⵙ": 2414,
    "ⵚ": 2415,
    "ⵛ": 2416,
    "ⵜ": 2417,
    "ⵝ": 2418,
    "ⵟ": 2419,
    "ⵡ": 2420,
    "ⵢ": 2421,
    "ⵣ": 2422,
    "⺗": 2423,
    "⺫": 2424,
    "、": 2425,
    "。": 2426,
    "々": 2427,
    "〇": 2428,
    "〈": 2429,
    "〉": 2430,
    "《": 2431,
    "》": 2432,
    "「": 2433,
    "」": 2434,
    "『": 2435,
    "』": 2436,
    "【": 2437,
    "】": 2438,
    "〜": 2439,
    "〡": 2440,
    "〰": 2441,
    "〽": 2442,
    "ぁ": 2443,
    "あ": 2444,
    "ぃ": 2445,
    "い": 2446,
    "ぅ": 2447,
    "う": 2448,
    "ぇ": 2449,
    "え": 2450,
    "ぉ": 2451,
    "お": 2452,
    "か": 2453,
    "が": 2454,
    "き": 2455,
    "ぎ": 2456,
    "く": 2457,
    "ぐ": 2458,
    "け": 2459,
    "げ": 2460,
    "こ": 2461,
    "ご": 2462,
    "さ": 2463,
    "ざ": 2464,
    "し": 2465,
    "じ": 2466,
    "す": 2467,
    "ず": 2468,
    "せ": 2469,
    "ぜ": 2470,
    "そ": 2471,
    "ぞ": 2472,
    "た": 2473,
    "だ": 2474,
    "ち": 2475,
    "ぢ": 2476,
    "っ": 2477,
    "つ": 2478,
    "づ": 2479,
    "て": 2480,
    "で": 2481,
    "と": 2482,
    "ど": 2483,
    "な": 2484,
    "に": 2485,
    "ぬ": 2486,
    "ね": 2487,
    "の": 2488,
    "は": 2489,
    "ば": 2490,
    "ぱ": 2491,
    "ひ": 2492,
    "び": 2493,
    "ぴ": 2494,
    "ふ": 2495,
    "ぶ": 2496,
    "ぷ": 2497,
    "へ": 2498,
    "べ": 2499,
    "ほ": 2500,
    "ぼ": 2501,
    "ぽ": 2502,
    "ま": 2503,
    "み": 2504,
    "む": 2505,
    "め": 2506,
    "も": 2507,
    "ゃ": 2508,
    "や": 2509,
    "ゅ": 2510,
    "ゆ": 2511,
    "ょ": 2512,
    "よ": 2513,
    "ら": 2514,
    "り": 2515,
    "る": 2516,
    "れ": 2517,
    "ろ": 2518,
    "わ": 2519,
    "ゐ": 2520,
    "ゑ": 2521,
    "を": 2522,
    "ん": 2523,
    "ゝ": 2524,
    "ァ": 2525,
    "ア": 2526,
    "ィ": 2527,
    "イ": 2528,
    "ゥ": 2529,
    "ウ": 2530,
    "ェ": 2531,
    "エ": 2532,
    "ォ": 2533,
    "オ": 2534,
    "カ": 2535,
    "ガ": 2536,
    "キ": 2537,
    "ギ": 2538,
    "ク": 2539,
    "グ": 2540,
    "ケ": 2541,
    "ゲ": 2542,
    "コ": 2543,
    "ゴ": 2544,
    "サ": 2545,
    "ザ": 2546,
    "シ": 2547,
    "ジ": 2548,
    "ス": 2549,
    "ズ": 2550,
    "セ": 2551,
    "ゼ": 2552,
    "ソ": 2553,
    "ゾ": 2554,
    "タ": 2555,
    "ダ": 2556,
    "チ": 2557,
    "ヂ": 2558,
    "ッ": 2559,
    "ツ": 2560,
    "テ": 2561,
    "デ": 2562,
    "ト": 2563,
    "ド": 2564,
    "ナ": 2565,
    "ニ": 2566,
    "ヌ": 2567,
    "ネ": 2568,
    "ノ": 2569,
    "ハ": 2570,
    "バ": 2571,
    "パ": 2572,
    "ヒ": 2573,
    "ビ": 2574,
    "ピ": 2575,
    "フ": 2576,
    "ブ": 2577,
    "プ": 2578,
    "ヘ": 2579,
    "ベ": 2580,
    "ペ": 2581,
    "ホ": 2582,
    "ボ": 2583,
    "ポ": 2584,
    "マ": 2585,
    "ミ": 2586,
    "ム": 2587,
    "メ": 2588,
    "モ": 2589,
    "ャ": 2590,
    "ヤ": 2591,
    "ュ": 2592,
    "ユ": 2593,
    "ョ": 2594,
    "ヨ": 2595,
    "ラ": 2596,
    "リ": 2597,
    "ル": 2598,
    "レ": 2599,
    "ロ": 2600,
    "ワ": 2601,
    "ヰ": 2602,
    "ヱ": 2603,
    "ヲ": 2604,
    "ン": 2605,
    "ヴ": 2606,
    "ヶ": 2607,
    "・": 2608,
    "ー": 2609,
    "ㄇ": 2610,
    "ㄈ": 2611,
    "ㄉ": 2612,
    "ㄊ": 2613,
    "ㄌ": 2614,
    "ㄍ": 2615,
    "ㄏ": 2616,
    "ㄕ": 2617,
    "ㄚ": 2618,
    "ㄛ": 2619,
    "ㄞ": 2620,
    "ㄟ": 2621,
    "ㄠ": 2622,
    "ㄢ": 2623,
    "ㄣ": 2624,
    "ㄥ": 2625,
    "ㄨ": 2626,
    "ㄩ": 2627,
    "ㇰ": 2628,
    "ㇱ": 2629,
    "ㇻ": 2630,
    "㑻": 2631,
    "㠘": 2632,
    "一": 2633,
    "丁": 2634,
    "七": 2635,
    "万": 2636,
    "丈": 2637,
    "三": 2638,
    "上": 2639,
    "下": 2640,
    "不": 2641,
    "与": 2642,
    "丐": 2643,
    "丑": 2644,
    "专": 2645,
    "丕": 2646,
    "世": 2647,
    "丘": 2648,
    "丙": 2649,
    "业": 2650,
    "丛": 2651,
    "东": 2652,
    "丝": 2653,
    "丞": 2654,
    "两": 2655,
    "严": 2656,
    "丧": 2657,
    "个": 2658,
    "中": 2659,
    "丰": 2660,
    "串": 2661,
    "临": 2662,
    "丸": 2663,
    "丹": 2664,
    "为": 2665,
    "主": 2666,
    "丽": 2667,
    "乃": 2668,
    "久": 2669,
    "么": 2670,
    "义": 2671,
    "之": 2672,
    "乌": 2673,
    "乎": 2674,
    "乐": 2675,
    "乔": 2676,
    "乖": 2677,
    "乗": 2678,
    "乘": 2679,
    "乙": 2680,
    "九": 2681,
    "乞": 2682,
    "也": 2683,
    "习": 2684,
    "乡": 2685,
    "书": 2686,
    "乱": 2687,
    "乳": 2688,
    "乾": 2689,
    "亀": 2690,
    "亂": 2691,
    "了": 2692,
    "予": 2693,
    "争": 2694,
    "事": 2695,
    "二": 2696,
    "于": 2697,
    "云": 2698,
    "五": 2699,
    "井": 2700,
    "亘": 2701,
    "亙": 2702,
    "亚": 2703,
    "些": 2704,
    "亜": 2705,
    "亞": 2706,
    "亡": 2707,
    "亢": 2708,
    "交": 2709,
    "亥": 2710,
    "亦": 2711,
    "产": 2712,
    "亨": 2713,
    "京": 2714,
    "亭": 2715,
    "亮": 2716,
    "亲": 2717,
    "人": 2718,
    "亻": 2719,
    "什": 2720,
    "仁": 2721,
    "仃": 2722,
    "仄": 2723,
    "今": 2724,
    "介": 2725,
    "仏": 2726,
    "仓": 2727,
    "仔": 2728,
    "仕": 2729,
    "他": 2730,
    "付": 2731,
    "仙": 2732,
    "仝": 2733,
    "仡": 2734,
    "代": 2735,
    "令": 2736,
    "以": 2737,
    "们": 2738,
    "仮": 2739,
    "仰": 2740,
    "仲": 2741,
    "件": 2742,
    "任": 2743,
    "份": 2744,
    "企": 2745,
    "伊": 2746,
    "伍": 2747,
    "伎": 2748,
    "伏": 2749,
    "伐": 2750,
    "休": 2751,
    "优": 2752,
    "伙": 2753,
    "会": 2754,
    "伝": 2755,
    "伞": 2756,
    "伟": 2757,
    "传": 2758,
    "伦": 2759,
    "伯": 2760,
    "伴": 2761,
    "伶": 2762,
    "伸": 2763,
    "伽": 2764,
    "佃": 2765,
    "位": 2766,
    "住": 2767,
    "佐": 2768,
    "佑": 2769,
    "体": 2770,
    "何": 2771,
    "佘": 2772,
    "余": 2773,
    "佛": 2774,
    "作": 2775,
    "佝": 2776,
    "你": 2777,
    "佬": 2778,
    "佳": 2779,
    "使": 2780,
    "侃": 2781,
    "來": 2782,
    "例": 2783,
    "侍": 2784,
    "侑": 2785,
    "侗": 2786,
    "侘": 2787,
    "供": 2788,
    "依": 2789,
    "侠": 2790,
    "価": 2791,
    "侮": 2792,
    "侯": 2793,
    "便": 2794,
    "係": 2795,
    "俄": 2796,
    "俊": 2797,
    "俐": 2798,
    "俗": 2799,
    "俘": 2800,
    "保": 2801,
    "俠": 2802,
    "信": 2803,
    "俣": 2804,
    "俩": 2805,
    "修": 2806,
    "俱": 2807,
    "俳": 2808,
    "俺": 2809,
    "倉": 2810,
    "個": 2811,
    "們": 2812,
    "倒": 2813,
    "倖": 2814,
    "倘": 2815,
    "候": 2816,
    "借": 2817,
    "倡": 2818,
    "倦": 2819,
    "倪": 2820,
    "倫": 2821,
    "倭": 2822,
    "倶": 2823,
    "倹": 2824,
    "债": 2825,
    "偃": 2826,
    "假": 2827,
    "偈": 2828,
    "偉": 2829,
    "停": 2830,
    "健": 2831,
    "偲": 2832,
    "側": 2833,
    "偵": 2834,
    "偶": 2835,
    "偷": 2836,
    "偽": 2837,
    "傀": 2838,
    "傅": 2839,
    "傉": 2840,
    "傍": 2841,
    "傑": 2842,
    "傘": 2843,
    "備": 2844,
    "傭": 2845,
    "傳": 2846,
    "債": 2847,
    "傷": 2848,
    "傾": 2849,
    "働": 2850,
    "像": 2851,
    "僕": 2852,
    "僚": 2853,
    "僞": 2854,
    "僧": 2855,
    "價": 2856,
    "儀": 2857,
    "億": 2858,
    "儉": 2859,
    "儒": 2860,
    "儡": 2861,
    "優": 2862,
    "儲": 2863,
    "儿": 2864,
    "兀": 2865,
    "允": 2866,
    "元": 2867,
    "兄": 2868,
    "充": 2869,
    "先": 2870,
    "光": 2871,
    "克": 2872,
    "兎": 2873,
    "児": 2874,
    "兒": 2875,
    "兔": 2876,
    "党": 2877,
    "兜": 2878,
    "入": 2879,
    "內": 2880,
    "全": 2881,
    "兩": 2882,
    "兪": 2883,
    "八": 2884,
    "公": 2885,
    "六": 2886,
    "兰": 2887,
    "共": 2888,
    "关": 2889,
    "兴": 2890,
    "兵": 2891,
    "其": 2892,
    "具": 2893,
    "典": 2894,
    "兼": 2895,
    "内": 2896,
    "円": 2897,
    "冊": 2898,
    "册": 2899,
    "再": 2900,
    "冒": 2901,
    "写": 2902,
    "军": 2903,
    "农": 2904,
    "冠": 2905,
    "冥": 2906,
    "冨": 2907,
    "冬": 2908,
    "冯": 2909,
    "冰": 2910,
    "冲": 2911,
    "决": 2912,
    "冴": 2913,
    "冶": 2914,
    "冷": 2915,
    "净": 2916,
    "准": 2917,
    "凉": 2918,
    "凌": 2919,
    "凍": 2920,
    "凛": 2921,
    "凜": 2922,
    "凝": 2923,
    "几": 2924,
    "凡": 2925,
    "凤": 2926,
    "処": 2927,
    "凧": 2928,
    "凪": 2929,
    "凯": 2930,
    "凰": 2931,
    "凱": 2932,
    "凶": 2933,
    "凸": 2934,
    "凹": 2935,
    "出": 2936,
    "击": 2937,
    "函": 2938,
    "刀": 2939,
    "刂": 2940,
    "刃": 2941,
    "分": 2942,
    "切": 2943,
    "刈": 2944,
    "刊": 2945,
    "刑": 2946,
    "划": 2947,
    "刖": 2948,
    "列": 2949,
    "刘": 2950,
    "则": 2951,
    "刚": 2952,
    "创": 2953,
    "初": 2954,
    "判": 2955,
    "別": 2956,
    "利": 2957,
    "别": 2958,
    "到": 2959,
    "制": 2960,
    "刷": 2961,
    "券": 2962,
    "刺": 2963,
    "刻": 2964,
    "剃": 2965,
    "則": 2966,
    "削": 2967,
    "剌": 2968,
    "前": 2969,
    "剎": 2970,
    "剑": 2971,
    "剔": 2972,
    "剖": 2973,
    "剛": 2974,
    "剣": 2975,
    "剥": 2976,
    "剧": 2977,
    "剩": 2978,
    "副": 2979,
    "剰": 2980,
    "割": 2981,
    "創": 2982,
    "剽": 2983,
    "劃": 2984,
    "劇": 2985,
    "劉": 2986,
    "劍": 2987,
    "劒": 2988,
    "劔": 2989,
    "力": 2990,
    "功": 2991,
    "加": 2992,
    "务": 2993,
    "动": 2994,
    "助": 2995,
    "劫": 2996,
    "劲": 2997,
    "劼": 2998,
    "勁": 2999,
    "勃": 3000,
    "勅": 3001,
    "勇": 3002,
    "勉": 3003,
    "勋": 3004,
    "勒": 3005,
    "動": 3006,
    "勘": 3007,
    "務": 3008,
    "勛": 3009,
    "勝": 3010,
    "勞": 3011,
    "募": 3012,
    "勢": 3013,
    "勣": 3014,
    "勤": 3015,
    "勰": 3016,
    "勲": 3017,
    "勳": 3018,
    "勺": 3019,
    "勿": 3020,
    "匁": 3021,
    "包": 3022,
    "化": 3023,
    "北": 3024,
    "匙": 3025,
    "匠": 3026,
    "匡": 3027,
    "匣": 3028,
    "匯": 3029,
    "匹": 3030,
    "区": 3031,
    "医": 3032,
    "區": 3033,
    "十": 3034,
    "千": 3035,
    "卄": 3036,
    "卅": 3037,
    "升": 3038,
    "午": 3039,
    "卉": 3040,
    "半": 3041,
    "卍": 3042,
    "华": 3043,
    "协": 3044,
    "卐": 3045,
    "卑": 3046,
    "卒": 3047,
    "卓": 3048,
    "協": 3049,
    "单": 3050,
    "南": 3051,
    "単": 3052,
    "博": 3053,
    "卜": 3054,
    "卡": 3055,
    "卢": 3056,
    "卤": 3057,
    "卦": 3058,
    "卧": 3059,
    "卫": 3060,
    "卯": 3061,
    "印": 3062,
    "危": 3063,
    "即": 3064,
    "卵": 3065,
    "卷": 3066,
    "卽": 3067,
    "卿": 3068,
    "厂": 3069,
    "历": 3070,
    "厓": 3071,
    "厚": 3072,
    "原": 3073,
    "厦": 3074,
    "厨": 3075,
    "厩": 3076,
    "厲": 3077,
    "厳": 3078,
    "去": 3079,
    "县": 3080,
    "参": 3081,
    "又": 3082,
    "叉": 3083,
    "及": 3084,
    "友": 3085,
    "双": 3086,
    "反": 3087,
    "収": 3088,
    "发": 3089,
    "叔": 3090,
    "取": 3091,
    "受": 3092,
    "变": 3093,
    "叙": 3094,
    "叛": 3095,
    "叟": 3096,
    "叡": 3097,
    "叢": 3098,
    "口": 3099,
    "古": 3100,
    "句": 3101,
    "另": 3102,
    "叩": 3103,
    "只": 3104,
    "叫": 3105,
    "召": 3106,
    "可": 3107,
    "台": 3108,
    "史": 3109,
    "右": 3110,
    "叶": 3111,
    "号": 3112,
    "司": 3113,
    "叻": 3114,
    "各": 3115,
    "合": 3116,
    "吉": 3117,
    "同": 3118,
    "名": 3119,
    "后": 3120,
    "吐": 3121,
    "向": 3122,
    "君": 3123,
    "吞": 3124,
    "吠": 3125,
    "否": 3126,
    "吧": 3127,
    "含": 3128,
    "听": 3129,
    "启": 3130,
    "吳": 3131,
    "吴": 3132,
    "吸": 3133,
    "吹": 3134,
    "吻": 3135,
    "吼": 3136,
    "吽": 3137,
    "吾": 3138,
    "呂": 3139,
    "呇": 3140,
    "告": 3141,
    "呔": 3142,
    "员": 3143,
    "周": 3144,
    "呪": 3145,
    "味": 3146,
    "呼": 3147,
    "命": 3148,
    "咄": 3149,
    "和": 3150,
    "咎": 3151,
    "咏": 3152,
    "咒": 3153,
    "咕": 3154,
    "咨": 3155,
    "咲": 3156,
    "咸": 3157,
    "哀": 3158,
    "品": 3159,
    "哇": 3160,
    "哈": 3161,
    "哉": 3162,
    "員": 3163,
    "哥": 3164,
    "哨": 3165,
    "哩": 3166,
    "哭": 3167,
    "哲": 3168,
    "唄": 3169,
    "唐": 3170,
    "唖": 3171,
    "唯": 3172,
    "唱": 3173,
    "啄": 3174,
    "商": 3175,
    "啊": 3176,
    "問": 3177,
    "啓": 3178,
    "喀": 3179,
    "善": 3180,
    "喇": 3181,
    "喋": 3182,
    "喘": 3183,
    "喚": 3184,
    "喜": 3185,
    "喧": 3186,
    "喫": 3187,
    "喬": 3188,
    "單": 3189,
    "喰": 3190,
    "喵": 3191,
    "営": 3192,
    "嗄": 3193,
    "嗜": 3194,
    "嗣": 3195,
    "嘆": 3196,
    "嘉": 3197,
    "嘗": 3198,
    "嘘": 3199,
    "嘛": 3200,
    "嘩": 3201,
    "嘲": 3202,
    "噂": 3203,
    "噌": 3204,
    "噛": 3205,
    "器": 3206,
    "噫": 3207,
    "噺": 3208,
    "嚦": 3209,
    "嚴": 3210,
    "囁": 3211,
    "囃": 3212,
    "囍": 3213,
    "囚": 3214,
    "四": 3215,
    "回": 3216,
    "因": 3217,
    "团": 3218,
    "団": 3219,
    "园": 3220,
    "図": 3221,
    "围": 3222,
    "囷": 3223,
    "固": 3224,
    "国": 3225,
    "图": 3226,
    "圃": 3227,
    "圆": 3228,
    "圈": 3229,
    "國": 3230,
    "圍": 3231,
    "圏": 3232,
    "園": 3233,
    "圓": 3234,
    "圖": 3235,
    "團": 3236,
    "土": 3237,
    "圣": 3238,
    "圧": 3239,
    "在": 3240,
    "圭": 3241,
    "地": 3242,
    "圳": 3243,
    "场": 3244,
    "圻": 3245,
    "圾": 3246,
    "址": 3247,
    "坂": 3248,
    "均": 3249,
    "坊": 3250,
    "坐": 3251,
    "坑": 3252,
    "坚": 3253,
    "坟": 3254,
    "坤": 3255,
    "坦": 3256,
    "坪": 3257,
    "坳": 3258,
    "坵": 3259,
    "垃": 3260,
    "垅": 3261,
    "垈": 3262,
    "型": 3263,
    "垠": 3264,
    "垢": 3265,
    "垣": 3266,
    "埋": 3267,
    "城": 3268,
    "埔": 3269,
    "埜": 3270,
    "域": 3271,
    "埠": 3272,
    "埴": 3273,
    "培": 3274,
    "基": 3275,
    "埼": 3276,
    "堀": 3277,
    "堂": 3278,
    "堅": 3279,
    "堆": 3280,
    "堕": 3281,
    "堤": 3282,
    "堪": 3283,
    "堯": 3284,
    "堰": 3285,
    "報": 3286,
    "場": 3287,
    "堵": 3288,
    "堺": 3289,
    "塁": 3290,
    "塔": 3291,
    "塘": 3292,
    "塙": 3293,
    "塚": 3294,
    "塩": 3295,
    "境": 3296,
    "墓": 3297,
    "増": 3298,
    "墘": 3299,
    "墜": 3300,
    "增": 3301,
    "墨": 3302,
    "墩": 3303,
    "墳": 3304,
    "壁": 3305,
    "壇": 3306,
    "壊": 3307,
    "壓": 3308,
    "壕": 3309,
    "壖": 3310,
    "壘": 3311,
    "壞": 3312,
    "士": 3313,
    "壬": 3314,
    "壮": 3315,
    "壯": 3316,
    "声": 3317,
    "壱": 3318,
    "売": 3319,
    "壷": 3320,
    "壹": 3321,
    "壺": 3322,
    "壽": 3323,
    "変": 3324,
    "夏": 3325,
    "夕": 3326,
    "外": 3327,
    "多": 3328,
    "夜": 3329,
    "夠": 3330,
    "夢": 3331,
    "夥": 3332,
    "大": 3333,
    "天": 3334,
    "太": 3335,
    "夫": 3336,
    "央": 3337,
    "失": 3338,
    "头": 3339,
    "夷": 3340,
    "奄": 3341,
    "奇": 3342,
    "奈": 3343,
    "奉": 3344,
    "奎": 3345,
    "奏": 3346,
    "奔": 3347,
    "奖": 3348,
    "套": 3349,
    "奥": 3350,
    "奧": 3351,
    "奨": 3352,
    "奪": 3353,
    "奬": 3354,
    "奮": 3355,
    "女": 3356,
    "奴": 3357,
    "奶": 3358,
    "她": 3359,
    "好": 3360,
    "奿": 3361,
    "如": 3362,
    "妃": 3363,
    "妄": 3364,
    "妆": 3365,
    "妊": 3366,
    "妓": 3367,
    "妖": 3368,
    "妙": 3369,
    "妝": 3370,
    "妞": 3371,
    "妮": 3372,
    "妹": 3373,
    "妻": 3374,
    "妾": 3375,
    "姆": 3376,
    "姉": 3377,
    "始": 3378,
    "姓": 3379,
    "委": 3380,
    "姚": 3381,
    "姜": 3382,
    "姥": 3383,
    "姦": 3384,
    "姪": 3385,
    "姫": 3386,
    "姬": 3387,
    "姿": 3388,
    "威": 3389,
    "娃": 3390,
    "娄": 3391,
    "娘": 3392,
    "娜": 3393,
    "娠": 3394,
    "娩": 3395,
    "娱": 3396,
    "婆": 3397,
    "婉": 3398,
    "婚": 3399,
    "婦": 3400,
    "婺": 3401,
    "婿": 3402,
    "媚": 3403,
    "媛": 3404,
    "媽": 3405,
    "嫁": 3406,
    "嫂": 3407,
    "嫌": 3408,
    "嫮": 3409,
    "嬉": 3410,
    "嬌": 3411,
    "嬢": 3412,
    "孃": 3413,
    "子": 3414,
    "孔": 3415,
    "字": 3416,
    "存": 3417,
    "孙": 3418,
    "孜": 3419,
    "孝": 3420,
    "孟": 3421,
    "孢": 3422,
    "季": 3423,
    "孤": 3424,
    "学": 3425,
    "孩": 3426,
    "孫": 3427,
    "學": 3428,
    "宀": 3429,
    "宁": 3430,
    "宅": 3431,
    "宇": 3432,
    "守": 3433,
    "安": 3434,
    "宋": 3435,
    "完": 3436,
    "宍": 3437,
    "宏": 3438,
    "宕": 3439,
    "宗": 3440,
    "官": 3441,
    "宙": 3442,
    "定": 3443,
    "宜": 3444,
    "宝": 3445,
    "実": 3446,
    "客": 3447,
    "宣": 3448,
    "室": 3449,
    "宥": 3450,
    "宪": 3451,
    "宫": 3452,
    "宮": 3453,
    "害": 3454,
    "宴": 3455,
    "宵": 3456,
    "家": 3457,
    "容": 3458,
    "宽": 3459,
    "宾": 3460,
    "宿": 3461,
    "寂": 3462,
    "寄": 3463,
    "寅": 3464,
    "密": 3465,
    "富": 3466,
    "寒": 3467,
    "寓": 3468,
    "寔": 3469,
    "寛": 3470,
    "寝": 3471,
    "察": 3472,
    "寢": 3473,
    "實": 3474,
    "寧": 3475,
    "寨": 3476,
    "寫": 3477,
    "寬": 3478,
    "寮": 3479,
    "寵": 3480,
    "寶": 3481,
    "寸": 3482,
    "对": 3483,
    "寺": 3484,
    "导": 3485,
    "対": 3486,
    "寿": 3487,
    "封": 3488,
    "専": 3489,
    "射": 3490,
    "将": 3491,
    "將": 3492,
    "專": 3493,
    "尉": 3494,
    "尊": 3495,
    "尋": 3496,
    "對": 3497,
    "導": 3498,
    "小": 3499,
    "少": 3500,
    "尓": 3501,
    "尔": 3502,
    "尖": 3503,
    "尙": 3504,
    "尚": 3505,
    "尤": 3506,
    "尧": 3507,
    "尭": 3508,
    "就": 3509,
    "尹": 3510,
    "尻": 3511,
    "尼": 3512,
    "尽": 3513,
    "尾": 3514,
    "局": 3515,
    "居": 3516,
    "屈": 3517,
    "屋": 3518,
    "屍": 3519,
    "屎": 3520,
    "屏": 3521,
    "屑": 3522,
    "展": 3523,
    "属": 3524,
    "屠": 3525,
    "層": 3526,
    "履": 3527,
    "屬": 3528,
    "屯": 3529,
    "山": 3530,
    "岐": 3531,
    "岑": 3532,
    "岗": 3533,
    "岛": 3534,
    "岡": 3535,
    "岩": 3536,
    "岬": 3537,
    "岭": 3538,
    "岱": 3539,
    "岳": 3540,
    "岸": 3541,
    "峠": 3542,
    "峡": 3543,
    "峨": 3544,
    "峭": 3545,
    "峯": 3546,
    "峰": 3547,
    "島": 3548,
    "峻": 3549,
    "峽": 3550,
    "崂": 3551,
    "崃": 3552,
    "崇": 3553,
    "崎": 3554,
    "崔": 3555,
    "崖": 3556,
    "崚": 3557,
    "崩": 3558,
    "嵇": 3559,
    "嵐": 3560,
    "嵜": 3561,
    "嵩": 3562,
    "嵬": 3563,
    "嵯": 3564,
    "嶋": 3565,
    "嶺": 3566,
    "嶼": 3567,
    "嶽": 3568,
    "巌": 3569,
    "巍": 3570,
    "巖": 3571,
    "川": 3572,
    "州": 3573,
    "巡": 3574,
    "巢": 3575,
    "巣": 3576,
    "工": 3577,
    "左": 3578,
    "巧": 3579,
    "巨": 3580,
    "巫": 3581,
    "差": 3582,
    "己": 3583,
    "已": 3584,
    "巳": 3585,
    "巴": 3586,
    "巷": 3587,
    "巻": 3588,
    "巽": 3589,
    "市": 3590,
    "布": 3591,
    "帆": 3592,
    "师": 3593,
    "希": 3594,
    "帕": 3595,
    "帖": 3596,
    "帝": 3597,
    "帥": 3598,
    "带": 3599,
    "師": 3600,
    "席": 3601,
    "帮": 3602,
    "帯": 3603,
    "帰": 3604,
    "帳": 3605,
    "帶": 3606,
    "常": 3607,
    "帽": 3608,
    "幌": 3609,
    "幕": 3610,
    "幟": 3611,
    "幡": 3612,
    "幣": 3613,
    "幪": 3614,
    "平": 3615,
    "年": 3616,
    "并": 3617,
    "幸": 3618,
    "幹": 3619,
    "幻": 3620,
    "幼": 3621,
    "幽": 3622,
    "幾": 3623,
    "广": 3624,
    "庁": 3625,
    "広": 3626,
    "庄": 3627,
    "庆": 3628,
    "庇": 3629,
    "床": 3630,
    "序": 3631,
    "库": 3632,
    "应": 3633,
    "底": 3634,
    "店": 3635,
    "庙": 3636,
    "庚": 3637,
    "府": 3638,
    "度": 3639,
    "座": 3640,
    "庫": 3641,
    "庭": 3642,
    "庵": 3643,
    "庶": 3644,
    "康": 3645,
    "庸": 3646,
    "廂": 3647,
    "廃": 3648,
    "廉": 3649,
    "廊": 3650,
    "廓": 3651,
    "廖": 3652,
    "廟": 3653,
    "廢": 3654,
    "廣": 3655,
    "廬": 3656,
    "廳": 3657,
    "延": 3658,
    "廷": 3659,
    "建": 3660,
    "廻": 3661,
    "廿": 3662,
    "开": 3663,
    "弁": 3664,
    "式": 3665,
    "弓": 3666,
    "弔": 3667,
    "引": 3668,
    "弘": 3669,
    "弛": 3670,
    "弟": 3671,
    "张": 3672,
    "弥": 3673,
    "弦": 3674,
    "弩": 3675,
    "弯": 3676,
    "張": 3677,
    "強": 3678,
    "弹": 3679,
    "强": 3680,
    "弾": 3681,
    "彈": 3682,
    "彌": 3683,
    "当": 3684,
    "彗": 3685,
    "彙": 3686,
    "彝": 3687,
    "形": 3688,
    "彦": 3689,
    "彩": 3690,
    "彪": 3691,
    "彬": 3692,
    "彭": 3693,
    "影": 3694,
    "役": 3695,
    "彼": 3696,
    "往": 3697,
    "征": 3698,
    "徂": 3699,
    "径": 3700,
    "待": 3701,
    "律": 3702,
    "後": 3703,
    "徐": 3704,
    "徒": 3705,
    "従": 3706,
    "得": 3707,
    "從": 3708,
    "徠": 3709,
    "御": 3710,
    "復": 3711,
    "微": 3712,
    "徳": 3713,
    "徴": 3714,
    "徵": 3715,
    "德": 3716,
    "徹": 3717,
    "徽": 3718,
    "心": 3719,
    "忄": 3720,
    "必": 3721,
    "忆": 3722,
    "忍": 3723,
    "忏": 3724,
    "志": 3725,
    "忘": 3726,
    "応": 3727,
    "忠": 3728,
    "忧": 3729,
    "快": 3730,
    "念": 3731,
    "忽": 3732,
    "怀": 3733,
    "怒": 3734,
    "怕": 3735,
    "怖": 3736,
    "怜": 3737,
    "思": 3738,
    "怡": 3739,
    "急": 3740,
    "性": 3741,
    "怨": 3742,
    "怪": 3743,
    "总": 3744,
    "恆": 3745,
    "恋": 3746,
    "恍": 3747,
    "恐": 3748,
    "恒": 3749,
    "恕": 3750,
    "恢": 3751,
    "恩": 3752,
    "恭": 3753,
    "息": 3754,
    "恰": 3755,
    "恵": 3756,
    "恺": 3757,
    "悉": 3758,
    "悌": 3759,
    "悔": 3760,
    "悟": 3761,
    "悠": 3762,
    "悦": 3763,
    "您": 3764,
    "悩": 3765,
    "悪": 3766,
    "悲": 3767,
    "情": 3768,
    "惇": 3769,
    "惊": 3770,
    "惑": 3771,
    "惚": 3772,
    "惟": 3773,
    "惠": 3774,
    "惡": 3775,
    "惣": 3776,
    "想": 3777,
    "惹": 3778,
    "惺": 3779,
    "愁": 3780,
    "愈": 3781,
    "愉": 3782,
    "意": 3783,
    "愛": 3784,
    "感": 3785,
    "愼": 3786,
    "慄": 3787,
    "慈": 3788,
    "態": 3789,
    "慎": 3790,
    "慕": 3791,
    "慣": 3792,
    "慧": 3793,
    "慰": 3794,
    "慶": 3795,
    "憂": 3796,
    "憎": 3797,
    "憐": 3798,
    "憑": 3799,
    "憧": 3800,
    "憨": 3801,
    "憩": 3802,
    "憬": 3803,
    "憲": 3804,
    "憶": 3805,
    "應": 3806,
    "懋": 3807,
    "懐": 3808,
    "懲": 3809,
    "懷": 3810,
    "懺": 3811,
    "戀": 3812,
    "戈": 3813,
    "戊": 3814,
    "戏": 3815,
    "成": 3816,
    "我": 3817,
    "戒": 3818,
    "或": 3819,
    "战": 3820,
    "戟": 3821,
    "戡": 3822,
    "戦": 3823,
    "戯": 3824,
    "戰": 3825,
    "戲": 3826,
    "戴": 3827,
    "戶": 3828,
    "戸": 3829,
    "房": 3830,
    "所": 3831,
    "扁": 3832,
    "扉": 3833,
    "手": 3834,
    "扌": 3835,
    "才": 3836,
    "扎": 3837,
    "打": 3838,
    "払": 3839,
    "托": 3840,
    "扡": 3841,
    "扣": 3842,
    "找": 3843,
    "承": 3844,
    "技": 3845,
    "抄": 3846,
    "把": 3847,
    "抑": 3848,
    "投": 3849,
    "抗": 3850,
    "折": 3851,
    "抚": 3852,
    "抜": 3853,
    "択": 3854,
    "护": 3855,
    "报": 3856,
    "披": 3857,
    "抱": 3858,
    "抵": 3859,
    "押": 3860,
    "拂": 3861,
    "担": 3862,
    "拉": 3863,
    "拌": 3864,
    "拍": 3865,
    "拏": 3866,
    "拐": 3867,
    "拓": 3868,
    "拔": 3869,
    "招": 3870,
    "拜": 3871,
    "拝": 3872,
    "括": 3873,
    "拳": 3874,
    "拾": 3875,
    "持": 3876,
    "指": 3877,
    "按": 3878,
    "挑": 3879,
    "挙": 3880,
    "挥": 3881,
    "振": 3882,
    "挺": 3883,
    "挽": 3884,
    "捉": 3885,
    "捕": 3886,
    "捜": 3887,
    "捡": 3888,
    "捧": 3889,
    "捲": 3890,
    "捷": 3891,
    "捺": 3892,
    "捻": 3893,
    "掀": 3894,
    "掃": 3895,
    "授": 3896,
    "掌": 3897,
    "排": 3898,
    "掛": 3899,
    "掟": 3900,
    "掠": 3901,
    "探": 3902,
    "接": 3903,
    "推": 3904,
    "掬": 3905,
    "掰": 3906,
    "掱": 3907,
    "掲": 3908,
    "揃": 3909,
    "揆": 3910,
    "描": 3911,
    "提": 3912,
    "揚": 3913,
    "揭": 3914,
    "揮": 3915,
    "援": 3916,
    "揺": 3917,
    "搅": 3918,
    "搖": 3919,
    "搜": 3920,
    "搭": 3921,
    "摂": 3922,
    "摇": 3923,
    "摑": 3924,
    "摘": 3925,
    "摩": 3926,
    "摺": 3927,
    "撃": 3928,
    "撒": 3929,
    "撞": 3930,
    "撤": 3931,
    "撥": 3932,
    "撫": 3933,
    "播": 3934,
    "撮": 3935,
    "撰": 3936,
    "擁": 3937,
    "擊": 3938,
    "操": 3939,
    "擢": 3940,
    "攘": 3941,
    "攝": 3942,
    "支": 3943,
    "收": 3944,
    "攷": 3945,
    "攸": 3946,
    "改": 3947,
    "攻": 3948,
    "放": 3949,
    "政": 3950,
    "故": 3951,
    "敍": 3952,
    "敏": 3953,
    "救": 3954,
    "教": 3955,
    "敢": 3956,
    "散": 3957,
    "敦": 3958,
    "敨": 3959,
    "敬": 3960,
    "数": 3961,
    "整": 3962,
    "敵": 3963,
    "敷": 3964,
    "數": 3965,
    "文": 3966,
    "斉": 3967,
    "斎": 3968,
    "斐": 3969,
    "斑": 3970,
    "斗": 3971,
    "料": 3972,
    "斜": 3973,
    "斡": 3974,
    "斧": 3975,
    "斬": 3976,
    "断": 3977,
    "斯": 3978,
    "新": 3979,
    "方": 3980,
    "於": 3981,
    "施": 3982,
    "旅": 3983,
    "旋": 3984,
    "族": 3985,
    "旗": 3986,
    "无": 3987,
    "既": 3988,
    "日": 3989,
    "旦": 3990,
    "旧": 3991,
    "早": 3992,
    "旬": 3993,
    "旭": 3994,
    "时": 3995,
    "旺": 3996,
    "旻": 3997,
    "昀": 3998,
    "昂": 3999,
    "昇": 4000,
    "昊": 4001,
    "昌": 4002,
    "明": 4003,
    "昏": 4004,
    "易": 4005,
    "昔": 4006,
    "星": 4007,
    "映": 4008,
    "春": 4009,
    "昧": 4010,
    "昨": 4011,
    "昭": 4012,
    "是": 4013,
    "昴": 4014,
    "昺": 4015,
    "昼": 4016,
    "時": 4017,
    "晃": 4018,
    "晄": 4019,
    "晉": 4020,
    "晋": 4021,
    "晏": 4022,
    "晒": 4023,
    "晓": 4024,
    "晔": 4025,
    "晖": 4026,
    "晚": 4027,
    "晝": 4028,
    "晟": 4029,
    "晦": 4030,
    "晨": 4031,
    "晩": 4032,
    "普": 4033,
    "景": 4034,
    "晴": 4035,
    "晶": 4036,
    "智": 4037,
    "暁": 4038,
    "暈": 4039,
    "暉": 4040,
    "暑": 4041,
    "暖": 4042,
    "暗": 4043,
    "暢": 4044,
    "暦": 4045,
    "暮": 4046,
    "暴": 4047,
    "曆": 4048,
    "曇": 4049,
    "曉": 4050,
    "曙": 4051,
    "曜": 4052,
    "曝": 4053,
    "曠": 4054,
    "曦": 4055,
    "曰": 4056,
    "曲": 4057,
    "曳": 4058,
    "更": 4059,
    "書": 4060,
    "曹": 4061,
    "曼": 4062,
    "曽": 4063,
    "曾": 4064,
    "替": 4065,
    "最": 4066,
    "會": 4067,
    "月": 4068,
    "有": 4069,
    "朋": 4070,
    "服": 4071,
    "朔": 4072,
    "朗": 4073,
    "望": 4074,
    "朝": 4075,
    "期": 4076,
    "朧": 4077,
    "木": 4078,
    "未": 4079,
    "末": 4080,
    "本": 4081,
    "札": 4082,
    "术": 4083,
    "朱": 4084,
    "朴": 4085,
    "朵": 4086,
    "机": 4087,
    "朽": 4088,
    "权": 4089,
    "杆": 4090,
    "杉": 4091,
    "李": 4092,
    "杏": 4093,
    "材": 4094,
    "村": 4095,
    "杖": 4096,
    "杜": 4097,
    "束": 4098,
    "条": 4099,
    "来": 4100,
    "杨": 4101,
    "杭": 4102,
    "杯": 4103,
    "杰": 4104,
    "東": 4105,
    "杵": 4106,
    "杷": 4107,
    "杺": 4108,
    "杽": 4109,
    "松": 4110,
    "板": 4111,
    "极": 4112,
    "枇": 4113,
    "枉": 4114,
    "枕": 4115,
    "林": 4116,
    "枚": 4117,
    "果": 4118,
    "枝": 4119,
    "枫": 4120,
    "架": 4121,
    "枼": 4122,
    "柊": 4123,
    "柏": 4124,
    "某": 4125,
    "柑": 4126,
    "染": 4127,
    "柔": 4128,
    "柘": 4129,
    "柚": 4130,
    "查": 4131,
    "柱": 4132,
    "柳": 4133,
    "柴": 4134,
    "査": 4135,
    "柾": 4136,
    "柿": 4137,
    "栃": 4138,
    "栄": 4139,
    "标": 4140,
    "栋": 4141,
    "树": 4142,
    "栖": 4143,
    "栗": 4144,
    "栞": 4145,
    "栠": 4146,
    "校": 4147,
    "株": 4148,
    "核": 4149,
    "根": 4150,
    "格": 4151,
    "栾": 4152,
    "桀": 4153,
    "桂": 4154,
    "桃": 4155,
    "桅": 4156,
    "案": 4157,
    "桐": 4158,
    "桑": 4159,
    "桓": 4160,
    "桔": 4161,
    "桜": 4162,
    "桥": 4163,
    "桦": 4164,
    "桧": 4165,
    "桳": 4166,
    "桶": 4167,
    "梁": 4168,
    "梅": 4169,
    "梆": 4170,
    "梓": 4171,
    "梛": 4172,
    "條": 4173,
    "梟": 4174,
    "梢": 4175,
    "梦": 4176,
    "梧": 4177,
    "梨": 4178,
    "梯": 4179,
    "械": 4180,
    "梵": 4181,
    "梶": 4182,
    "棄": 4183,
    "棉": 4184,
    "棋": 4185,
    "棍": 4186,
    "棒": 4187,
    "棘": 4188,
    "棟": 4189,
    "森": 4190,
    "棲": 4191,
    "椀": 4192,
    "椅": 4193,
    "椋": 4194,
    "植": 4195,
    "椎": 4196,
    "椒": 4197,
    "椚": 4198,
    "椛": 4199,
    "検": 4200,
    "椰": 4201,
    "椿": 4202,
    "楊": 4203,
    "楓": 4204,
    "楕": 4205,
    "楚": 4206,
    "楠": 4207,
    "楢": 4208,
    "業": 4209,
    "楯": 4210,
    "極": 4211,
    "楼": 4212,
    "楽": 4213,
    "概": 4214,
    "榊": 4215,
    "榎": 4216,
    "榛": 4217,
    "榜": 4218,
    "榮": 4219,
    "榴": 4220,
    "槇": 4221,
    "構": 4222,
    "槌": 4223,
    "槍": 4224,
    "様": 4225,
    "槙": 4226,
    "槻": 4227,
    "樂": 4228,
    "樊": 4229,
    "樋": 4230,
    "樓": 4231,
    "標": 4232,
    "樟": 4233,
    "模": 4234,
    "樣": 4235,
    "権": 4236,
    "横": 4237,
    "樫": 4238,
    "樸": 4239,
    "樹": 4240,
    "樺": 4241,
    "樽": 4242,
    "橋": 4243,
    "橘": 4244,
    "橙": 4245,
    "機": 4246,
    "橢": 4247,
    "橫": 4248,
    "檀": 4249,
    "檎": 4250,
    "檗": 4251,
    "檜": 4252,
    "檢": 4253,
    "檬": 4254,
    "檸": 4255,
    "櫂": 4256,
    "櫓": 4257,
    "櫛": 4258,
    "櫟": 4259,
    "櫻": 4260,
    "欄": 4261,
    "權": 4262,
    "欗": 4263,
    "欠": 4264,
    "次": 4265,
    "欢": 4266,
    "欣": 4267,
    "欧": 4268,
    "欲": 4269,
    "欽": 4270,
    "款": 4271,
    "歆": 4272,
    "歌": 4273,
    "歎": 4274,
    "歐": 4275,
    "歓": 4276,
    "歙": 4277,
    "歡": 4278,
    "止": 4279,
    "正": 4280,
    "此": 4281,
    "步": 4282,
    "武": 4283,
    "歩": 4284,
    "歲": 4285,
    "歳": 4286,
    "歴": 4287,
    "歷": 4288,
    "死": 4289,
    "殆": 4290,
    "殉": 4291,
    "殊": 4292,
    "残": 4293,
    "殖": 4294,
    "殘": 4295,
    "段": 4296,
    "殷": 4297,
    "殺": 4298,
    "殿": 4299,
    "毀": 4300,
    "毅": 4301,
    "毋": 4302,
    "母": 4303,
    "毎": 4304,
    "每": 4305,
    "毒": 4306,
    "比": 4307,
    "毘": 4308,
    "毛": 4309,
    "毫": 4310,
    "毬": 4311,
    "毯": 4312,
    "氏": 4313,
    "民": 4314,
    "气": 4315,
    "気": 4316,
    "氣": 4317,
    "水": 4318,
    "氵": 4319,
    "氷": 4320,
    "永": 4321,
    "汀": 4322,
    "求": 4323,
    "汆": 4324,
    "汇": 4325,
    "汉": 4326,
    "汐": 4327,
    "汕": 4328,
    "汗": 4329,
    "汚": 4330,
    "汝": 4331,
    "江": 4332,
    "池": 4333,
    "汤": 4334,
    "汪": 4335,
    "汰": 4336,
    "汲": 4337,
    "汴": 4338,
    "決": 4339,
    "汽": 4340,
    "汾": 4341,
    "沁": 4342,
    "沃": 4343,
    "沅": 4344,
    "沈": 4345,
    "沉": 4346,
    "沊": 4347,
    "沌": 4348,
    "沒": 4349,
    "沓": 4350,
    "沖": 4351,
    "沙": 4352,
    "沝": 4353,
    "没": 4354,
    "沢": 4355,
    "沥": 4356,
    "沧": 4357,
    "沫": 4358,
    "沭": 4359,
    "沮": 4360,
    "河": 4361,
    "沸": 4362,
    "油": 4363,
    "治": 4364,
    "沼": 4365,
    "泉": 4366,
    "法": 4367,
    "泗": 4368,
    "波": 4369,
    "泣": 4370,
    "泥": 4371,
    "注": 4372,
    "泪": 4373,
    "泰": 4374,
    "泽": 4375,
    "洁": 4376,
    "洋": 4377,
    "洒": 4378,
    "洛": 4379,
    "洞": 4380,
    "津": 4381,
    "洪": 4382,
    "洲": 4383,
    "洵": 4384,
    "洸": 4385,
    "活": 4386,
    "洽": 4387,
    "派": 4388,
    "流": 4389,
    "浄": 4390,
    "浅": 4391,
    "浆": 4392,
    "浊": 4393,
    "济": 4394,
    "浑": 4395,
    "浜": 4396,
    "浣": 4397,
    "浦": 4398,
    "浩": 4399,
    "浪": 4400,
    "浬": 4401,
    "浮": 4402,
    "浴": 4403,
    "海": 4404,
    "消": 4405,
    "涉": 4406,
    "涌": 4407,
    "涙": 4408,
    "润": 4409,
    "涮": 4410,
    "涯": 4411,
    "液": 4412,
    "涵": 4413,
    "涸": 4414,
    "涼": 4415,
    "淀": 4416,
    "淋": 4417,
    "淑": 4418,
    "淖": 4419,
    "淚": 4420,
    "淞": 4421,
    "淨": 4422,
    "淫": 4423,
    "淮": 4424,
    "深": 4425,
    "淳": 4426,
    "淵": 4427,
    "混": 4428,
    "淸": 4429,
    "添": 4430,
    "清": 4431,
    "渇": 4432,
    "済": 4433,
    "渉": 4434,
    "渊": 4435,
    "渋": 4436,
    "渓": 4437,
    "渔": 4438,
    "渙": 4439,
    "渚": 4440,
    "渡": 4441,
    "渣": 4442,
    "渥": 4443,
    "温": 4444,
    "渭": 4445,
    "港": 4446,
    "渴": 4447,
    "游": 4448,
    "渾": 4449,
    "湊": 4450,
    "湖": 4451,
    "湘": 4452,
    "湛": 4453,
    "湧": 4454,
    "湯": 4455,
    "湾": 4456,
    "湿": 4457,
    "満": 4458,
    "源": 4459,
    "準": 4460,
    "溜": 4461,
    "溢": 4462,
    "溥": 4463,
    "溪": 4464,
    "溫": 4465,
    "溶": 4466,
    "滅": 4467,
    "滇": 4468,
    "滉": 4469,
    "滓": 4470,
    "滚": 4471,
    "滝": 4472,
    "滞": 4473,
    "满": 4474,
    "滩": 4475,
    "滯": 4476,
    "滸": 4477,
    "漂": 4478,
    "漆": 4479,
    "演": 4480,
    "漕": 4481,
    "漠": 4482,
    "漢": 4483,
    "漣": 4484,
    "漫": 4485,
    "漬": 4486,
    "漱": 4487,
    "漳": 4488,
    "漿": 4489,
    "潁": 4490,
    "潇": 4491,
    "潔": 4492,
    "潛": 4493,
    "潜": 4494,
    "潞": 4495,
    "潤": 4496,
    "潭": 4497,
    "潮": 4498,
    "澁": 4499,
    "澄": 4500,
    "澜": 4501,
    "澤": 4502,
    "澪": 4503,
    "澳": 4504,
    "激": 4505,
    "濁": 4506,
    "濂": 4507,
    "濃": 4508,
    "濕": 4509,
    "濛": 4510,
    "濞": 4511,
    "濟": 4512,
    "濡": 4513,
    "濤": 4514,
    "濩": 4515,
    "濱": 4516,
    "濹": 4517,
    "瀕": 4518,
    "瀛": 4519,
    "瀧": 4520,
    "瀨": 4521,
    "瀬": 4522,
    "灌": 4523,
    "灘": 4524,
    "灣": 4525,
    "火": 4526,
    "灬": 4527,
    "灭": 4528,
    "灯": 4529,
    "灰": 4530,
    "灱": 4531,
    "灵": 4532,
    "灸": 4533,
    "灼": 4534,
    "災": 4535,
    "炎": 4536,
    "炒": 4537,
    "炖": 4538,
    "炘": 4539,
    "炭": 4540,
    "炮": 4541,
    "炯": 4542,
    "炳": 4543,
    "点": 4544,
    "為": 4545,
    "烈": 4546,
    "烏": 4547,
    "烤": 4548,
    "烦": 4549,
    "烧": 4550,
    "热": 4551,
    "烽": 4552,
    "焉": 4553,
    "焚": 4554,
    "無": 4555,
    "焦": 4556,
    "焰": 4557,
    "然": 4558,
    "焼": 4559,
    "煉": 4560,
    "煌": 4561,
    "煎": 4562,
    "煙": 4563,
    "煜": 4564,
    "煤": 4565,
    "煥": 4566,
    "照": 4567,
    "煩": 4568,
    "煮": 4569,
    "煲": 4570,
    "熊": 4571,
    "熙": 4572,
    "熟": 4573,
    "熱": 4574,
    "熹": 4575,
    "燃": 4576,
    "燈": 4577,
    "燎": 4578,
    "燒": 4579,
    "燕": 4580,
    "營": 4581,
    "燦": 4582,
    "燭": 4583,
    "燮": 4584,
    "燿": 4585,
    "爆": 4586,
    "爐": 4587,
    "爛": 4588,
    "爪": 4589,
    "爬": 4590,
    "爭": 4591,
    "爱": 4592,
    "爲": 4593,
    "爵": 4594,
    "父": 4595,
    "爸": 4596,
    "爺": 4597,
    "爽": 4598,
    "爾": 4599,
    "片": 4600,
    "版": 4601,
    "牌": 4602,
    "牒": 4603,
    "牙": 4604,
    "牛": 4605,
    "牟": 4606,
    "牡": 4607,
    "牧": 4608,
    "物": 4609,
    "特": 4610,
    "牽": 4611,
    "犀": 4612,
    "犁": 4613,
    "犟": 4614,
    "犬": 4615,
    "犭": 4616,
    "犯": 4617,
    "状": 4618,
    "狀": 4619,
    "狂": 4620,
    "狐": 4621,
    "狗": 4622,
    "狙": 4623,
    "狡": 4624,
    "狩": 4625,
    "独": 4626,
    "狭": 4627,
    "狮": 4628,
    "狱": 4629,
    "狸": 4630,
    "狹": 4631,
    "狼": 4632,
    "猛": 4633,
    "猜": 4634,
    "猟": 4635,
    "猪": 4636,
    "猫": 4637,
    "献": 4638,
    "猶": 4639,
    "猷": 4640,
    "猿": 4641,
    "獄": 4642,
    "獅": 4643,
    "獎": 4644,
    "獣": 4645,
    "獨": 4646,
    "獴": 4647,
    "獵": 4648,
    "獸": 4649,
    "玄": 4650,
    "率": 4651,
    "玉": 4652,
    "王": 4653,
    "玖": 4654,
    "玛": 4655,
    "玟": 4656,
    "玩": 4657,
    "玫": 4658,
    "环": 4659,
    "现": 4660,
    "玲": 4661,
    "玻": 4662,
    "珀": 4663,
    "珂": 4664,
    "珈": 4665,
    "珊": 4666,
    "珍": 4667,
    "珠": 4668,
    "珪": 4669,
    "班": 4670,
    "現": 4671,
    "球": 4672,
    "理": 4673,
    "琉": 4674,
    "琏": 4675,
    "琠": 4676,
    "琢": 4677,
    "琥": 4678,
    "琨": 4679,
    "琪": 4680,
    "琳": 4681,
    "琴": 4682,
    "琵": 4683,
    "琶": 4684,
    "琼": 4685,
    "瑚": 4686,
    "瑛": 4687,
    "瑜": 4688,
    "瑞": 4689,
    "瑟": 4690,
    "瑠": 4691,
    "瑪": 4692,
    "瑰": 4693,
    "瑳": 4694,
    "瑶": 4695,
    "璁": 4696,
    "璃": 4697,
    "璋": 4698,
    "璩": 4699,
    "環": 4700,
    "璽": 4701,
    "瓛": 4702,
    "瓜": 4703,
    "瓢": 4704,
    "瓣": 4705,
    "瓦": 4706,
    "瓶": 4707,
    "甄": 4708,
    "甌": 4709,
    "甕": 4710,
    "甘": 4711,
    "甚": 4712,
    "甜": 4713,
    "生": 4714,
    "產": 4715,
    "産": 4716,
    "甥": 4717,
    "用": 4718,
    "甫": 4719,
    "田": 4720,
    "由": 4721,
    "甲": 4722,
    "申": 4723,
    "电": 4724,
    "男": 4725,
    "甸": 4726,
    "町": 4727,
    "画": 4728,
    "畂": 4729,
    "界": 4730,
    "畑": 4731,
    "畔": 4732,
    "留": 4733,
    "畜": 4734,
    "畝": 4735,
    "畠": 4736,
    "畢": 4737,
    "略": 4738,
    "畦": 4739,
    "番": 4740,
    "畫": 4741,
    "異": 4742,
    "畳": 4743,
    "畵": 4744,
    "當": 4745,
    "畿": 4746,
    "疆": 4747,
    "疊": 4748,
    "疋": 4749,
    "疏": 4750,
    "疑": 4751,
    "疾": 4752,
    "病": 4753,
    "症": 4754,
    "痔": 4755,
    "痕": 4756,
    "痩": 4757,
    "痴": 4758,
    "瘋": 4759,
    "瘦": 4760,
    "瘾": 4761,
    "療": 4762,
    "癌": 4763,
    "癩": 4764,
    "癲": 4765,
    "癸": 4766,
    "発": 4767,
    "登": 4768,
    "發": 4769,
    "白": 4770,
    "百": 4771,
    "的": 4772,
    "皆": 4773,
    "皇": 4774,
    "皐": 4775,
    "皓": 4776,
    "皮": 4777,
    "盃": 4778,
    "盈": 4779,
    "益": 4780,
    "监": 4781,
    "盖": 4782,
    "盗": 4783,
    "盘": 4784,
    "盛": 4785,
    "盜": 4786,
    "盟": 4787,
    "盡": 4788,
    "監": 4789,
    "盤": 4790,
    "盧": 4791,
    "目": 4792,
    "盲": 4793,
    "直": 4794,
    "相": 4795,
    "盾": 4796,
    "省": 4797,
    "眉": 4798,
    "看": 4799,
    "県": 4800,
    "眞": 4801,
    "真": 4802,
    "眠": 4803,
    "眩": 4804,
    "眸": 4805,
    "眼": 4806,
    "着": 4807,
    "睡": 4808,
    "督": 4809,
    "睦": 4810,
    "睹": 4811,
    "睿": 4812,
    "瞥": 4813,
    "瞬": 4814,
    "瞭": 4815,
    "瞳": 4816,
    "瞼": 4817,
    "瞽": 4818,
    "矛": 4819,
    "矢": 4820,
    "知": 4821,
    "矩": 4822,
    "短": 4823,
    "石": 4824,
    "矸": 4825,
    "矿": 4826,
    "码": 4827,
    "砂": 4828,
    "研": 4829,
    "砕": 4830,
    "砥": 4831,
    "砦": 4832,
    "砧": 4833,
    "砲": 4834,
    "破": 4835,
    "硫": 4836,
    "硬": 4837,
    "硯": 4838,
    "碁": 4839,
    "碇": 4840,
    "碉": 4841,
    "碌": 4842,
    "碎": 4843,
    "碑": 4844,
    "碓": 4845,
    "碗": 4846,
    "碧": 4847,
    "碩": 4848,
    "碰": 4849,
    "確": 4850,
    "磁": 4851,
    "磊": 4852,
    "磐": 4853,
    "磨": 4854,
    "磯": 4855,
    "磴": 4856,
    "礁": 4857,
    "礦": 4858,
    "示": 4859,
    "礼": 4860,
    "社": 4861,
    "祁": 4862,
    "祇": 4863,
    "祈": 4864,
    "祉": 4865,
    "祐": 4866,
    "祓": 4867,
    "祕": 4868,
    "祖": 4869,
    "祚": 4870,
    "祝": 4871,
    "神": 4872,
    "祠": 4873,
    "祢": 4874,
    "祥": 4875,
    "票": 4876,
    "祭": 4877,
    "祯": 4878,
    "祷": 4879,
    "祿": 4880,
    "禄": 4881,
    "禅": 4882,
    "禍": 4883,
    "禎": 4884,
    "福": 4885,
    "禔": 4886,
    "禧": 4887,
    "禪": 4888,
    "禮": 4889,
    "禰": 4890,
    "禱": 4891,
    "禹": 4892,
    "禺": 4893,
    "离": 4894,
    "禽": 4895,
    "禾": 4896,
    "禿": 4897,
    "秀": 4898,
    "私": 4899,
    "秋": 4900,
    "种": 4901,
    "科": 4902,
    "秒": 4903,
    "秘": 4904,
    "租": 4905,
    "秤": 4906,
    "秦": 4907,
    "秩": 4908,
    "称": 4909,
    "移": 4910,
    "稀": 4911,
    "程": 4912,
    "稔": 4913,
    "稗": 4914,
    "稚": 4915,
    "稜": 4916,
    "稟": 4917,
    "稠": 4918,
    "稣": 4919,
    "種": 4920,
    "稱": 4921,
    "稲": 4922,
    "稷": 4923,
    "稹": 4924,
    "稻": 4925,
    "稼": 4926,
    "稿": 4927,
    "穀": 4928,
    "穂": 4929,
    "穆": 4930,
    "積": 4931,
    "穎": 4932,
    "穗": 4933,
    "穢": 4934,
    "穣": 4935,
    "穩": 4936,
    "穰": 4937,
    "穴": 4938,
    "究": 4939,
    "穷": 4940,
    "穹": 4941,
    "空": 4942,
    "穿": 4943,
    "突": 4944,
    "窄": 4945,
    "窓": 4946,
    "窩": 4947,
    "窪": 4948,
    "窯": 4949,
    "窺": 4950,
    "竊": 4951,
    "立": 4952,
    "竖": 4953,
    "站": 4954,
    "竜": 4955,
    "章": 4956,
    "竣": 4957,
    "童": 4958,
    "竪": 4959,
    "端": 4960,
    "競": 4961,
    "竹": 4962,
    "竺": 4963,
    "竿": 4964,
    "笈": 4965,
    "笏": 4966,
    "笑": 4967,
    "笙": 4968,
    "笛": 4969,
    "笠": 4970,
    "符": 4971,
    "笨": 4972,
    "第": 4973,
    "笳": 4974,
    "笹": 4975,
    "笼": 4976,
    "筆": 4977,
    "筈": 4978,
    "等": 4979,
    "筋": 4980,
    "筑": 4981,
    "筒": 4982,
    "答": 4983,
    "策": 4984,
    "筧": 4985,
    "筭": 4986,
    "筷": 4987,
    "简": 4988,
    "箇": 4989,
    "箔": 4990,
    "箕": 4991,
    "算": 4992,
    "管": 4993,
    "箫": 4994,
    "箭": 4995,
    "箱": 4996,
    "節": 4997,
    "範": 4998,
    "篆": 4999,
    "篇": 5000,
    "築": 5001,
    "篠": 5002,
    "篤": 5003,
    "簞": 5004,
    "簡": 5005,
    "簪": 5006,
    "簫": 5007,
    "簾": 5008,
    "簿": 5009,
    "籍": 5010,
    "籠": 5011,
    "米": 5012,
    "籾": 5013,
    "粉": 5014,
    "粋": 5015,
    "粒": 5016,
    "粕": 5017,
    "粟": 5018,
    "粥": 5019,
    "粧": 5020,
    "粵": 5021,
    "粹": 5022,
    "精": 5023,
    "粿": 5024,
    "糊": 5025,
    "糍": 5026,
    "糎": 5027,
    "糕": 5028,
    "糖": 5029,
    "糞": 5030,
    "糟": 5031,
    "糬": 5032,
    "糯": 5033,
    "糸": 5034,
    "糺": 5035,
    "系": 5036,
    "紀": 5037,
    "約": 5038,
    "紅": 5039,
    "紋": 5040,
    "紐": 5041,
    "紓": 5042,
    "純": 5043,
    "紗": 5044,
    "紘": 5045,
    "紙": 5046,
    "級": 5047,
    "紛": 5048,
    "素": 5049,
    "索": 5050,
    "紧": 5051,
    "紫": 5052,
    "紬": 5053,
    "細": 5054,
    "紳": 5055,
    "紹": 5056,
    "紺": 5057,
    "終": 5058,
    "絃": 5059,
    "組": 5060,
    "絆": 5061,
    "経": 5062,
    "結": 5063,
    "絞": 5064,
    "絡": 5065,
    "絢": 5066,
    "給": 5067,
    "絨": 5068,
    "統": 5069,
    "絲": 5070,
    "絳": 5071,
    "絵": 5072,
    "絶": 5073,
    "絹": 5074,
    "經": 5075,
    "継": 5076,
    "続": 5077,
    "綜": 5078,
    "綠": 5079,
    "綬": 5080,
    "維": 5081,
    "綱": 5082,
    "網": 5083,
    "綴": 5084,
    "綸": 5085,
    "綺": 5086,
    "綾": 5087,
    "緇": 5088,
    "緋": 5089,
    "総": 5090,
    "緑": 5091,
    "緒": 5092,
    "緖": 5093,
    "線": 5094,
    "緣": 5095,
    "編": 5096,
    "緩": 5097,
    "緬": 5098,
    "練": 5099,
    "縁": 5100,
    "縄": 5101,
    "縛": 5102,
    "縞": 5103,
    "縣": 5104,
    "縦": 5105,
    "縮": 5106,
    "縱": 5107,
    "縷": 5108,
    "總": 5109,
    "績": 5110,
    "繁": 5111,
    "繊": 5112,
    "織": 5113,
    "繚": 5114,
    "繞": 5115,
    "繡": 5116,
    "繫": 5117,
    "纂": 5118,
    "續": 5119,
    "纏": 5120,
    "纖": 5121,
    "红": 5122,
    "约": 5123,
    "级": 5124,
    "纪": 5125,
    "纳": 5126,
    "纸": 5127,
    "线": 5128,
    "练": 5129,
    "细": 5130,
    "绍": 5131,
    "经": 5132,
    "结": 5133,
    "给": 5134,
    "继": 5135,
    "绪": 5136,
    "维": 5137,
    "绸": 5138,
    "编": 5139,
    "缨": 5140,
    "网": 5141,
    "罕": 5142,
    "罗": 5143,
    "罠": 5144,
    "罪": 5145,
    "置": 5146,
    "罰": 5147,
    "署": 5148,
    "罷": 5149,
    "羂": 5150,
    "羅": 5151,
    "羊": 5152,
    "羌": 5153,
    "美": 5154,
    "羚": 5155,
    "羢": 5156,
    "群": 5157,
    "義": 5158,
    "羬": 5159,
    "羮": 5160,
    "羲": 5161,
    "羹": 5162,
    "羽": 5163,
    "翁": 5164,
    "翅": 5165,
    "習": 5166,
    "翔": 5167,
    "翘": 5168,
    "翚": 5169,
    "翟": 5170,
    "翠": 5171,
    "翬": 5172,
    "翰": 5173,
    "翻": 5174,
    "翼": 5175,
    "耀": 5176,
    "老": 5177,
    "考": 5178,
    "者": 5179,
    "而": 5180,
    "耐": 5181,
    "耕": 5182,
    "耳": 5183,
    "耶": 5184,
    "耽": 5185,
    "职": 5186,
    "联": 5187,
    "聖": 5188,
    "聞": 5189,
    "聡": 5190,
    "聯": 5191,
    "聰": 5192,
    "聲": 5193,
    "聴": 5194,
    "聽": 5195,
    "聾": 5196,
    "肃": 5197,
    "肅": 5198,
    "肇": 5199,
    "肉": 5200,
    "肋": 5201,
    "肌": 5202,
    "肖": 5203,
    "肠": 5204,
    "股": 5205,
    "肥": 5206,
    "肩": 5207,
    "肯": 5208,
    "育": 5209,
    "肴": 5210,
    "肺": 5211,
    "胆": 5212,
    "背": 5213,
    "胎": 5214,
    "胖": 5215,
    "胜": 5216,
    "胡": 5217,
    "胤": 5218,
    "胸": 5219,
    "能": 5220,
    "脅": 5221,
    "脇": 5222,
    "脈": 5223,
    "脊": 5224,
    "脑": 5225,
    "脩": 5226,
    "脫": 5227,
    "脯": 5228,
    "脱": 5229,
    "脳": 5230,
    "脷": 5231,
    "脸": 5232,
    "脹": 5233,
    "腐": 5234,
    "腔": 5235,
    "腕": 5236,
    "腦": 5237,
    "腰": 5238,
    "腸": 5239,
    "腹": 5240,
    "腾": 5241,
    "膀": 5242,
    "膏": 5243,
    "膜": 5244,
    "膳": 5245,
    "膵": 5246,
    "膺": 5247,
    "臉": 5248,
    "臓": 5249,
    "臟": 5250,
    "臣": 5251,
    "臥": 5252,
    "臧": 5253,
    "臨": 5254,
    "自": 5255,
    "臬": 5256,
    "臭": 5257,
    "至": 5258,
    "致": 5259,
    "臺": 5260,
    "與": 5261,
    "興": 5262,
    "舊": 5263,
    "舌": 5264,
    "舍": 5265,
    "舎": 5266,
    "舗": 5267,
    "舜": 5268,
    "舞": 5269,
    "舟": 5270,
    "航": 5271,
    "般": 5272,
    "舰": 5273,
    "舵": 5274,
    "船": 5275,
    "舺": 5276,
    "艇": 5277,
    "艋": 5278,
    "艦": 5279,
    "良": 5280,
    "色": 5281,
    "艶": 5282,
    "艺": 5283,
    "艾": 5284,
    "节": 5285,
    "芈": 5286,
    "芋": 5287,
    "芒": 5288,
    "芗": 5289,
    "芙": 5290,
    "芝": 5291,
    "芥": 5292,
    "芦": 5293,
    "芫": 5294,
    "芭": 5295,
    "花": 5296,
    "芳": 5297,
    "芸": 5298,
    "芹": 5299,
    "芽": 5300,
    "苏": 5301,
    "苑": 5302,
    "苓": 5303,
    "苔": 5304,
    "苗": 5305,
    "若": 5306,
    "苦": 5307,
    "苫": 5308,
    "英": 5309,
    "苹": 5310,
    "苺": 5311,
    "苻": 5312,
    "茂": 5313,
    "范": 5314,
    "茄": 5315,
    "茅": 5316,
    "茉": 5317,
    "茎": 5318,
    "茜": 5319,
    "茨": 5320,
    "茫": 5321,
    "茶": 5322,
    "茸": 5323,
    "茹": 5324,
    "荆": 5325,
    "草": 5326,
    "荊": 5327,
    "荒": 5328,
    "荘": 5329,
    "荛": 5330,
    "荟": 5331,
    "荣": 5332,
    "药": 5333,
    "荷": 5334,
    "荻": 5335,
    "荼": 5336,
    "莉": 5337,
    "莊": 5338,
    "莎": 5339,
    "莒": 5340,
    "莞": 5341,
    "莫": 5342,
    "莲": 5343,
    "莹": 5344,
    "莽": 5345,
    "菅": 5346,
    "菊": 5347,
    "菌": 5348,
    "菓": 5349,
    "菖": 5350,
    "菜": 5351,
    "菩": 5352,
    "菫": 5353,
    "華": 5354,
    "菱": 5355,
    "菲": 5356,
    "菴": 5357,
    "萄": 5358,
    "萊": 5359,
    "萌": 5360,
    "萍": 5361,
    "萠": 5362,
    "营": 5363,
    "萧": 5364,
    "萨": 5365,
    "萩": 5366,
    "萬": 5367,
    "萱": 5368,
    "落": 5369,
    "葉": 5370,
    "著": 5371,
    "葛": 5372,
    "葡": 5373,
    "董": 5374,
    "葦": 5375,
    "葬": 5376,
    "葭": 5377,
    "葵": 5378,
    "葺": 5379,
    "蒋": 5380,
    "蒐": 5381,
    "蒔": 5382,
    "蒙": 5383,
    "蒜": 5384,
    "蒲": 5385,
    "蒸": 5386,
    "蒼": 5387,
    "蓄": 5388,
    "蓉": 5389,
    "蓍": 5390,
    "蓑": 5391,
    "蓜": 5392,
    "蓬": 5393,
    "蓮": 5394,
    "蔓": 5395,
    "蔡": 5396,
    "蔣": 5397,
    "蔦": 5398,
    "蔭": 5399,
    "蔵": 5400,
    "蔺": 5401,
    "蕃": 5402,
    "蕉": 5403,
    "蕎": 5404,
    "蕗": 5405,
    "蕨": 5406,
    "蕪": 5407,
    "蕭": 5408,
    "蕴": 5409,
    "蕾": 5410,
    "薇": 5411,
    "薔": 5412,
    "薗": 5413,
    "薙": 5414,
    "薛": 5415,
    "薦": 5416,
    "薩": 5417,
    "薪": 5418,
    "薫": 5419,
    "薬": 5420,
    "薯": 5421,
    "薰": 5422,
    "藁": 5423,
    "藍": 5424,
    "藏": 5425,
    "藝": 5426,
    "藤": 5427,
    "藥": 5428,
    "藩": 5429,
    "藪": 5430,
    "藳": 5431,
    "蘇": 5432,
    "蘭": 5433,
    "虎": 5434,
    "虐": 5435,
    "處": 5436,
    "虚": 5437,
    "虛": 5438,
    "虜": 5439,
    "虞": 5440,
    "號": 5441,
    "虫": 5442,
    "虹": 5443,
    "虾": 5444,
    "蚊": 5445,
    "蚌": 5446,
    "蚩": 5447,
    "蛇": 5448,
    "蛋": 5449,
    "蛛": 5450,
    "蛮": 5451,
    "蜀": 5452,
    "蜂": 5453,
    "蜗": 5454,
    "蜘": 5455,
    "蜜": 5456,
    "蜡": 5457,
    "蜥": 5458,
    "蜩": 5459,
    "蜴": 5460,
    "蝉": 5461,
    "蝕": 5462,
    "蝙": 5463,
    "蝠": 5464,
    "蝦": 5465,
    "蝴": 5466,
    "蝶": 5467,
    "融": 5468,
    "螢": 5469,
    "螺": 5470,
    "蟬": 5471,
    "蟲": 5472,
    "蟹": 5473,
    "蠟": 5474,
    "蠻": 5475,
    "血": 5476,
    "衆": 5477,
    "行": 5478,
    "衒": 5479,
    "術": 5480,
    "街": 5481,
    "衛": 5482,
    "衝": 5483,
    "衞": 5484,
    "衡": 5485,
    "衣": 5486,
    "表": 5487,
    "衲": 5488,
    "衿": 5489,
    "袁": 5490,
    "袈": 5491,
    "袋": 5492,
    "袍": 5493,
    "袖": 5494,
    "被": 5495,
    "袴": 5496,
    "裁": 5497,
    "裂": 5498,
    "装": 5499,
    "裏": 5500,
    "裔": 5501,
    "裕": 5502,
    "補": 5503,
    "裝": 5504,
    "裟": 5505,
    "裡": 5506,
    "裳": 5507,
    "裸": 5508,
    "製": 5509,
    "裾": 5510,
    "複": 5511,
    "褐": 5512,
    "褒": 5513,
    "褥": 5514,
    "襄": 5515,
    "襖": 5516,
    "襟": 5517,
    "襲": 5518,
    "西": 5519,
    "要": 5520,
    "覆": 5521,
    "覇": 5522,
    "見": 5523,
    "規": 5524,
    "視": 5525,
    "覗": 5526,
    "覚": 5527,
    "覧": 5528,
    "親": 5529,
    "観": 5530,
    "覺": 5531,
    "覽": 5532,
    "觀": 5533,
    "见": 5534,
    "观": 5535,
    "规": 5536,
    "视": 5537,
    "觉": 5538,
    "角": 5539,
    "觜": 5540,
    "解": 5541,
    "触": 5542,
    "言": 5543,
    "訂": 5544,
    "計": 5545,
    "訊": 5546,
    "討": 5547,
    "訓": 5548,
    "託": 5549,
    "記": 5550,
    "訣": 5551,
    "訪": 5552,
    "設": 5553,
    "許": 5554,
    "訳": 5555,
    "訶": 5556,
    "診": 5557,
    "註": 5558,
    "証": 5559,
    "詐": 5560,
    "詒": 5561,
    "評": 5562,
    "詛": 5563,
    "詞": 5564,
    "詟": 5565,
    "詠": 5566,
    "詢": 5567,
    "試": 5568,
    "詩": 5569,
    "詫": 5570,
    "話": 5571,
    "誉": 5572,
    "誌": 5573,
    "認": 5574,
    "誓": 5575,
    "誕": 5576,
    "誘": 5577,
    "語": 5578,
    "誠": 5579,
    "誥": 5580,
    "誦": 5581,
    "說": 5582,
    "説": 5583,
    "読": 5584,
    "誰": 5585,
    "課": 5586,
    "誼": 5587,
    "調": 5588,
    "諄": 5589,
    "談": 5590,
    "請": 5591,
    "諏": 5592,
    "諒": 5593,
    "論": 5594,
    "諜": 5595,
    "諫": 5596,
    "諷": 5597,
    "諸": 5598,
    "諺": 5599,
    "諾": 5600,
    "謀": 5601,
    "謁": 5602,
    "謂": 5603,
    "謎": 5604,
    "謙": 5605,
    "講": 5606,
    "謝": 5607,
    "謠": 5608,
    "謡": 5609,
    "謨": 5610,
    "謹": 5611,
    "識": 5612,
    "譚": 5613,
    "譜": 5614,
    "警": 5615,
    "議": 5616,
    "譲": 5617,
    "護": 5618,
    "譽": 5619,
    "讃": 5620,
    "變": 5621,
    "讐": 5622,
    "讓": 5623,
    "讚": 5624,
    "计": 5625,
    "订": 5626,
    "讨": 5627,
    "让": 5628,
    "训": 5629,
    "议": 5630,
    "记": 5631,
    "许": 5632,
    "论": 5633,
    "设": 5634,
    "证": 5635,
    "词": 5636,
    "诏": 5637,
    "译": 5638,
    "诗": 5639,
    "诚": 5640,
    "话": 5641,
    "询": 5642,
    "语": 5643,
    "说": 5644,
    "诸": 5645,
    "诽": 5646,
    "课": 5647,
    "谊": 5648,
    "谢": 5649,
    "谣": 5650,
    "谭": 5651,
    "谱": 5652,
    "谷": 5653,
    "豆": 5654,
    "豉": 5655,
    "豊": 5656,
    "豚": 5657,
    "象": 5658,
    "豪": 5659,
    "豫": 5660,
    "豹": 5661,
    "貌": 5662,
    "貍": 5663,
    "貓": 5664,
    "貝": 5665,
    "貞": 5666,
    "負": 5667,
    "財": 5668,
    "貢": 5669,
    "貧": 5670,
    "貨": 5671,
    "貫": 5672,
    "貰": 5673,
    "貴": 5674,
    "貶": 5675,
    "貸": 5676,
    "賀": 5677,
    "資": 5678,
    "賈": 5679,
    "賊": 5680,
    "賑": 5681,
    "賓": 5682,
    "賞": 5683,
    "賢": 5684,
    "賣": 5685,
    "賦": 5686,
    "質": 5687,
    "賭": 5688,
    "賴": 5689,
    "賽": 5690,
    "賾": 5691,
    "贈": 5692,
    "贝": 5693,
    "贡": 5694,
    "责": 5695,
    "贤": 5696,
    "货": 5697,
    "贵": 5698,
    "贾": 5699,
    "资": 5700,
    "赋": 5701,
    "赎": 5702,
    "赐": 5703,
    "赖": 5704,
    "赛": 5705,
    "赞": 5706,
    "赤": 5707,
    "走": 5708,
    "赳": 5709,
    "赴": 5710,
    "赵": 5711,
    "起": 5712,
    "趁": 5713,
    "超": 5714,
    "越": 5715,
    "趙": 5716,
    "趣": 5717,
    "足": 5718,
    "跃": 5719,
    "跑": 5720,
    "距": 5721,
    "跟": 5722,
    "跡": 5723,
    "跨": 5724,
    "路": 5725,
    "跳": 5726,
    "踊": 5727,
    "踏": 5728,
    "蹄": 5729,
    "蹟": 5730,
    "躍": 5731,
    "身": 5732,
    "躬": 5733,
    "躰": 5734,
    "躲": 5735,
    "車": 5736,
    "軌": 5737,
    "軍": 5738,
    "軒": 5739,
    "転": 5740,
    "軽": 5741,
    "軾": 5742,
    "載": 5743,
    "輔": 5744,
    "輕": 5745,
    "輝": 5746,
    "輩": 5747,
    "輪": 5748,
    "輯": 5749,
    "輸": 5750,
    "輿": 5751,
    "轉": 5752,
    "轟": 5753,
    "车": 5754,
    "轨": 5755,
    "轮": 5756,
    "轻": 5757,
    "辇": 5758,
    "辈": 5759,
    "辉": 5760,
    "辖": 5761,
    "辛": 5762,
    "辞": 5763,
    "辣": 5764,
    "辨": 5765,
    "辯": 5766,
    "辰": 5767,
    "農": 5768,
    "边": 5769,
    "辺": 5770,
    "辻": 5771,
    "込": 5772,
    "辽": 5773,
    "达": 5774,
    "辿": 5775,
    "迁": 5776,
    "迂": 5777,
    "迄": 5778,
    "迅": 5779,
    "迎": 5780,
    "运": 5781,
    "近": 5782,
    "返": 5783,
    "还": 5784,
    "这": 5785,
    "远": 5786,
    "连": 5787,
    "迟": 5788,
    "迢": 5789,
    "迦": 5790,
    "迪": 5791,
    "迫": 5792,
    "迴": 5793,
    "迷": 5794,
    "追": 5795,
    "退": 5796,
    "送": 5797,
    "适": 5798,
    "逃": 5799,
    "逆": 5800,
    "透": 5801,
    "逐": 5802,
    "途": 5803,
    "逗": 5804,
    "這": 5805,
    "通": 5806,
    "逞": 5807,
    "速": 5808,
    "造": 5809,
    "逢": 5810,
    "連": 5811,
    "週": 5812,
    "進": 5813,
    "逸": 5814,
    "遁": 5815,
    "遂": 5816,
    "遅": 5817,
    "遊": 5818,
    "運": 5819,
    "過": 5820,
    "道": 5821,
    "達": 5822,
    "違": 5823,
    "遗": 5824,
    "遙": 5825,
    "遝": 5826,
    "遞": 5827,
    "遠": 5828,
    "遣": 5829,
    "遥": 5830,
    "遭": 5831,
    "遵": 5832,
    "遷": 5833,
    "選": 5834,
    "遺": 5835,
    "遼": 5836,
    "還": 5837,
    "邉": 5838,
    "邊": 5839,
    "邑": 5840,
    "邓": 5841,
    "邕": 5842,
    "邗": 5843,
    "邛": 5844,
    "那": 5845,
    "邦": 5846,
    "邻": 5847,
    "邽": 5848,
    "郁": 5849,
    "郊": 5850,
    "郎": 5851,
    "郝": 5852,
    "郞": 5853,
    "郡": 5854,
    "部": 5855,
    "郭": 5856,
    "郯": 5857,
    "郵": 5858,
    "郷": 5859,
    "都": 5860,
    "鄉": 5861,
    "鄒": 5862,
    "鄞": 5863,
    "鄭": 5864,
    "酉": 5865,
    "酋": 5866,
    "配": 5867,
    "酒": 5868,
    "酔": 5869,
    "酢": 5870,
    "酥": 5871,
    "酷": 5872,
    "酸": 5873,
    "醇": 5874,
    "醉": 5875,
    "醋": 5876,
    "醍": 5877,
    "醐": 5878,
    "醒": 5879,
    "醪": 5880,
    "醫": 5881,
    "醬": 5882,
    "醴": 5883,
    "醸": 5884,
    "釀": 5885,
    "采": 5886,
    "釈": 5887,
    "釉": 5888,
    "释": 5889,
    "釋": 5890,
    "里": 5891,
    "重": 5892,
    "野": 5893,
    "量": 5894,
    "金": 5895,
    "釘": 5896,
    "釜": 5897,
    "針": 5898,
    "釣": 5899,
    "釧": 5900,
    "鈔": 5901,
    "鈞": 5902,
    "鈴": 5903,
    "鉄": 5904,
    "鉦": 5905,
    "鉱": 5906,
    "銀": 5907,
    "銃": 5908,
    "銅": 5909,
    "銑": 5910,
    "銘": 5911,
    "銭": 5912,
    "鋒": 5913,
    "鋳": 5914,
    "鋸": 5915,
    "鋼": 5916,
    "錄": 5917,
    "錆": 5918,
    "錐": 5919,
    "錘": 5920,
    "錢": 5921,
    "錦": 5922,
    "錫": 5923,
    "錬": 5924,
    "錯": 5925,
    "録": 5926,
    "鍊": 5927,
    "鍛": 5928,
    "鍬": 5929,
    "鍵": 5930,
    "鍾": 5931,
    "鎌": 5932,
    "鎖": 5933,
    "鎧": 5934,
    "鎬": 5935,
    "鎭": 5936,
    "鎮": 5937,
    "鏟": 5938,
    "鏡": 5939,
    "鐘": 5940,
    "鐵": 5941,
    "鐸": 5942,
    "鑄": 5943,
    "鑑": 5944,
    "鑓": 5945,
    "鑫": 5946,
    "钉": 5947,
    "钢": 5948,
    "钦": 5949,
    "钧": 5950,
    "钰": 5951,
    "钱": 5952,
    "钳": 5953,
    "铁": 5954,
    "铜": 5955,
    "银": 5956,
    "销": 5957,
    "锅": 5958,
    "错": 5959,
    "锡": 5960,
    "锦": 5961,
    "镇": 5962,
    "長": 5963,
    "长": 5964,
    "門": 5965,
    "閃": 5966,
    "閉": 5967,
    "開": 5968,
    "閏": 5969,
    "閑": 5970,
    "間": 5971,
    "関": 5972,
    "閣": 5973,
    "閤": 5974,
    "閥": 5975,
    "閩": 5976,
    "閻": 5977,
    "闇": 5978,
    "闍": 5979,
    "闘": 5980,
    "關": 5981,
    "闞": 5982,
    "闢": 5983,
    "门": 5984,
    "问": 5985,
    "闯": 5986,
    "间": 5987,
    "闻": 5988,
    "阜": 5989,
    "阝": 5990,
    "阞": 5991,
    "队": 5992,
    "阪": 5993,
    "防": 5994,
    "阳": 5995,
    "阵": 5996,
    "阿": 5997,
    "陀": 5998,
    "陂": 5999,
    "附": 6000,
    "际": 6001,
    "陆": 6002,
    "陈": 6003,
    "陉": 6004,
    "降": 6005,
    "限": 6006,
    "陛": 6007,
    "院": 6008,
    "陣": 6009,
    "除": 6010,
    "陥": 6011,
    "险": 6012,
    "陰": 6013,
    "陳": 6014,
    "陵": 6015,
    "陶": 6016,
    "陷": 6017,
    "陸": 6018,
    "険": 6019,
    "陽": 6020,
    "隅": 6021,
    "隆": 6022,
    "隈": 6023,
    "隊": 6024,
    "隍": 6025,
    "階": 6026,
    "随": 6027,
    "隘": 6028,
    "際": 6029,
    "障": 6030,
    "隠": 6031,
    "隣": 6032,
    "隧": 6033,
    "隨": 6034,
    "險": 6035,
    "隱": 6036,
    "隷": 6037,
    "隼": 6038,
    "雀": 6039,
    "雁": 6040,
    "雄": 6041,
    "雅": 6042,
    "集": 6043,
    "雇": 6044,
    "雍": 6045,
    "雑": 6046,
    "雒": 6047,
    "雙": 6048,
    "雛": 6049,
    "雜": 6050,
    "離": 6051,
    "難": 6052,
    "雨": 6053,
    "雪": 6054,
    "雫": 6055,
    "雲": 6056,
    "零": 6057,
    "雷": 6058,
    "電": 6059,
    "雾": 6060,
    "霄": 6061,
    "震": 6062,
    "霊": 6063,
    "霍": 6064,
    "霞": 6065,
    "霧": 6066,
    "露": 6067,
    "霸": 6068,
    "霾": 6069,
    "靈": 6070,
    "青": 6071,
    "靖": 6072,
    "静": 6073,
    "靜": 6074,
    "非": 6075,
    "面": 6076,
    "革": 6077,
    "靳": 6078,
    "鞄": 6079,
    "鞍": 6080,
    "鞏": 6081,
    "鞘": 6082,
    "鞠": 6083,
    "鞭": 6084,
    "韋": 6085,
    "韑": 6086,
    "韓": 6087,
    "韦": 6088,
    "韩": 6089,
    "韮": 6090,
    "音": 6091,
    "韵": 6092,
    "韶": 6093,
    "韻": 6094,
    "響": 6095,
    "頁": 6096,
    "頂": 6097,
    "頃": 6098,
    "項": 6099,
    "順": 6100,
    "須": 6101,
    "頌": 6102,
    "頓": 6103,
    "頗": 6104,
    "領": 6105,
    "頬": 6106,
    "頭": 6107,
    "頼": 6108,
    "題": 6109,
    "額": 6110,
    "顏": 6111,
    "顔": 6112,
    "顕": 6113,
    "願": 6114,
    "顚": 6115,
    "類": 6116,
    "顥": 6117,
    "顧": 6118,
    "顯": 6119,
    "顶": 6120,
    "项": 6121,
    "须": 6122,
    "顾": 6123,
    "颂": 6124,
    "颍": 6125,
    "频": 6126,
    "颖": 6127,
    "颗": 6128,
    "题": 6129,
    "颜": 6130,
    "额": 6131,
    "颢": 6132,
    "風": 6133,
    "颯": 6134,
    "风": 6135,
    "飚": 6136,
    "飛": 6137,
    "飜": 6138,
    "飞": 6139,
    "食": 6140,
    "飠": 6141,
    "飢": 6142,
    "飩": 6143,
    "飯": 6144,
    "飲": 6145,
    "飴": 6146,
    "飼": 6147,
    "飾": 6148,
    "餃": 6149,
    "餅": 6150,
    "養": 6151,
    "餌": 6152,
    "餐": 6153,
    "餓": 6154,
    "餘": 6155,
    "館": 6156,
    "饂": 6157,
    "饅": 6158,
    "饗": 6159,
    "饣": 6160,
    "饥": 6161,
    "饭": 6162,
    "饶": 6163,
    "饺": 6164,
    "饼": 6165,
    "馆": 6166,
    "首": 6167,
    "香": 6168,
    "馨": 6169,
    "馬": 6170,
    "馮": 6171,
    "馳": 6172,
    "馴": 6173,
    "駄": 6174,
    "駅": 6175,
    "駆": 6176,
    "駈": 6177,
    "駐": 6178,
    "駒": 6179,
    "駕": 6180,
    "駿": 6181,
    "騎": 6182,
    "騒": 6183,
    "験": 6184,
    "騨": 6185,
    "騷": 6186,
    "驀": 6187,
    "驅": 6188,
    "驍": 6189,
    "驕": 6190,
    "驗": 6191,
    "驚": 6192,
    "驛": 6193,
    "驟": 6194,
    "驥": 6195,
    "马": 6196,
    "骆": 6197,
    "骏": 6198,
    "骥": 6199,
    "骨": 6200,
    "髀": 6201,
    "體": 6202,
    "高": 6203,
    "髙": 6204,
    "髪": 6205,
    "髮": 6206,
    "髯": 6207,
    "鬯": 6208,
    "鬱": 6209,
    "鬻": 6210,
    "鬼": 6211,
    "魁": 6212,
    "魂": 6213,
    "魅": 6214,
    "魍": 6215,
    "魎": 6216,
    "魏": 6217,
    "魔": 6218,
    "魚": 6219,
    "魯": 6220,
    "鮎": 6221,
    "鮨": 6222,
    "鮫": 6223,
    "鮮": 6224,
    "鯉": 6225,
    "鯛": 6226,
    "鯤": 6227,
    "鰍": 6228,
    "鰯": 6229,
    "鱒": 6230,
    "鱗": 6231,
    "鱼": 6232,
    "鳥": 6233,
    "鳩": 6234,
    "鳳": 6235,
    "鳴": 6236,
    "鳶": 6237,
    "鴨": 6238,
    "鴻": 6239,
    "鵜": 6240,
    "鵡": 6241,
    "鵬": 6242,
    "鶏": 6243,
    "鶚": 6244,
    "鶯": 6245,
    "鶴": 6246,
    "鶻": 6247,
    "鶿": 6248,
    "鷄": 6249,
    "鷗": 6250,
    "鷥": 6251,
    "鷲": 6252,
    "鷹": 6253,
    "鷺": 6254,
    "鸚": 6255,
    "鸞": 6256,
    "鸟": 6257,
    "鸡": 6258,
    "鸣": 6259,
    "鸪": 6260,
    "鸬": 6261,
    "鸭": 6262,
    "鸵": 6263,
    "鸶": 6264,
    "鸽": 6265,
    "鸿": 6266,
    "鹂": 6267,
    "鹅": 6268,
    "鹏": 6269,
    "鹚": 6270,
    "鹧": 6271,
    "鹭": 6272,
    "鹰": 6273,
    "鹽": 6274,
    "鹿": 6275,
    "麒": 6276,
    "麗": 6277,
    "麟": 6278,
    "麦": 6279,
    "麵": 6280,
    "麺": 6281,
    "麻": 6282,
    "麼": 6283,
    "麿": 6284,
    "黃": 6285,
    "黄": 6286,
    "黌": 6287,
    "黎": 6288,
    "黏": 6289,
    "黑": 6290,
    "黒": 6291,
    "默": 6292,
    "黙": 6293,
    "黛": 6294,
    "點": 6295,
    "黟": 6296,
    "黨": 6297,
    "鼈": 6298,
    "鼎": 6299,
    "鼓": 6300,
    "鼻": 6301,
    "齊": 6302,
    "齋": 6303,
    "齐": 6304,
    "齡": 6305,
    "龄": 6306,
    "龍": 6307,
    "龙": 6308,
    "龜": 6309,
    "Ꙃ": 6310,
    "ꙃ": 6311,
    "Ꙇ": 6312,
    "ꙇ": 6313,
    "Ꙍ": 6314,
    "ꙍ": 6315,
    "ꙛ": 6316,
    "꙯": 6317,
    "Ꚍ": 6318,
    "ꚍ": 6319,
    "Ꚏ": 6320,
    "ꚏ": 6321,
    "ꛯ": 6322,
    "꜖": 6323,
    "Ꜫ": 6324,
    "ꜫ": 6325,
    "ꜭ": 6326,
    "ꜵ": 6327,
    "ꝁ": 6328,
    "Ꝏ": 6329,
    "ꝏ": 6330,
    "ꝑ": 6331,
    "ꝣ": 6332,
    "ꞇ": 6333,
    "꞉": 6334,
    "ꞌ": 6335,
    "ꞵ": 6336,
    "Ꞷ": 6337,
    "ꞷ": 6338,
    "Ꟈ": 6339,
    "ꟈ": 6340,
    "Ɤ": 6341,
    "Ꟗ": 6342,
    "ꟗ": 6343,
    "ꟼ": 6344,
    "ꟽ": 6345,
    "ꬴ": 6346,
    "ꬷ": 6347,
    "ꭃ": 6348,
    "ꭐ": 6349,
    "ꭑ": 6350,
    "ꭥ": 6351,
    "가": 6352,
    "간": 6353,
    "갈": 6354,
    "감": 6355,
    "갑": 6356,
    "갔": 6357,
    "강": 6358,
    "같": 6359,
    "개": 6360,
    "갤": 6361,
    "거": 6362,
    "건": 6363,
    "걸": 6364,
    "검": 6365,
    "것": 6366,
    "게": 6367,
    "견": 6368,
    "결": 6369,
    "경": 6370,
    "계": 6371,
    "고": 6372,
    "곡": 6373,
    "곤": 6374,
    "골": 6375,
    "곰": 6376,
    "곳": 6377,
    "공": 6378,
    "과": 6379,
    "곽": 6380,
    "관": 6381,
    "광": 6382,
    "괴": 6383,
    "교": 6384,
    "구": 6385,
    "국": 6386,
    "군": 6387,
    "굿": 6388,
    "권": 6389,
    "궤": 6390,
    "귀": 6391,
    "규": 6392,
    "균": 6393,
    "그": 6394,
    "극": 6395,
    "근": 6396,
    "글": 6397,
    "금": 6398,
    "급": 6399,
    "기": 6400,
    "길": 6401,
    "김": 6402,
    "깊": 6403,
    "까": 6404,
    "깨": 6405,
    "께": 6406,
    "껸": 6407,
    "꽃": 6408,
    "꿈": 6409,
    "끝": 6410,
    "끼": 6411,
    "나": 6412,
    "난": 6413,
    "날": 6414,
    "낡": 6415,
    "남": 6416,
    "낮": 6417,
    "낯": 6418,
    "내": 6419,
    "냄": 6420,
    "냉": 6421,
    "냐": 6422,
    "널": 6423,
    "네": 6424,
    "넷": 6425,
    "녀": 6426,
    "년": 6427,
    "녕": 6428,
    "녘": 6429,
    "노": 6430,
    "놀": 6431,
    "농": 6432,
    "놓": 6433,
    "뇌": 6434,
    "뇽": 6435,
    "누": 6436,
    "눈": 6437,
    "눌": 6438,
    "뉴": 6439,
    "느": 6440,
    "늑": 6441,
    "는": 6442,
    "늘": 6443,
    "니": 6444,
    "닉": 6445,
    "닌": 6446,
    "님": 6447,
    "다": 6448,
    "단": 6449,
    "달": 6450,
    "닭": 6451,
    "담": 6452,
    "답": 6453,
    "당": 6454,
    "닿": 6455,
    "대": 6456,
    "댐": 6457,
    "더": 6458,
    "덕": 6459,
    "덤": 6460,
    "데": 6461,
    "도": 6462,
    "독": 6463,
    "돈": 6464,
    "돌": 6465,
    "돔": 6466,
    "동": 6467,
    "돼": 6468,
    "되": 6469,
    "된": 6470,
    "두": 6471,
    "둑": 6472,
    "뒷": 6473,
    "듀": 6474,
    "드": 6475,
    "득": 6476,
    "든": 6477,
    "들": 6478,
    "등": 6479,
    "디": 6480,
    "딕": 6481,
    "딘": 6482,
    "딜": 6483,
    "딩": 6484,
    "따": 6485,
    "딸": 6486,
    "땀": 6487,
    "땅": 6488,
    "때": 6489,
    "떨": 6490,
    "떻": 6491,
    "똥": 6492,
    "뚫": 6493,
    "뜨": 6494,
    "뜬": 6495,
    "라": 6496,
    "락": 6497,
    "란": 6498,
    "람": 6499,
    "랑": 6500,
    "래": 6501,
    "랜": 6502,
    "랠": 6503,
    "러": 6504,
    "럭": 6505,
    "럼": 6506,
    "레": 6507,
    "려": 6508,
    "력": 6509,
    "련": 6510,
    "렬": 6511,
    "령": 6512,
    "례": 6513,
    "로": 6514,
    "록": 6515,
    "롱": 6516,
    "룡": 6517,
    "루": 6518,
    "룽": 6519,
    "류": 6520,
    "를": 6521,
    "름": 6522,
    "리": 6523,
    "릭": 6524,
    "림": 6525,
    "립": 6526,
    "마": 6527,
    "막": 6528,
    "만": 6529,
    "많": 6530,
    "말": 6531,
    "망": 6532,
    "맞": 6533,
    "매": 6534,
    "맨": 6535,
    "맹": 6536,
    "맺": 6537,
    "머": 6538,
    "먹": 6539,
    "먼": 6540,
    "메": 6541,
    "멘": 6542,
    "며": 6543,
    "면": 6544,
    "멸": 6545,
    "명": 6546,
    "모": 6547,
    "목": 6548,
    "못": 6549,
    "몽": 6550,
    "뫼": 6551,
    "묘": 6552,
    "무": 6553,
    "문": 6554,
    "물": 6555,
    "미": 6556,
    "민": 6557,
    "바": 6558,
    "박": 6559,
    "반": 6560,
    "발": 6561,
    "밤": 6562,
    "밥": 6563,
    "방": 6564,
    "배": 6565,
    "백": 6566,
    "밴": 6567,
    "뱀": 6568,
    "버": 6569,
    "번": 6570,
    "벌": 6571,
    "범": 6572,
    "법": 6573,
    "변": 6574,
    "별": 6575,
    "병": 6576,
    "볕": 6577,
    "보": 6578,
    "복": 6579,
    "볶": 6580,
    "본": 6581,
    "볼": 6582,
    "봇": 6583,
    "봉": 6584,
    "부": 6585,
    "북": 6586,
    "분": 6587,
    "불": 6588,
    "붙": 6589,
    "브": 6590,
    "블": 6591,
    "비": 6592,
    "빅": 6593,
    "빈": 6594,
    "빌": 6595,
    "빙": 6596,
    "빠": 6597,
    "삐": 6598,
    "사": 6599,
    "산": 6600,
    "살": 6601,
    "삼": 6602,
    "상": 6603,
    "새": 6604,
    "색": 6605,
    "샘": 6606,
    "생": 6607,
    "샤": 6608,
    "서": 6609,
    "석": 6610,
    "선": 6611,
    "설": 6612,
    "섬": 6613,
    "섭": 6614,
    "성": 6615,
    "섶": 6616,
    "세": 6617,
    "센": 6618,
    "셔": 6619,
    "션": 6620,
    "셜": 6621,
    "소": 6622,
    "속": 6623,
    "손": 6624,
    "솔": 6625,
    "송": 6626,
    "솥": 6627,
    "쇼": 6628,
    "수": 6629,
    "숙": 6630,
    "순": 6631,
    "술": 6632,
    "숭": 6633,
    "쉬": 6634,
    "슈": 6635,
    "스": 6636,
    "슬": 6637,
    "습": 6638,
    "승": 6639,
    "시": 6640,
    "식": 6641,
    "신": 6642,
    "심": 6643,
    "싸": 6644,
    "쌍": 6645,
    "쌓": 6646,
    "쎈": 6647,
    "쏙": 6648,
    "씨": 6649,
    "아": 6650,
    "악": 6651,
    "안": 6652,
    "않": 6653,
    "알": 6654,
    "암": 6655,
    "앙": 6656,
    "앞": 6657,
    "애": 6658,
    "앨": 6659,
    "야": 6660,
    "약": 6661,
    "양": 6662,
    "얕": 6663,
    "어": 6664,
    "억": 6665,
    "언": 6666,
    "엄": 6667,
    "업": 6668,
    "없": 6669,
    "엇": 6670,
    "었": 6671,
    "에": 6672,
    "엑": 6673,
    "엔": 6674,
    "엘": 6675,
    "여": 6676,
    "역": 6677,
    "연": 6678,
    "열": 6679,
    "염": 6680,
    "엽": 6681,
    "영": 6682,
    "예": 6683,
    "오": 6684,
    "옥": 6685,
    "온": 6686,
    "올": 6687,
    "와": 6688,
    "왕": 6689,
    "왜": 6690,
    "외": 6691,
    "왼": 6692,
    "요": 6693,
    "욕": 6694,
    "용": 6695,
    "우": 6696,
    "욱": 6697,
    "운": 6698,
    "울": 6699,
    "웃": 6700,
    "웅": 6701,
    "원": 6702,
    "월": 6703,
    "웨": 6704,
    "위": 6705,
    "유": 6706,
    "육": 6707,
    "윤": 6708,
    "융": 6709,
    "으": 6710,
    "은": 6711,
    "을": 6712,
    "음": 6713,
    "읍": 6714,
    "응": 6715,
    "의": 6716,
    "이": 6717,
    "익": 6718,
    "인": 6719,
    "일": 6720,
    "읽": 6721,
    "임": 6722,
    "있": 6723,
    "잉": 6724,
    "잊": 6725,
    "잎": 6726,
    "자": 6727,
    "작": 6728,
    "잡": 6729,
    "장": 6730,
    "재": 6731,
    "쟁": 6732,
    "쟝": 6733,
    "저": 6734,
    "적": 6735,
    "전": 6736,
    "절": 6737,
    "젊": 6738,
    "정": 6739,
    "제": 6740,
    "젠": 6741,
    "져": 6742,
    "조": 6743,
    "좁": 6744,
    "종": 6745,
    "좋": 6746,
    "좌": 6747,
    "죄": 6748,
    "주": 6749,
    "준": 6750,
    "줄": 6751,
    "줌": 6752,
    "중": 6753,
    "쥐": 6754,
    "즈": 6755,
    "증": 6756,
    "지": 6757,
    "직": 6758,
    "진": 6759,
    "집": 6760,
    "짓": 6761,
    "징": 6762,
    "짜": 6763,
    "짠": 6764,
    "쩌": 6765,
    "쪼": 6766,
    "쪽": 6767,
    "찌": 6768,
    "찜": 6769,
    "차": 6770,
    "찬": 6771,
    "참": 6772,
    "창": 6773,
    "채": 6774,
    "책": 6775,
    "챔": 6776,
    "처": 6777,
    "천": 6778,
    "철": 6779,
    "첫": 6780,
    "청": 6781,
    "체": 6782,
    "첼": 6783,
    "쳤": 6784,
    "초": 6785,
    "총": 6786,
    "최": 6787,
    "추": 6788,
    "축": 6789,
    "춘": 6790,
    "춤": 6791,
    "충": 6792,
    "츄": 6793,
    "츠": 6794,
    "층": 6795,
    "치": 6796,
    "친": 6797,
    "칠": 6798,
    "침": 6799,
    "칩": 6800,
    "카": 6801,
    "칼": 6802,
    "캔": 6803,
    "캡": 6804,
    "커": 6805,
    "컵": 6806,
    "켈": 6807,
    "켜": 6808,
    "콘": 6809,
    "콜": 6810,
    "콤": 6811,
    "콩": 6812,
    "콰": 6813,
    "크": 6814,
    "클": 6815,
    "큼": 6816,
    "키": 6817,
    "타": 6818,
    "탁": 6819,
    "탄": 6820,
    "탑": 6821,
    "탕": 6822,
    "태": 6823,
    "택": 6824,
    "탱": 6825,
    "터": 6826,
    "턱": 6827,
    "턴": 6828,
    "털": 6829,
    "테": 6830,
    "텔": 6831,
    "토": 6832,
    "통": 6833,
    "퇴": 6834,
    "투": 6835,
    "퉁": 6836,
    "튀": 6837,
    "트": 6838,
    "특": 6839,
    "틀": 6840,
    "틱": 6841,
    "틴": 6842,
    "파": 6843,
    "판": 6844,
    "팔": 6845,
    "팩": 6846,
    "팬": 6847,
    "퍼": 6848,
    "펌": 6849,
    "페": 6850,
    "편": 6851,
    "평": 6852,
    "폐": 6853,
    "포": 6854,
    "폭": 6855,
    "폴": 6856,
    "표": 6857,
    "풀": 6858,
    "풍": 6859,
    "퓨": 6860,
    "프": 6861,
    "픈": 6862,
    "플": 6863,
    "피": 6864,
    "핑": 6865,
    "하": 6866,
    "학": 6867,
    "한": 6868,
    "할": 6869,
    "함": 6870,
    "합": 6871,
    "항": 6872,
    "해": 6873,
    "햇": 6874,
    "했": 6875,
    "행": 6876,
    "향": 6877,
    "허": 6878,
    "헌": 6879,
    "험": 6880,
    "혁": 6881,
    "현": 6882,
    "협": 6883,
    "형": 6884,
    "호": 6885,
    "혼": 6886,
    "홉": 6887,
    "홍": 6888,
    "화": 6889,
    "확": 6890,
    "환": 6891,
    "활": 6892,
    "황": 6893,
    "회": 6894,
    "효": 6895,
    "후": 6896,
    "훈": 6897,
    "휘": 6898,
    "휴": 6899,
    "흥": 6900,
    "희": 6901,
    "히": 6902,
    "힘": 6903,
    "﨑": 6904,
    "︎": 6905,
    "︠": 6906,
    "︡": 6907,
    "𐌀": 6908,
    "𐌰": 6909,
    "𐌱": 6910,
    "𐌲": 6911,
    "𐌴": 6912,
    "𐌹": 6913,
    "𐌺": 6914,
    "𐌻": 6915,
    "𐌽": 6916,
    "𐌿": 6917,
    "𐍂": 6918,
    "𐍃": 6919,
    "𐍄": 6920,
    "𐍅": 6921,
    "𐍈": 6922,
    "𐎠": 6923,
    "𐎧": 6924,
    "𐎫": 6925,
    "𐎱": 6926,
    "𐎼": 6927,
    "𐎿": 6928,
    "𐏁": 6929,
    "𐏂": 6930,
    "𐐫": 6931,
    "𐤀": 6932,
    "𐤁": 6933,
    "𐤈": 6934,
    "𐤋": 6935,
    "𐤍": 6936,
    "𐤏": 6937,
    "𐤐": 6938,
    "𐤑": 6939,
    "𐤒": 6940,
    "𐤓": 6941,
    "𐤕": 6942,
    "𐬴": 6943,
    "𑐎": 6944,
    "𑐥": 6945,
    "𒀭": 6946,
    "𒁕": 6947,
    "𒁹": 6948,
    "𒂗": 6949,
    "𒅎": 6950,
    "𒇻": 6951,
    "𒉡": 6952,
    "𒉺": 6953,
    "𒊑": 6954,
    "𒋙": 6955,
    "𒍣": 6956,
    "𓂀": 6957,
    "𓂋": 6958,
    "𓈉": 6959,
    "𓈖": 6960,
    "𓊝": 6961,
    "𓏠": 6962,
    "𗂧": 6963,
    "𗴂": 6964,
    "𗴲": 6965,
    "𗹭": 6966,
    "𘜶": 6967,
    "𝼍": 6968,
    "🀄": 6969,
    "🃏": 6970,
    "🅘": 6971,
    "🅰": 6972,
    "🅱": 6973,
    "🅲": 6974,
    "🅵": 6975,
    "🅶": 6976,
    "🅻": 6977,
    "🅽": 6978,
    "🅾": 6979,
    "🅿": 6980,
    "🆀": 6981,
    "🆁": 6982,
    "🆂": 6983,
    "🆃": 6984,
    "🆅": 6985,
    "🆎": 6986,
    "🆑": 6987,
    "🆓": 6988,
    "🆔": 6989,
    "🆕": 6990,
    "🆖": 6991,
    "🆗": 6992,
    "🆘": 6993,
    "🆙": 6994,
    "🆚": 6995,
    "🇦": 6996,
    "🇧": 6997,
    "🇨": 6998,
    "🇩": 6999,
    "🇪": 7000,
    "🇫": 7001,
    "🇬": 7002,
    "🇭": 7003,
    "🇮": 7004,
    "🇯": 7005,
    "🇰": 7006,
    "🇱": 7007,
    "🇲": 7008,
    "🇳": 7009,
    "🇴": 7010,
    "🇵": 7011,
    "🇶": 7012,
    "🇷": 7013,
    "🇸": 7014,
    "🇹": 7015,
    "🇺": 7016,
    "🇻": 7017,
    "🇼": 7018,
    "🇽": 7019,
    "🇾": 7020,
    "🇿": 7021,
    "🌀": 7022,
    "🌁": 7023,
    "🌃": 7024,
    "🌄": 7025,
    "🌅": 7026,
    "🌆": 7027,
    "🌇": 7028,
    "🌈": 7029,
    "🌉": 7030,
    "🌊": 7031,
    "🌋": 7032,
    "🌌": 7033,
    "🌍": 7034,
    "🌎": 7035,
    "🌏": 7036,
    "🌐": 7037,
    "🌑": 7038,
    "🌒": 7039,
    "🌓": 7040,
    "🌔": 7041,
    "🌕": 7042,
    "🌖": 7043,
    "🌗": 7044,
    "🌘": 7045,
    "🌙": 7046,
    "🌚": 7047,
    "🌛": 7048,
    "🌞": 7049,
    "🌟": 7050,
    "🌠": 7051,
    "🌡": 7052,
    "🌤": 7053,
    "🌥": 7054,
    "🌦": 7055,
    "🌧": 7056,
    "🌨": 7057,
    "🌩": 7058,
    "🌪": 7059,
    "🌫": 7060,
    "🌬": 7061,
    "🌭": 7062,
    "🌮": 7063,
    "🌰": 7064,
    "🌱": 7065,
    "🌲": 7066,
    "🌳": 7067,
    "🌴": 7068,
    "🌵": 7069,
    "🌶": 7070,
    "🌷": 7071,
    "🌸": 7072,
    "🌹": 7073,
    "🌺": 7074,
    "🌻": 7075,
    "🌼": 7076,
    "🌽": 7077,
    "🌾": 7078,
    "🌿": 7079,
    "🍀": 7080,
    "🍁": 7081,
    "🍂": 7082,
    "🍃": 7083,
    "🍄": 7084,
    "🍅": 7085,
    "🍆": 7086,
    "🍇": 7087,
    "🍈": 7088,
    "🍉": 7089,
    "🍊": 7090,
    "🍋": 7091,
    "🍌": 7092,
    "🍍": 7093,
    "🍎": 7094,
    "🍏": 7095,
    "🍐": 7096,
    "🍑": 7097,
    "🍒": 7098,
    "🍓": 7099,
    "🍔": 7100,
    "🍕": 7101,
    "🍖": 7102,
    "🍗": 7103,
    "🍙": 7104,
    "🍚": 7105,
    "🍛": 7106,
    "🍜": 7107,
    "🍝": 7108,
    "🍞": 7109,
    "🍟": 7110,
    "🍠": 7111,
    "🍡": 7112,
    "🍢": 7113,
    "🍣": 7114,
    "🍤": 7115,
    "🍥": 7116,
    "🍦": 7117,
    "🍧": 7118,
    "🍨": 7119,
    "🍩": 7120,
    "🍪": 7121,
    "🍫": 7122,
    "🍬": 7123,
    "🍭": 7124,
    "🍮": 7125,
    "🍯": 7126,
    "🍰": 7127,
    "🍱": 7128,
    "🍲": 7129,
    "🍳": 7130,
    "🍴": 7131,
    "🍵": 7132,
    "🍶": 7133,
    "🍷": 7134,
    "🍸": 7135,
    "🍹": 7136,
    "🍺": 7137,
    "🍻": 7138,
    "🍼": 7139,
    "🍽": 7140,
    "🍾": 7141,
    "🍿": 7142,
    "🎀": 7143,
    "🎁": 7144,
    "🎂": 7145,
    "🎃": 7146,
    "🎄": 7147,
    "🎅": 7148,
    "🎆": 7149,
    "🎇": 7150,
    "🎈": 7151,
    "🎉": 7152,
    "🎊": 7153,
    "🎋": 7154,
    "🎌": 7155,
    "🎍": 7156,
    "🎎": 7157,
    "🎏": 7158,
    "🎑": 7159,
    "🎒": 7160,
    "🎓": 7161,
    "🎖": 7162,
    "🎗": 7163,
    "🎙": 7164,
    "🎚": 7165,
    "🎛": 7166,
    "🎞": 7167,
    "🎟": 7168,
    "🎠": 7169,
    "🎡": 7170,
    "🎢": 7171,
    "🎣": 7172,
    "🎤": 7173,
    "🎥": 7174,
    "🎧": 7175,
    "🎨": 7176,
    "🎩": 7177,
    "🎪": 7178,
    "🎫": 7179,
    "🎬": 7180,
    "🎭": 7181,
    "🎮": 7182,
    "🎯": 7183,
    "🎰": 7184,
    "🎱": 7185,
    "🎲": 7186,
    "🎳": 7187,
    "🎴": 7188,
    "🎵": 7189,
    "🎶": 7190,
    "🎷": 7191,
    "🎸": 7192,
    "🎹": 7193,
    "🎺": 7194,
    "🎻": 7195,
    "🎼": 7196,
    "🎾": 7197,
    "🎿": 7198,
    "🏀": 7199,
    "🏁": 7200,
    "🏂": 7201,
    "🏃": 7202,
    "🏄": 7203,
    "🏅": 7204,
    "🏆": 7205,
    "🏇": 7206,
    "🏈": 7207,
    "🏉": 7208,
    "🏊": 7209,
    "🏋": 7210,
    "🏌": 7211,
    "🏍": 7212,
    "🏎": 7213,
    "🏏": 7214,
    "🏐": 7215,
    "🏑": 7216,
    "🏒": 7217,
    "🏓": 7218,
    "🏔": 7219,
    "🏕": 7220,
    "🏖": 7221,
    "🏗": 7222,
    "🏘": 7223,
    "🏙": 7224,
    "🏚": 7225,
    "🏛": 7226,
    "🏜": 7227,
    "🏝": 7228,
    "🏞": 7229,
    "🏟": 7230,
    "🏠": 7231,
    "🏡": 7232,
    "🏢": 7233,
    "🏤": 7234,
    "🏥": 7235,
    "🏦": 7236,
    "🏧": 7237,
    "🏨": 7238,
    "🏪": 7239,
    "🏫": 7240,
    "🏬": 7241,
    "🏭": 7242,
    "🏮": 7243,
    "🏯": 7244,
    "🏰": 7245,
    "🏳": 7246,
    "🏴": 7247,
    "🏵": 7248,
    "🏷": 7249,
    "🏸": 7250,
    "🏹": 7251,
    "🏺": 7252,
    "🏻": 7253,
    "🏼": 7254,
    "🏽": 7255,
    "🏾": 7256,
    "🏿": 7257,
    "🐀": 7258,
    "🐁": 7259,
    "🐂": 7260,
    "🐃": 7261,
    "🐄": 7262,
    "🐅": 7263,
    "🐆": 7264,
    "🐇": 7265,
    "🐈": 7266,
    "🐉": 7267,
    "🐊": 7268,
    "🐋": 7269,
    "🐌": 7270,
    "🐍": 7271,
    "🐎": 7272,
    "🐏": 7273,
    "🐐": 7274,
    "🐑": 7275,
    "🐒": 7276,
    "🐓": 7277,
    "🐔": 7278,
    "🐕": 7279,
    "🐖": 7280,
    "🐗": 7281,
    "🐘": 7282,
    "🐙": 7283,
    "🐚": 7284,
    "🐛": 7285,
    "🐜": 7286,
    "🐝": 7287,
    "🐞": 7288,
    "🐟": 7289,
    "🐠": 7290,
    "🐡": 7291,
    "🐢": 7292,
    "🐣": 7293,
    "🐤": 7294,
    "🐥": 7295,
    "🐦": 7296,
    "🐧": 7297,
    "🐨": 7298,
    "🐪": 7299,
    "🐫": 7300,
    "🐬": 7301,
    "🐭": 7302,
    "🐮": 7303,
    "🐯": 7304,
    "🐰": 7305,
    "🐱": 7306,
    "🐲": 7307,
    "🐳": 7308,
    "🐴": 7309,
    "🐵": 7310,
    "🐶": 7311,
    "🐷": 7312,
    "🐸": 7313,
    "🐹": 7314,
    "🐺": 7315,
    "🐻": 7316,
    "🐼": 7317,
    "🐾": 7318,
    "🐿": 7319,
    "👀": 7320,
    "👁": 7321,
    "👂": 7322,
    "👃": 7323,
    "👄": 7324,
    "👅": 7325,
    "👆": 7326,
    "👇": 7327,
    "👈": 7328,
    "👉": 7329,
    "👊": 7330,
    "👋": 7331,
    "👌": 7332,
    "👍": 7333,
    "👎": 7334,
    "👏": 7335,
    "👐": 7336,
    "👑": 7337,
    "👒": 7338,
    "👓": 7339,
    "👔": 7340,
    "👕": 7341,
    "👖": 7342,
    "👗": 7343,
    "👘": 7344,
    "👙": 7345,
    "👚": 7346,
    "👛": 7347,
    "👜": 7348,
    "👞": 7349,
    "👟": 7350,
    "👠": 7351,
    "👡": 7352,
    "👢": 7353,
    "👣": 7354,
    "👤": 7355,
    "👥": 7356,
    "👦": 7357,
    "👧": 7358,
    "👨": 7359,
    "👩": 7360,
    "👪": 7361,
    "👫": 7362,
    "👬": 7363,
    "👭": 7364,
    "👮": 7365,
    "👯": 7366,
    "👰": 7367,
    "👱": 7368,
    "👲": 7369,
    "👳": 7370,
    "👴": 7371,
    "👵": 7372,
    "👶": 7373,
    "👷": 7374,
    "👸": 7375,
    "👹": 7376,
    "👺": 7377,
    "👻": 7378,
    "👼": 7379,
    "👽": 7380,
    "👾": 7381,
    "👿": 7382,
    "💀": 7383,
    "💁": 7384,
    "💂": 7385,
    "💃": 7386,
    "💄": 7387,
    "💅": 7388,
    "💆": 7389,
    "💇": 7390,
    "💈": 7391,
    "💉": 7392,
    "💊": 7393,
    "💋": 7394,
    "💌": 7395,
    "💍": 7396,
    "💎": 7397,
    "💏": 7398,
    "💐": 7399,
    "💑": 7400,
    "💒": 7401,
    "💓": 7402,
    "💔": 7403,
    "💕": 7404,
    "💖": 7405,
    "💗": 7406,
    "💘": 7407,
    "💙": 7408,
    "💚": 7409,
    "💛": 7410,
    "💜": 7411,
    "💝": 7412,
    "💞": 7413,
    "💠": 7414,
    "💡": 7415,
    "💢": 7416,
    "💣": 7417,
    "💤": 7418,
    "💥": 7419,
    "💦": 7420,
    "💧": 7421,
    "💨": 7422,
    "💩": 7423,
    "💪": 7424,
    "💫": 7425,
    "💬": 7426,
    "💭": 7427,
    "💮": 7428,
    "💯": 7429,
    "💰": 7430,
    "💱": 7431,
    "💲": 7432,
    "💳": 7433,
    "💴": 7434,
    "💵": 7435,
    "💶": 7436,
    "💷": 7437,
    "💸": 7438,
    "💹": 7439,
    "💺": 7440,
    "💻": 7441,
    "💼": 7442,
    "💽": 7443,
    "💾": 7444,
    "💿": 7445,
    "📀": 7446,
    "📁": 7447,
    "📂": 7448,
    "📃": 7449,
    "📄": 7450,
    "📅": 7451,
    "📆": 7452,
    "📇": 7453,
    "📈": 7454,
    "📉": 7455,
    "📊": 7456,
    "📋": 7457,
    "📌": 7458,
    "📍": 7459,
    "📎": 7460,
    "📏": 7461,
    "📐": 7462,
    "📑": 7463,
    "📒": 7464,
    "📓": 7465,
    "📔": 7466,
    "📕": 7467,
    "📖": 7468,
    "📗": 7469,
    "📘": 7470,
    "📙": 7471,
    "📚": 7472,
    "📛": 7473,
    "📜": 7474,
    "📝": 7475,
    "📞": 7476,
    "📟": 7477,
    "📠": 7478,
    "📡": 7479,
    "📢": 7480,
    "📣": 7481,
    "📤": 7482,
    "📥": 7483,
    "📦": 7484,
    "📧": 7485,
    "📨": 7486,
    "📩": 7487,
    "📬": 7488,
    "📮": 7489,
    "📯": 7490,
    "📰": 7491,
    "📱": 7492,
    "📲": 7493,
    "📳": 7494,
    "📴": 7495,
    "📵": 7496,
    "📶": 7497,
    "📷": 7498,
    "📸": 7499,
    "📹": 7500,
    "📺": 7501,
    "📻": 7502,
    "📼": 7503,
    "📽": 7504,
    "📿": 7505,
    "🔀": 7506,
    "🔁": 7507,
    "🔂": 7508,
    "🔃": 7509,
    "🔄": 7510,
    "🔆": 7511,
    "🔇": 7512,
    "🔈": 7513,
    "🔉": 7514,
    "🔊": 7515,
    "🔋": 7516,
    "🔌": 7517,
    "🔍": 7518,
    "🔎": 7519,
    "🔏": 7520,
    "🔐": 7521,
    "🔑": 7522,
    "🔒": 7523,
    "🔓": 7524,
    "🔔": 7525,
    "🔕": 7526,
    "🔖": 7527,
    "🔗": 7528,
    "🔘": 7529,
    "🔙": 7530,
    "🔚": 7531,
    "🔛": 7532,
    "🔜": 7533,
    "🔝": 7534,
    "🔞": 7535,
    "🔟": 7536,
    "🔠": 7537,
    "🔡": 7538,
    "🔢": 7539,
    "🔣": 7540,
    "🔤": 7541,
    "🔥": 7542,
    "🔦": 7543,
    "🔧": 7544,
    "🔨": 7545,
    "🔩": 7546,
    "🔪": 7547,
    "🔫": 7548,
    "🔬": 7549,
    "🔭": 7550,
    "🔮": 7551,
    "🔯": 7552,
    "🔰": 7553,
    "🔱": 7554,
    "🔲": 7555,
    "🔳": 7556,
    "🔴": 7557,
    "🔵": 7558,
    "🔶": 7559,
    "🔷": 7560,
    "🔸": 7561,
    "🔹": 7562,
    "🔺": 7563,
    "🔻": 7564,
    "🔼": 7565,
    "🔽": 7566,
    "🕉": 7567,
    "🕊": 7568,
    "🕋": 7569,
    "🕌": 7570,
    "🕍": 7571,
    "🕎": 7572,
    "🕐": 7573,
    "🕑": 7574,
    "🕒": 7575,
    "🕓": 7576,
    "🕔": 7577,
    "🕕": 7578,
    "🕖": 7579,
    "🕗": 7580,
    "🕘": 7581,
    "🕙": 7582,
    "🕚": 7583,
    "🕛": 7584,
    "🕝": 7585,
    "🕞": 7586,
    "🕟": 7587,
    "🕡": 7588,
    "🕢": 7589,
    "🕣": 7590,
    "🕤": 7591,
    "🕥": 7592,
    "🕦": 7593,
    "🕧": 7594,
    "🕯": 7595,
    "🕰": 7596,
    "🕳": 7597,
    "🕴": 7598,
    "🕵": 7599,
    "🕶": 7600,
    "🕷": 7601,
    "🕸": 7602,
    "🕹": 7603,
    "🕺": 7604,
    "🖇": 7605,
    "🖊": 7606,
    "🖋": 7607,
    "🖌": 7608,
    "🖍": 7609,
    "🖐": 7610,
    "🖖": 7611,
    "🖤": 7612,
    "🖥": 7613,
    "🖧": 7614,
    "🖨": 7615,
    "🖮": 7616,
    "🖱": 7617,
    "🖼": 7618,
    "🗂": 7619,
    "🗃": 7620,
    "🗄": 7621,
    "🗑": 7622,
    "🗒": 7623,
    "🗓": 7624,
    "🗙": 7625,
    "🗜": 7626,
    "🗝": 7627,
    "🗞": 7628,
    "🗡": 7629,
    "🗣": 7630,
    "🗨": 7631,
    "🗯": 7632,
    "🗳": 7633,
    "🗺": 7634,
    "🗻": 7635,
    "🗼": 7636,
    "🗽": 7637,
    "🗾": 7638,
    "🗿": 7639,
    "😀": 7640,
    "😁": 7641,
    "😂": 7642,
    "😃": 7643,
    "😄": 7644,
    "😅": 7645,
    "😇": 7646,
    "😈": 7647,
    "😉": 7648,
    "😊": 7649,
    "😋": 7650,
    "😌": 7651,
    "😍": 7652,
    "😎": 7653,
    "😏": 7654,
    "😐": 7655,
    "😑": 7656,
    "😒": 7657,
    "😓": 7658,
    "😔": 7659,
    "😕": 7660,
    "😖": 7661,
    "😘": 7662,
    "😜": 7663,
    "😝": 7664,
    "😞": 7665,
    "😟": 7666,
    "😠": 7667,
    "😡": 7668,
    "😢": 7669,
    "😣": 7670,
    "😤": 7671,
    "😥": 7672,
    "😨": 7673,
    "😩": 7674,
    "😫": 7675,
    "😬": 7676,
    "😭": 7677,
    "😮": 7678,
    "😰": 7679,
    "😱": 7680,
    "😲": 7681,
    "😳": 7682,
    "😴": 7683,
    "😵": 7684,
    "😶": 7685,
    "😷": 7686,
    "😻": 7687,
    "😼": 7688,
    "😽": 7689,
    "😿": 7690,
    "🙁": 7691,
    "🙂": 7692,
    "🙃": 7693,
    "🙄": 7694,
    "🙅": 7695,
    "🙇": 7696,
    "🙈": 7697,
    "🙉": 7698,
    "🙊": 7699,
    "🙋": 7700,
    "🙌": 7701,
    "🙍": 7702,
    "🙎": 7703,
    "🙏": 7704,
    "🚀": 7705,
    "🚁": 7706,
    "🚂": 7707,
    "🚃": 7708,
    "🚄": 7709,
    "🚅": 7710,
    "🚆": 7711,
    "🚇": 7712,
    "🚈": 7713,
    "🚉": 7714,
    "🚊": 7715,
    "🚋": 7716,
    "🚌": 7717,
    "🚍": 7718,
    "🚏": 7719,
    "🚐": 7720,
    "🚑": 7721,
    "🚒": 7722,
    "🚓": 7723,
    "🚔": 7724,
    "🚕": 7725,
    "🚖": 7726,
    "🚗": 7727,
    "🚘": 7728,
    "🚙": 7729,
    "🚚": 7730,
    "🚛": 7731,
    "🚜": 7732,
    "🚝": 7733,
    "🚞": 7734,
    "🚠": 7735,
    "🚡": 7736,
    "🚢": 7737,
    "🚣": 7738,
    "🚤": 7739,
    "🚥": 7740,
    "🚦": 7741,
    "🚧": 7742,
    "🚨": 7743,
    "🚩": 7744,
    "🚪": 7745,
    "🚫": 7746,
    "🚬": 7747,
    "🚭": 7748,
    "🚮": 7749,
    "🚰": 7750,
    "🚱": 7751,
    "🚲": 7752,
    "🚴": 7753,
    "🚵": 7754,
    "🚶": 7755,
    "🚷": 7756,
    "🚹": 7757,
    "🚺": 7758,
    "🚻": 7759,
    "🚼": 7760,
    "🚽": 7761,
    "🚿": 7762,
    "🛀": 7763,
    "🛁": 7764,
    "🛂": 7765,
    "🛄": 7766,
    "🛋": 7767,
    "🛌": 7768,
    "🛍": 7769,
    "🛎": 7770,
    "🛏": 7771,
    "🛐": 7772,
    "🛑": 7773,
    "🛒": 7774,
    "🛕": 7775,
    "🛖": 7776,
    "🛗": 7777,
    "🛜": 7778,
    "🛝": 7779,
    "🛞": 7780,
    "🛟": 7781,
    "🛠": 7782,
    "🛡": 7783,
    "🛢": 7784,
    "🛣": 7785,
    "🛤": 7786,
    "🛥": 7787,
    "🛩": 7788,
    "🛫": 7789,
    "🛬": 7790,
    "🛰": 7791,
    "🛳": 7792,
    "🛴": 7793,
    "🛵": 7794,
    "🛶": 7795,
    "🛷": 7796,
    "🛸": 7797,
    "🛹": 7798,
    "🛻": 7799,
    "🛼": 7800,
    "🜨": 7801,
    "🟠": 7802,
    "🟡": 7803,
    "🟢": 7804,
    "🟣": 7805,
    "🟤": 7806,
    "🟥": 7807,
    "🟦": 7808,
    "🟧": 7809,
    "🟨": 7810,
    "🟩": 7811,
    "🟫": 7812,
    "🟰": 7813,
    "🡺": 7814,
    "🤌": 7815,
    "🤍": 7816,
    "🤎": 7817,
    "🤏": 7818,
    "🤐": 7819,
    "🤑": 7820,
    "🤒": 7821,
    "🤓": 7822,
    "🤔": 7823,
    "🤕": 7824,
    "🤖": 7825,
    "🤗": 7826,
    "🤘": 7827,
    "🤙": 7828,
    "🤛": 7829,
    "🤜": 7830,
    "🤝": 7831,
    "🤞": 7832,
    "🤟": 7833,
    "🤠": 7834,
    "🤡": 7835,
    "🤢": 7836,
    "🤣": 7837,
    "🤤": 7838,
    "🤥": 7839,
    "🤦": 7840,
    "🤧": 7841,
    "🤨": 7842,
    "🤩": 7843,
    "🤪": 7844,
    "🤫": 7845,
    "🤬": 7846,
    "🤮": 7847,
    "🤯": 7848,
    "🤰": 7849,
    "🤱": 7850,
    "🤲": 7851,
    "🤳": 7852,
    "🤴": 7853,
    "🤵": 7854,
    "🤷": 7855,
    "🤸": 7856,
    "🤹": 7857,
    "🤺": 7858,
    "🤼": 7859,
    "🤽": 7860,
    "🤾": 7861,
    "🤿": 7862,
    "🥀": 7863,
    "🥁": 7864,
    "🥂": 7865,
    "🥃": 7866,
    "🥄": 7867,
    "🥅": 7868,
    "🥇": 7869,
    "🥈": 7870,
    "🥉": 7871,
    "🥊": 7872,
    "🥋": 7873,
    "🥌": 7874,
    "🥍": 7875,
    "🥎": 7876,
    "🥏": 7877,
    "🥐": 7878,
    "🥑": 7879,
    "🥒": 7880,
    "🥓": 7881,
    "🥔": 7882,
    "🥕": 7883,
    "🥖": 7884,
    "🥗": 7885,
    "🥘": 7886,
    "🥙": 7887,
    "🥚": 7888,
    "🥛": 7889,
    "🥜": 7890,
    "🥝": 7891,
    "🥞": 7892,
    "🥟": 7893,
    "🥡": 7894,
    "🥢": 7895,
    "🥣": 7896,
    "🥤": 7897,
    "🥥": 7898,
    "🥦": 7899,
    "🥧": 7900,
    "🥨": 7901,
    "🥩": 7902,
    "🥪": 7903,
    "🥫": 7904,
    "🥬": 7905,
    "🥭": 7906,
    "🥰": 7907,
    "🥱": 7908,
    "🥳": 7909,
    "🥴": 7910,
    "🥵": 7911,
    "🥶": 7912,
    "🥷": 7913,
    "🥹": 7914,
    "🥺": 7915,
    "🥽": 7916,
    "🥾": 7917,
    "🦀": 7918,
    "🦁": 7919,
    "🦂": 7920,
    "🦃": 7921,
    "🦄": 7922,
    "🦅": 7923,
    "🦆": 7924,
    "🦇": 7925,
    "🦈": 7926,
    "🦉": 7927,
    "🦊": 7928,
    "🦋": 7929,
    "🦌": 7930,
    "🦍": 7931,
    "🦎": 7932,
    "🦏": 7933,
    "🦐": 7934,
    "🦑": 7935,
    "🦒": 7936,
    "🦓": 7937,
    "🦔": 7938,
    "🦕": 7939,
    "🦖": 7940,
    "🦗": 7941,
    "🦘": 7942,
    "🦙": 7943,
    "🦚": 7944,
    "🦛": 7945,
    "🦜": 7946,
    "🦝": 7947,
    "🦞": 7948,
    "🦟": 7949,
    "🦠": 7950,
    "🦡": 7951,
    "🦢": 7952,
    "🦣": 7953,
    "🦥": 7954,
    "🦦": 7955,
    "🦧": 7956,
    "🦨": 7957,
    "🦩": 7958,
    "🦪": 7959,
    "🦫": 7960,
    "🦬": 7961,
    "🦭": 7962,
    "🦯": 7963,
    "🦰": 7964,
    "🦱": 7965,
    "🦲": 7966,
    "🦳": 7967,
    "🦴": 7968,
    "🦵": 7969,
    "🦶": 7970,
    "🦷": 7971,
    "🦸": 7972,
    "🦹": 7973,
    "🦺": 7974,
    "🦻": 7975,
    "🦼": 7976,
    "🦽": 7977,
    "🦾": 7978,
    "🧀": 7979,
    "🧁": 7980,
    "🧂": 7981,
    "🧃": 7982,
    "🧄": 7983,
    "🧅": 7984,
    "🧇": 7985,
    "🧈": 7986,
    "🧉": 7987,
    "🧊": 7988,
    "🧌": 7989,
    "🧍": 7990,
    "🧎": 7991,
    "🧏": 7992,
    "🧐": 7993,
    "🧑": 7994,
    "🧒": 7995,
    "🧓": 7996,
    "🧔": 7997,
    "🧕": 7998,
    "🧖": 7999,
    "🧗": 8000,
    "🧘": 8001,
    "🧙": 8002,
    "🧚": 8003,
    "🧛": 8004,
    "🧜": 8005,
    "🧝": 8006,
    "🧞": 8007,
    "🧟": 8008,
    "🧠": 8009,
    "🧡": 8010,
    "🧢": 8011,
    "🧣": 8012,
    "🧤": 8013,
    "🧥": 8014,
    "🧦": 8015,
    "🧧": 8016,
    "🧨": 8017,
    "🧩": 8018,
    "🧪": 8019,
    "🧫": 8020,
    "🧬": 8021,
    "🧭": 8022,
    "🧮": 8023,
    "🧯": 8024,
    "🧰": 8025,
    "🧱": 8026,
    "🧲": 8027,
    "🧳": 8028,
    "🧴": 8029,
    "🧵": 8030,
    "🧶": 8031,
    "🧷": 8032,
    "🧸": 8033,
    "🧹": 8034,
    "🧺": 8035,
    "🧻": 8036,
    "🧼": 8037,
    "🧽": 8038,
    "🧾": 8039,
    "🧿": 8040,
    "🩰": 8041,
    "🩱": 8042,
    "🩲": 8043,
    "🩳": 8044,
    "🩴": 8045,
    "🩶": 8046,
    "🩷": 8047,
    "🩸": 8048,
    "🩹": 8049,
    "🩺": 8050,
    "🩻": 8051,
    "🪀": 8052,
    "🪁": 8053,
    "🪂": 8054,
    "🪃": 8055,
    "🪄": 8056,
    "🪅": 8057,
    "🪆": 8058,
    "🪇": 8059,
    "🪈": 8060,
    "🪐": 8061,
    "🪑": 8062,
    "🪓": 8063,
    "🪔": 8064,
    "🪕": 8065,
    "🪖": 8066,
    "🪗": 8067,
    "🪘": 8068,
    "🪙": 8069,
    "🪚": 8070,
    "🪛": 8071,
    "🪜": 8072,
    "🪝": 8073,
    "🪞": 8074,
    "🪟": 8075,
    "🪡": 8076,
    "🪢": 8077,
    "🪣": 8078,
    "🪤": 8079,
    "🪥": 8080,
    "🪦": 8081,
    "🪧": 8082,
    "🪨": 8083,
    "🪩": 8084,
    "🪪": 8085,
    "🪫": 8086,
    "🪬": 8087,
    "🪰": 8088,
    "🪱": 8089,
    "🪲": 8090,
    "🪳": 8091,
    "🪴": 8092,
    "🪵": 8093,
    "🪶": 8094,
    "🪷": 8095,
    "🪸": 8096,
    "🪽": 8097,
    "🫀": 8098,
    "🫁": 8099,
    "🫂": 8100,
    "🫅": 8101,
    "🫏": 8102,
    "🫐": 8103,
    "🫒": 8104,
    "🫖": 8105,
    "🫘": 8106,
    "🫙": 8107,
    "🫚": 8108,
    "🫛": 8109,
    "🫠": 8110,
    "🫡": 8111,
    "🫣": 8112,
    "🫥": 8113,
    "🫦": 8114,
    "🫧": 8115,
    "🫨": 8116,
    "🫱": 8117,
    "🫵": 8118,
    "🫶": 8119,
    "𠄩": 8120,
    "𨑮": 8121,
    " d": 8122,
    "es": 8123,
    " l": 8124,
    "en": 8125,
    "on": 8126,
    " de": 8127,
    " p": 8128,
    "an": 8129,
    "re": 8130,
    " s": 8131,
    " c": 8132,
    "ti": 8133,
    "er": 8134,
    "is": 8135,
    " a": 8136,
    "ou": 8137,
    "in": 8138,
    "ar": 8139,
    "qu": 8140,
    "et": 8141,
    "le": 8142,
    "it": 8143,
    "ent": 8144,
    " la": 8145,
    " m": 8146,
    "or": 8147,
    "un": 8148,
    "ur": 8149,
    "te": 8150,
    "il": 8151,
    " et": 8152,
    " le": 8153,
    "tion": 8154,
    " L": 8155,
    " f": 8156,
    "om": 8157,
    "al": 8158,
    " en": 8159,
    "ra": 8160,
    " t": 8161,
    " 1": 8162,
    " à": 8163,
    "el": 8164,
    " C": 8165,
    "ri": 8166,
    " un": 8167,
    " (": 8168,
    "ré": 8169,
    " des": 8170,
    " n": 8171,
    "que": 8172,
    "us": 8173,
    "our": 8174,
    "est": 8175,
    "ant": 8176,
    " S": 8177,
    "ment": 8178,
    " du": 8179,
    "ro": 8180,
    "ce": 8181,
    " P": 8182,
    "ie": 8183,
    "ch": 8184,
    " les": 8185,
    " M": 8186,
    "ta": 8187,
    " v": 8188,
    " é": 8189,
    "ans": 8190,
    " 2": 8191,
    " par": 8192,
    "au": 8193,
    "as": 8194,
    " au": 8195,
    "ol": 8196,
    " A": 8197,
    "me": 8198,
    "ne": 8199,
    " qu": 8200,
    " est": 8201,
    "ve": 8202,
    " b": 8203,
    "ation": 8204,
    " B": 8205,
    "ont": 8206,
    "at": 8207,
    "res": 8208,
    "se": 8209,
    " D": 8210,
    "si": 8211,
    "ci": 8212,
    "de": 8213,
    " g": 8214,
    "ée": 8215,
    " 19": 8216,
    " com": 8217,
    " dé": 8218,
    " R": 8219,
    " 20": 8220,
    "té": 8221,
    "ai": 8222,
    " re": 8223,
    "ag": 8224,
    "li": 8225,
    "ais": 8226,
    " dans": 8227,
    " E": 8228,
    " j": 8229,
    " *": 8230,
    " T": 8231,
    "oi": 8232,
    " I": 8233,
    "mp": 8234,
    " con": 8235,
    " une": 8236,
    " F": 8237,
    " ré": 8238,
    " pour": 8239,
    " G": 8240,
    "ran": 8241,
    "di": 8242,
    " se": 8243,
    "--": 8244,
    " in": 8245,
    " ch": 8246,
    " pl": 8247,
    "ers": 8248,
    "ul": 8249,
    " N": 8250,
    "os": 8251,
    " e": 8252,
    " sur": 8253,
    "elle": 8254,
    "am": 8255,
    "les": 8256,
    " o": 8257,
    " Le": 8258,
    "ain": 8259,
    "ait": 8260,
    "ité": 8261,
    "ac": 8262,
    " J": 8263,
    "ale": 8264,
    "ut": 8265,
    " qui": 8266,
    "ux": 8267,
    "ig": 8268,
    " pro": 8269,
    " H": 8270,
    " h": 8271,
    "ère": 8272,
    "ot": 8273,
    "ic": 8274,
    "pp": 8275,
    " que": 8276,
    "ff": 8277,
    "tu": 8278,
    " r": 8279,
    " il": 8280,
    "ab": 8281,
    "ter": 8282,
    "tre": 8283,
    "og": 8284,
    "vi": 8285,
    "urs": 8286,
    " V": 8287,
    "né": 8288,
    "end": 8289,
    "vec": 8290,
    "ouv": 8291,
    "ces": 8292,
    "ist": 8293,
    "ille": 8294,
    "pe": 8295,
    "bre": 8296,
    "ge": 8297,
    " La": 8298,
    "mi": 8299,
    "ui": 8300,
    "and": 8301,
    "ue": 8302,
    "ques": 8303,
    "ons": 8304,
    "ite": 8305,
    " plus": 8306,
    "ous": 8307,
    " avec": 8308,
    "ort": 8309,
    "ès": 8310,
    " son": 8311,
    " Il": 8312,
    "ique": 8313,
    "ph": 8314,
    "ine": 8315,
    " 201": 8316,
    "éri": 8317,
    "és": 8318,
    "une": 8319,
    "ction": 8320,
    "ill": 8321,
    "aire": 8322,
    " di": 8323,
    "ois": 8324,
    "ien": 8325,
    "##": 8326,
    "ion": 8327,
    " ex": 8328,
    "),": 8329,
    " »": 8330,
    "pr": 8331,
    " «": 8332,
    "oc": 8333,
    " En": 8334,
    "ad": 8335,
    " an": 8336,
    "age": 8337,
    "ub": 8338,
    " Ch": 8339,
    "00": 8340,
    "ér": 8341,
    "st": 8342,
    " pas": 8343,
    " sa": 8344,
    " :": 8345,
    "**": 8346,
    " av": 8347,
    "ir": 8348,
    " pr": 8349,
    " comm": 8350,
    " ou": 8351,
    " pré": 8352,
    "ati": 8353,
    " **": 8354,
    " W": 8355,
    " pe": 8356,
    "uis": 8357,
    "im": 8358,
    "che": 8359,
    "um": 8360,
    " K": 8361,
    "ard": 8362,
    " O": 8363,
    "ure": 8364,
    "onn": 8365,
    "ap": 8366,
    "ay": 8367,
    ").": 8368,
    "aux": 8369,
    "ette": 8370,
    "----": 8371,
    " Les": 8372,
    " sont": 8373,
    "ors": 8374,
    "op": 8375,
    " 200": 8376,
    "ord": 8377,
    " su": 8378,
    " parti": 8379,
    " tr": 8380,
    " ce": 8381,
    "ond": 8382,
    " 18": 8383,
    "ts": 8384,
    "ni": 8385,
    " U": 8386,
    " ##": 8387,
    "lle": 8388,
    "entre": 8389,
    " 3": 8390,
    "oir": 8391,
    " aux": 8392,
    " ar": 8393,
    " comp": 8394,
    "ence": 8395,
    " tra": 8396,
    "iè": 8397,
    "ct": 8398,
    "ise": 8399,
    " ra": 8400,
    "he": 8401,
    " nom": 8402,
    " ne": 8403,
    "teur": 8404,
    "lé": 8405,
    " mo": 8406,
    "ins": 8407,
    "av": 8408,
    " |": 8409,
    "nes": 8410,
    "remi": 8411,
    "out": 8412,
    "mes": 8413,
    "..": 8414,
    "ing": 8415,
    "du": 8416,
    " mar": 8417,
    "oire": 8418,
    "ées": 8419,
    " te": 8420,
    " éta": 8421,
    "ance": 8422,
    " été": 8423,
    " comme": 8424,
    " Par": 8425,
    " ses": 8426,
    "id": 8427,
    "ru": 8428,
    "iv": 8429,
    "ens": 8430,
    "tique": 8431,
    " deux": 8432,
    "mb": 8433,
    " al": 8434,
    " ac": 8435,
    "iste": 8436,
    "mbre": 8437,
    "orm": 8438,
    "ations": 8439,
    "tres": 8440,
    "erre": 8441,
    " premi": 8442,
    "tin": 8443,
    "19": 8444,
    "ace": 8445,
    " Fran": 8446,
    " mon": 8447,
    " cont": 8448,
    "ib": 8449,
    "all": 8450,
    "éc": 8451,
    " É": 8452,
    " 199": 8453,
    " mais": 8454,
    " Mar": 8455,
    "imp": 8456,
    "tes": 8457,
    "ants": 8458,
    "ours": 8459,
    " no": 8460,
    "erm": 8461,
    "ture": 8462,
    " app": 8463,
    "raph": 8464,
    "par": 8465,
    "sion": 8466,
    "éd": 8467,
    "ém": 8468,
    "sent": 8469,
    "oy": 8470,
    "lis": 8471,
    "près": 8472,
    "ments": 8473,
    "ob": 8474,
    "ég": 8475,
    "ences": 8476,
    " 4": 8477,
    " entre": 8478,
    "rit": 8479,
    "amp": 8480,
    "co": 8481,
    "tions": 8482,
    "ang": 8483,
    " An": 8484,
    "cle": 8485,
    " déc": 8486,
    " -": 8487,
    "cip": 8488,
    " cl": 8489,
    "tif": 8490,
    "rou": 8491,
    "ron": 8492,
    "ert": 8493,
    "ograph": 8494,
    "ess": 8495,
    "alement": 8496,
    "oci": 8497,
    " elle": 8498,
    " dis": 8499,
    "ass": 8500,
    " fran": 8501,
    "ec": 8502,
    " 202": 8503,
    "ême": 8504,
    "ss": 8505,
    " je": 8506,
    " gé": 8507,
    " cons": 8508,
    "eur": 8509,
    " 5": 8510,
    " fait": 8511,
    " \"": 8512,
    "olog": 8513,
    "fér": 8514,
    "ubli": 8515,
    " car": 8516,
    "nées": 8517,
    "alis": 8518,
    "oit": 8519,
    "od": 8520,
    " lui": 8521,
    " ju": 8522,
    " cette": 8523,
    " ser": 8524,
    " Je": 8525,
    "ex": 8526,
    "rand": 8527,
    "pé": 8528,
    " De": 8529,
    " Ar": 8530,
    " fin": 8531,
    "çais": 8532,
    "th": 8533,
    "oin": 8534,
    "ong": 8535,
    "être": 8536,
    " for": 8537,
    "ante": 8538,
    "ate": 8539,
    "ussi": 8540,
    "elles": 8541,
    "aires": 8542,
    "ici": 8543,
    "ales": 8544,
    "rois": 8545,
    "uti": 8546,
    "én": 8547,
    "ire": 8548,
    "ov": 8549,
    "aint": 8550,
    "aine": 8551,
    "pl": 8552,
    " ont": 8553,
    " rég": 8554,
    "orta": 8555,
    " me": 8556,
    "enne": 8557,
    " Elle": 8558,
    "ouve": 8559,
    " or": 8560,
    "able": 8561,
    "vers": 8562,
    " sous": 8563,
    " 198": 8564,
    " ég": 8565,
    " inter": 8566,
    "ier": 8567,
    "onne": 8568,
    " français": 8569,
    " che": 8570,
    " In": 8571,
    "use": 8572,
    " col": 8573,
    " était": 8574,
    "igne": 8575,
    "alité": 8576,
    " Al": 8577,
    "iens": 8578,
    " fil": 8579,
    "--------": 8580,
    "po": 8581,
    "itu": 8582,
    "oli": 8583,
    " am": 8584,
    "ouver": 8585,
    "ves": 8586,
    " X": 8587,
    " aussi": 8588,
    "férences": 8589,
    "omm": 8590,
    "min": 8591,
    " éc": 8592,
    " tout": 8593,
    "iss": 8594,
    " ti": 8595,
    "tra": 8596,
    " France": 8597,
    " 6": 8598,
    "ble": 8599,
    "év": 8600,
    " es": 8601,
    " mé": 8602,
    "tis": 8603,
    "ven": 8604,
    " y": 8605,
    "cu": 8606,
    "ia": 8607,
    "sid": 8608,
    " ma": 8609,
    " leur": 8610,
    " 197": 8611,
    "iques": 8612,
    " fut": 8613,
    "are": 8614,
    "qui": 8615,
    " siè": 8616,
    " at": 8617,
    " où": 8618,
    "ographie": 8619,
    " 17": 8620,
    "éra": 8621,
    " puis": 8622,
    " imp": 8623,
    "endant": 8624,
    " —": 8625,
    "ich": 8626,
    " même": 8627,
    "20": 8628,
    "ourn": 8629,
    "ann": 8630,
    "uv": 8631,
    " rec": 8632,
    " 9": 8633,
    " ter": 8634,
    " géné": 8635,
    " mil": 8636,
    " Q": 8637,
    "ortail": 8638,
    "aient": 8639,
    "insi": 8640,
    "cl": 8641,
    " prin": 8642,
    " k": 8643,
    " dont": 8644,
    "ient": 8645,
    " pers": 8646,
    " lors": 8647,
    " également": 8648,
    " don": 8649,
    " Portail": 8650,
    "lement": 8651,
    "utilis": 8652,
    " cou": 8653,
    "ères": 8654,
    " rel": 8655,
    "ell": 8656,
    "ten": 8657,
    "ari": 8658,
    "ieu": 8659,
    " publi": 8660,
    "18": 8661,
    "ris": 8662,
    " of": 8663,
    " ob": 8664,
    "em": 8665,
    "orte": 8666,
    " commun": 8667,
    " Not": 8668,
    "anc": 8669,
    "oute": 8670,
    "éta": 8671,
    "...": 8672,
    "enti": 8673,
    " 7": 8674,
    "été": 8675,
    " ad": 8676,
    " Y": 8677,
    "ages": 8678,
    "vis": 8679,
    "puis": 8680,
    " Ce": 8681,
    " Paris": 8682,
    " diff": 8683,
    "ak": 8684,
    "ser": 8685,
    "emp": 8686,
    "ral": 8687,
    "ande": 8688,
    "ode": 8689,
    " jus": 8690,
    "ures": 8691,
    " ro": 8692,
    "riv": 8693,
    " né": 8694,
    "fin": 8695,
    " Un": 8696,
    "II": 8697,
    " Saint": 8698,
    " cré": 8699,
    "ata": 8700,
    " min": 8701,
    " pos": 8702,
    "ath": 8703,
    " trois": 8704,
    "lè": 8705,
    " 196": 8706,
    "gl": 8707,
    " %": 8708,
    " ainsi": 8709,
    "asse": 8710,
    " Ré": 8711,
    " 8": 8712,
    " ph": 8713,
    "if": 8714,
    "ents": 8715,
    "ud": 8716,
    " après": 8717,
    " temp": 8718,
    " Re": 8719,
    "ution": 8720,
    "cher": 8721,
    "tri": 8722,
    "ays": 8723,
    " commune": 8724,
    " être": 8725,
    " sy": 8726,
    "tiques": 8727,
    "its": 8728,
    " perm": 8729,
    "ton": 8730,
    "tant": 8731,
    " sec": 8732,
    " nombre": 8733,
    "ver": 8734,
    " ans": 8735,
    " exter": 8736,
    " res": 8737,
    "ges": 8738,
    "eau": 8739,
    " der": 8740,
    " rep": 8741,
    "az": 8742,
    "érie": 8743,
    "form": 8744,
    "omp": 8745,
    " mus": 8746,
    " si": 8747,
    "istoire": 8748,
    " jou": 8749,
    "titu": 8750,
    "va": 8751,
    " Notes": 8752,
    "ieurs": 8753,
    "app": 8754,
    " »,": 8755,
    "jet": 8756,
    " peut": 8757,
    "tit": 8758,
    " off": 8759,
    " Car": 8760,
    "ow": 8761,
    "omme": 8762,
    " trans": 8763,
    "ign": 8764,
    " premier": 8765,
    " contre": 8766,
    " 194": 8767,
    " nation": 8768,
    " 16": 8769,
    " situ": 8770,
    "tement": 8771,
    "ern": 8772,
    " ren": 8773,
    " grand": 8774,
    " sc": 8775,
    "vier": 8776,
    " ces": 8777,
    " alors": 8778,
    "nement": 8779,
    "des": 8780,
    " sou": 8781,
    " utilis": 8782,
    " per": 8783,
    "ore": 8784,
    " Liens": 8785,
    "rent": 8786,
    "hé": 8787,
    "tic": 8788,
    "ctions": 8789,
    "teurs": 8790,
    "ines": 8791,
    "aison": 8792,
    " Au": 8793,
    " externes": 8794,
    "ues": 8795,
    " 🗓": 8796,
    "roupe": 8797,
    " 15": 8798,
    " Jean": 8799,
    " déb": 8800,
    "ric": 8801,
    "aut": 8802,
    " 10": 8803,
    "erg": 8804,
    "els": 8805,
    " sans": 8806,
    "oul": 8807,
    " acc": 8808,
    " on": 8809,
    "anis": 8810,
    " siècle": 8811,
    "stru": 8812,
    " bas": 8813,
    " références": 8814,
    " ###": 8815,
    "ense": 8816,
    " première": 8817,
    "éric": 8818,
    "ième": 8819,
    " personn": 8820,
    "oû": 8821,
    " prop": 8822,
    " poli": 8823,
    "la": 8824,
    "ies": 8825,
    "ente": 8826,
    "agn": 8827,
    " partie": 8828,
    " man": 8829,
    " 📅": 8830,
    " ann": 8831,
    "mment": 8832,
    " vers": 8833,
    "mé": 8834,
    "ole": 8835,
    " sep": 8836,
    " À": 8837,
    "vant": 8838,
    " The": 8839,
    "opp": 8840,
    " avait": 8841,
    "000": 8842,
    " bien": 8843,
    " 195": 8844,
    " Z": 8845,
    " év": 8846,
    "tiv": 8847,
    " soci": 8848,
    " princip": 8849,
    "cien": 8850,
    " Gu": 8851,
    "tats": 8852,
    "ités": 8853,
    "ches": 8854,
    " Cl": 8855,
    " ville": 8856,
    " plusieurs": 8857,
    " ri": 8858,
    " dire": 8859,
    "pes": 8860,
    "élé": 8861,
    "ats": 8862,
    "elon": 8863,
    " depuis": 8864,
    " cour": 8865,
    " années": 8866,
    " prof": 8867,
    " cor": 8868,
    " cap": 8869,
    "erta": 8870,
    " présent": 8871,
    "ose": 8872,
    " ép": 8873,
    "ème": 8874,
    "ieux": 8875,
    "omb": 8876,
    " Qu": 8877,
    " eff": 8878,
    " produ": 8879,
    " ab": 8880,
    "aî": 8881,
    " esp": 8882,
    " conn": 8883,
    "istor": 8884,
    " Con": 8885,
    "rière": 8886,
    " gu": 8887,
    "agne": 8888,
    "ête": 8889,
    " jusqu": 8890,
    " permet": 8891,
    "illet": 8892,
    "ampion": 8893,
    "ach": 8894,
    "ry": 8895,
    " sui": 8896,
    " conf": 8897,
    " fam": 8898,
    " remp": 8899,
    " Pro": 8900,
    "vel": 8901,
    " Dans": 8902,
    "ption": 8903,
    "ik": 8904,
    "tor": 8905,
    ",.": 8906,
    " éle": 8907,
    "rib": 8908,
    " 193": 8909,
    " avant": 8910,
    "ép": 8911,
    "lig": 8912,
    "oh": 8913,
    "erie": 8914,
    "rée": 8915,
    " derni": 8916,
    "ade": 8917,
    "int": 8918,
    "illes": 8919,
    "Un": 8920,
    "IS": 8921,
    " ligne": 8922,
    "mar": 8923,
    " sol": 8924,
    "ils": 8925,
    "rier": 8926,
    " Cette": 8927,
    " Ne": 8928,
    "tel": 8929,
    " ret": 8930,
    " vol": 8931,
    "dition": 8932,
    "anvier": 8933,
    " ass": 8934,
    " ent": 8935,
    "ateur": 8936,
    "endre": 8937,
    " ».": 8938,
    " nouv": 8939,
    " mort": 8940,
    "oût": 8941,
    " long": 8942,
    " fois": 8943,
    "ellement": 8944,
    " groupe": 8945,
    " relati": 8946,
    "ites": 8947,
    " fon": 8948,
    " nota": 8949,
    "tat": 8950,
    "one": 8951,
    " mai": 8952,
    "ène": 8953,
    " janvier": 8954,
    "ug": 8955,
    " po": 8956,
    " peu": 8957,
    "résent": 8958,
    " 12": 8959,
    " dép": 8960,
    " cin": 8961,
    "art": 8962,
    "ame": 8963,
    "per": 8964,
    " monde": 8965,
    "ind": 8966,
    " mod": 8967,
    "ili": 8968,
    "atri": 8969,
    " pays": 8970,
    " Une": 8971,
    "arti": 8972,
    "opul": 8973,
    "lu": 8974,
    " très": 8975,
    "core": 8976,
    "llem": 8977,
    "nation": 8978,
    "tés": 8979,
    " st": 8980,
    " 14": 8981,
    "cc": 8982,
    " fond": 8983,
    "man": 8984,
    "tive": 8985,
    "port": 8986,
    " temps": 8987,
    "ôle": 8988,
    " form": 8989,
    "ah": 8990,
    "su": 8991,
    " film": 8992,
    " sé": 8993,
    "An": 8994,
    "ril": 8995,
    "vient": 8996,
    " conc": 8997,
    " cel": 8998,
    "pi": 8999,
    " the": 9000,
    " quel": 9001,
    "ration": 9002,
    " rép": 9003,
    "ix": 9004,
    "ologie": 9005,
    " vie": 9006,
    "enn": 9007,
    " Th": 9008,
    "rande": 9009,
    "ok": 9010,
    "uss": 9011,
    "obre": 9012,
    "quipe": 9013,
    "tembre": 9014,
    "cembre": 9015,
    " hab": 9016,
    "ler": 9017,
    " région": 9018,
    "rig": 9019,
    "ature": 9020,
    " juin": 9021,
    "ive": 9022,
    " fem": 9023,
    " Des": 9024,
    " leurs": 9025,
    " Pl": 9026,
    " réalis": 9027,
    " juillet": 9028,
    " 13": 9029,
    " poin": 9030,
    "rie": 9031,
    "yn": 9032,
    "mée": 9033,
    "fic": 9034,
    " oct": 9035,
    " trava": 9036,
    " dro": 9037,
    " décembre": 9038,
    " mat": 9039,
    " septembre": 9040,
    " nouve": 9041,
    " mars": 9042,
    "aul": 9043,
    "lex": 9044,
    "sition": 9045,
    " tous": 9046,
    "ze": 9047,
    "mis": 9048,
    " place": 9049,
    " vis": 9050,
    "lic": 9051,
    "onde": 9052,
    " popul": 9053,
    "gn": 9054,
    "vembre": 9055,
    " Sh": 9056,
    " exp": 9057,
    "In": 9058,
    " notamment": 9059,
    "rés": 9060,
    " char": 9061,
    "ps": 9062,
    "rer": 9063,
    "17": 9064,
    "aur": 9065,
    "):": 9066,
    " ins": 9067,
    " dépar": 9068,
    "amb": 9069,
    " aff": 9070,
    "cons": 9071,
    " mal": 9072,
    " améric": 9073,
    " novembre": 9074,
    " octobre": 9075,
    "ources": 9076,
    " déf": 9077,
    " Ph": 9078,
    "tég": 9079,
    " St": 9080,
    " Se": 9081,
    "nex": 9082,
    " Pour": 9083,
    "ierre": 9084,
    " faire": 9085,
    " {": 9086,
    " Bi": 9087,
    " 000": 9088,
    "orti": 9089,
    " représent": 9090,
    "velopp": 9091,
    " Char": 9092,
    " offici": 9093,
    " certa": 9094,
    " famille": 9095,
    "cri": 9096,
    " Ress": 9097,
    " sta": 9098,
    " différ": 9099,
    "oph": 9100,
    "ains": 9101,
    " On": 9102,
    "tro": 9103,
    " 🔹": 9104,
    " rapp": 9105,
    " autres": 9106,
    " encore": 9107,
    "ganis": 9108,
    "ché": 9109,
    "iti": 9110,
    " avoir": 9111,
    "uc": 9112,
    "avi": 9113,
    "ice": 9114,
    " can": 9115,
    " avril": 9116,
    "antes": 9117,
    " développ": 9118,
    " 11": 9119,
    " loc": 9120,
    "cul": 9121,
    " z": 9122,
    "viron": 9123,
    "land": 9124,
    " Son": 9125,
    " non": 9126,
    "rix": 9127,
    "aiss": 9128,
    " tour": 9129,
    " Me": 9130,
    "uses": 9131,
    " dom": 9132,
    "mer": 9133,
    " constru": 9134,
    "Ar": 9135,
    "istes": 9136,
    " rés": 9137,
    " 0": 9138,
    "BN": 9139,
    " ;": 9140,
    "cess": 9141,
    "atre": 9142,
    "péci": 9143,
    "---": 9144,
    " août": 9145,
    " as": 9146,
    "ane": 9147,
    " `": 9148,
    " pass": 9149,
    "olution": 9150,
    " politique": 9151,
    " ver": 9152,
    "ulture": 9153,
    "ivers": 9154,
    "ram": 9155,
    " moins": 9156,
    " États": 9157,
    "évrier": 9158,
    " vous": 9159,
    "esse": 9160,
    "mble": 9161,
    "gne": 9162,
    "œuv": 9163,
    "ions": 9164,
    "ome": 9165,
    "ae": 9166,
    " péri": 9167,
    "aque": 9168,
    "ISBN": 9169,
    " préc": 9170,
    " tech": 9171,
    "aille": 9172,
    " février": 9173,
    "eu": 9174,
    "10": 9175,
    "bles": 9176,
    "ule": 9177,
    " lég": 9178,
    "voir": 9179,
    "ulté": 9180,
    " km": 9181,
    "él": 9182,
    "vin": 9183,
    " 192": 9184,
    " étu": 9185,
    "oot": 9186,
    "pec": 9187,
    " général": 9188,
    " gouver": 9189,
    " cours": 9190,
    "ock": 9191,
    " Col": 9192,
    " spéci": 9193,
    "ase": 9194,
    " série": 9195,
    " présid": 9196,
    "lier": 9197,
    "ouvent": 9198,
    "alle": 9199,
    "gu": 9200,
    "ls": 9201,
    "to": 9202,
    "16": 9203,
    " –": 9204,
    " tou": 9205,
    "seau": 9206,
    " lieu": 9207,
    " fa": 9208,
    " fr": 9209,
    " début": 9210,
    "78": 9211,
    "cont": 9212,
    " bl": 9213,
    "éb": 9214,
    "uel": 9215,
    "éro": 9216,
    "ball": 9217,
    " française": 9218,
    " saison": 9219,
    " ag": 9220,
    "ets": 9221,
    " suite": 9222,
    "ètres": 9223,
    " cô": 9224,
    "dic": 9225,
    "ampionn": 9226,
    " Après": 9227,
    " cent": 9228,
    "ori": 9229,
    "enant": 9230,
    "be": 9231,
    " soit": 9232,
    "15": 9233,
    "ances": 9234,
    "ital": 9235,
    "Unis": 9236,
    "ource": 9237,
    " mis": 9238,
    " sud": 9239,
    " li": 9240,
    " rest": 9241,
    " habit": 9242,
    " nouveau": 9243,
    " co": 9244,
    "ienne": 9245,
    "----------------": 9246,
    " im": 9247,
    "ax": 9248,
    "rê": 9249,
    "ilité": 9250,
    "ourg": 9251,
    "autres": 9252,
    " Mon": 9253,
    " nous": 9254,
    " 2015": 9255,
    "aï": 9256,
    " guerre": 9257,
    "éné": 9258,
    " Mus": 9259,
    "ouis": 9260,
    " fer": 9261,
    " dit": 9262,
    " ils": 9263,
    " and": 9264,
    "sement": 9265,
    " compr": 9266,
    " import": 9267,
    "ys": 9268,
    " ---": 9269,
    "atique": 9270,
    " titre": 9271,
    " pouv": 9272,
    " =": 9273,
    "lise": 9274,
    "assi": 9275,
    " télé": 9276,
    " partir": 9277,
    " public": 9278,
    " mont": 9279,
    "rait": 9280,
    "onom": 9281,
    "itaire": 9282,
    " grande": 9283,
    "acc": 9284,
    "aines": 9285,
    "ditions": 9286,
    "14": 9287,
    " vill": 9288,
    "yle": 9289,
    " emp": 9290,
    " rom": 9291,
    "ress": 9292,
    " dou": 9293,
    " nord": 9294,
    "ange": 9295,
    "cture": 9296,
    " port": 9297,
    " Bar": 9298,
    "cid": 9299,
    "Le": 9300,
    "cé": 9301,
    "ras": 9302,
    " compos": 9303,
    " sorti": 9304,
    " Bl": 9305,
    "12": 9306,
    " données": 9307,
    "vision": 9308,
    " men": 9309,
    " dist": 9310,
    " internation": 9311,
    " fl": 9312,
    " selon": 9313,
    "bum": 9314,
    " 2010": 9315,
    " moy": 9316,
    "ope": 9317,
    "vent": 9318,
    " dur": 9319,
    "lection": 9320,
    "ast": 9321,
    " thé": 9322,
    " inf": 9323,
    "Al": 9324,
    "io": 9325,
    "vice": 9326,
    "ison": 9327,
    " pendant": 9328,
    " [": 9329,
    " syst": 9330,
    " aut": 9331,
    "uni": 9332,
    " quatre": 9333,
    "éré": 9334,
    " Ge": 9335,
    "rain": 9336,
    "ibli": 9337,
    "cou": 9338,
    "adi": 9339,
    "oix": 9340,
    " ty": 9341,
    "tal": 9342,
    " enf": 9343,
    "rop": 9344,
    " club": 9345,
    "sions": 9346,
    "nexes": 9347,
    " w": 9348,
    "ack": 9349,
    " jour": 9350,
    " cri": 9351,
    "suite": 9352,
    "200": 9353,
    "je": 9354,
    " orig": 9355,
    "ki": 9356,
    " indi": 9357,
    "ma": 9358,
    "entes": 9359,
    " fonction": 9360,
    "illi": 9361,
    "istre": 9362,
    "aise": 9363,
    " liv": 9364,
    "cep": 9365,
    "èrent": 9366,
    " 📜": 9367,
    "ticles": 9368,
    "arch": 9369,
    " Mont": 9370,
    " territ": 9371,
    " Cor": 9372,
    " toute": 9373,
    " milli": 9374,
    "lin": 9375,
    " tant": 9376,
    " mes": 9377,
    " autre": 9378,
    "ourd": 9379,
    "fois": 9380,
    " pres": 9381,
    " histor": 9382,
    "cteur": 9383,
    " donc": 9384,
    "fs": 9385,
    "val": 9386,
    " devient": 9387,
    "ret": 9388,
    " dem": 9389,
    "vé": 9390,
    "13": 9391,
    " vic": 9392,
    " site": 9393,
    "ger": 9394,
    " mondi": 9395,
    "ement": 9396,
    " nouvelle": 9397,
    "iter": 9398,
    " met": 9399,
    "ateurs": 9400,
    "mo": 9401,
    "emple": 9402,
    " &": 9403,
    " Sa": 9404,
    "ét": 9405,
    " 2018": 9406,
    "âte": 9407,
    " /": 9408,
    "aud": 9409,
    " département": 9410,
    "oth": 9411,
    " 2014": 9412,
    "èce": 9413,
    " gar": 9414,
    " nature": 9415,
    "ération": 9416,
    " cas": 9417,
    " 25": 9418,
    "rale": 9419,
    " angl": 9420,
    " peti": 9421,
    " ca": 9422,
    " gr": 9423,
    " ouv": 9424,
    "oles": 9425,
    " quelques": 9426,
    " comb": 9427,
    "pendant": 9428,
    "uit": 9429,
    " Cou": 9430,
    " celui": 9431,
    "rique": 9432,
    "minist": 9433,
    "iment": 9434,
    " Joh": 9435,
    " lit": 9436,
    " 2020": 9437,
    " ind": 9438,
    "oires": 9439,
    "dre": 9440,
    " disp": 9441,
    " meille": 9442,
    "ile": 9443,
    "urent": 9444,
    "anti": 9445,
    " XV": 9446,
    " 2011": 9447,
    " 2013": 9448,
    "éli": 9449,
    " appar": 9450,
    " Voir": 9451,
    " celle": 9452,
    "oie": 9453,
    " Ad": 9454,
    " Tr": 9455,
    " particu": 9456,
    " 2007": 9457,
    "ables": 9458,
    " Com": 9459,
    " 2016": 9460,
    " cli": 9461,
    " gra": 9462,
    " reg": 9463,
    " tu": 9464,
    "ommes": 9465,
    "lie": 9466,
    " Mich": 9467,
    "ian": 9468,
    " Can": 9469,
    " Histoire": 9470,
    " vi": 9471,
    "ed": 9472,
    " part": 9473,
    " 2017": 9474,
    " 30": 9475,
    " 2012": 9476,
    "nivers": 9477,
    " repr": 9478,
    " prog": 9479,
    " pol": 9480,
    " constitu": 9481,
    " Références": 9482,
    "yant": 9483,
    "État": 9484,
    " national": 9485,
    " coll": 9486,
    "ars": 9487,
    "rage": 9488,
    " rôle": 9489,
    "sionn": 9490,
    " lib": 9491,
    "fi": 9492,
    "urop": 9493,
    "sp": 9494,
    "ith": 9495,
    " appel": 9496,
    " 190": 9497,
    " rou": 9498,
    " techn": 9499,
    "jours": 9500,
    "èrement": 9501,
    "isme": 9502,
    " New": 9503,
    " fils": 9504,
    " plan": 9505,
    " 2008": 9506,
    " Biographie": 9507,
    " étaient": 9508,
    "🇫🇷": 9509,
    "temp": 9510,
    "èle": 9511,
    " Sch": 9512,
    " Comm": 9513,
    " recher": 9514,
    " chez": 9515,
    " journ": 9516,
    " allem": 9517,
    " supp": 9518,
    " arti": 9519,
    " dém": 9520,
    "tr": 9521,
    " 2009": 9522,
    "ck": 9523,
    "aume": 9524,
    " Rob": 9525,
    " th": 9526,
    " située": 9527,
    " ✨": 9528,
    "dia": 9529,
    " +": 9530,
    "ros": 9531,
    "ner": 9532,
    "ises": 9533,
    " deven": 9534,
    " 2019": 9535,
    "œur": 9536,
    " jours": 9537,
    "histoire": 9538,
    "ll": 9539,
    "poque": 9540,
    " contin": 9541,
    "mbl": 9542,
    "iles": 9543,
    " Ex": 9544,
    " carac": 9545,
    "son": 9546,
    " projet": 9547,
    " homme": 9548,
    " sp": 9549,
    "lles": 9550,
    "ôt": 9551,
    "aw": 9552,
    "urope": 9553,
    " consid": 9554,
    "for": 9555,
    "cription": 9556,
    " musique": 9557,
    "ones": 9558,
    "hi": 9559,
    " Br": 9560,
    " camp": 9561,
    " doc": 9562,
    " inc": 9563,
    "ière": 9564,
    " sub": 9565,
    "ony": 9566,
    " gouvernement": 9567,
    " ensuite": 9568,
    " nive": 9569,
    "téri": 9570,
    "Ie": 9571,
    "estion": 9572,
    " Ces": 9573,
    " 24": 9574,
    " liste": 9575,
    " origin": 9576,
    " 2022": 9577,
    " rencont": 9578,
    "ust": 9579,
    " forme": 9580,
    " Be": 9581,
    "ouse": 9582,
    " habitants": 9583,
    " tard": 9584,
    "50": 9585,
    " 🇫🇷": 9586,
    " village": 9587,
    "ime": 9588,
    "ke": 9589,
    " match": 9590,
    "oll": 9591,
    " Su": 9592,
    " suiv": 9593,
    "ity": 9594,
    "consulté": 9595,
    " dev": 9596,
    " société": 9597,
    "La": 9598,
    "uli": 9599,
    " période": 9600,
    " nationale": 9601,
    " près": 9602,
    " père": 9603,
    " Louis": 9604,
    "apon": 9605,
    "uvent": 9606,
    " lang": 9607,
    "eb": 9608,
    " particip": 9609,
    " trouve": 9610,
    " reç": 9611,
    " cir": 9612,
    "tation": 9613,
    "eux": 9614,
    " 189": 9615,
    " ét": 9616,
    "rant": 9617,
    "âteau": 9618,
    " Pe": 9619,
    "alif": 9620,
    " id": 9621,
    "âtre": 9622,
    "hui": 9623,
    "ork": 9624,
    " Pierre": 9625,
    " Ils": 9626,
    " mois": 9627,
    "enir": 9628,
    "auv": 9629,
    " 22": 9630,
    "uropé": 9631,
    " toujours": 9632,
    " dés": 9633,
    " Liste": 9634,
    "tent": 9635,
    " souvent": 9636,
    "usion": 9637,
    " lim": 9638,
    " Mais": 9639,
    "dis": 9640,
    " nécess": 9641,
    " tourn": 9642,
    ");": 9643,
    "ennes": 9644,
    " dernier": 9645,
    " succ": 9646,
    " second": 9647,
    "tient": 9648,
    " tot": 9649,
    " Articles": 9650,
    " roi": 9651,
    "join": 9652,
    "ède": 9653,
    " beau": 9654,
    " 2006": 9655,
    "air": 9656,
    " peuvent": 9657,
    " conse": 9658,
    " organis": 9659,
    " réc": 9660,
    " Man": 9661,
    " 🤝": 9662,
    " to": 9663,
    " 2000": 9664,
    " environ": 9665,
    " Mal": 9666,
    "qué": 9667,
    " lar": 9668,
    "rag": 9669,
    "tifs": 9670,
    "ick": 9671,
    " #": 9672,
    " bar": 9673,
    " président": 9674,
    "ument": 9675,
    " chaque": 9676,
    "âti": 9677,
    " 23": 9678,
    "aff": 9679,
    "orig": 9680,
    "aliste": 9681,
    " œuv": 9682,
    " service": 9683,
    " relatives": 9684,
    "était": 9685,
    " deuxième": 9686,
    " chef": 9687,
    " Pal": 9688,
    "tern": 9689,
    "çois": 9690,
    " réseau": 9691,
    " base": 9692,
    " connexes": 9693,
    "11": 9694,
    "année": 9695,
    " 🧑": 9696,
    "duction": 9697,
    "ative": 9698,
    "iller": 9699,
    " John": 9700,
    " relative": 9701,
    " Grand": 9702,
    " joue": 9703,
    "équipe": 9704,
    " Fl": 9705,
    "ampionnat": 9706,
    "arg": 9707,
    "yl": 9708,
    "ymp": 9709,
    " Am": 9710,
    " population": 9711,
    " toutes": 9712,
    " Di": 9713,
    " communes": 9714,
    " oc": 9715,
    " seul": 9716,
    "aît": 9717,
    "ards": 9718,
    "quer": 9719,
    " Lors": 9720,
    " culture": 9721,
    " Dis": 9722,
    "ète": 9723,
    " donn": 9724,
    "rin": 9725,
    " dési": 9726,
    "serv": 9727,
    " Ressources": 9728,
    " classe": 9729,
    " travers": 9730,
    "yp": 9731,
    " bou": 9732,
    "raî": 9733,
    "ication": 9734,
    " ess": 9735,
    "aute": 9736,
    " femme": 9737,
    " face": 9738,
    "mbres": 9739,
    " point": 9740,
    " prob": 9741,
    " cad": 9742,
    " 🏛": 9743,
    "cup": 9744,
    " 🏆": 9745,
    " dess": 9746,
    " porte": 9747,
    " but": 9748,
    "iel": 9749,
    "ana": 9750,
    " 188": 9751,
    " cal": 9752,
    "mon": 9753,
    " sig": 9754,
    " Bibli": 9755,
    " jeu": 9756,
    " anglais": 9757,
    "téris": 9758,
    "enre": 9759,
    " américain": 9760,
    " centre": 9761,
    " europé": 9762,
    " Ser": 9763,
    " 978": 9764,
    "der": 9765,
    " conser": 9766,
    " simp": 9767,
    " rapport": 9768,
    " nombreux": 9769,
    "urb": 9770,
    "ada": 9771,
    " décl": 9772,
    "iers": 9773,
    " !": 9774,
    "vaux": 9775,
    "aissance": 9776,
    " Jac": 9777,
    " contra": 9778,
    "écur": 9779,
    "uire": 9780,
    "alités": 9781,
    "oun": 9782,
    " Bel": 9783,
    "ox": 9784,
    "ootball": 9785,
    "199": 9786,
    " log": 9787,
    " Paul": 9788,
    " 2005": 9789,
    "cs": 9790,
    "ilm": 9791,
    "jourd": 9792,
    " rend": 9793,
    " rév": 9794,
    " fais": 9795,
    "ka": 9796,
    " 🌍": 9797,
    "'s": 9798,
    " iss": 9799,
    "con": 9800,
    "téra": 9801,
    "org": 9802,
    " personnes": 9803,
    "sible": 9804,
    " cro": 9805,
    " voy": 9806,
    " maj": 9807,
    "ht": 9808,
    "esp": 9809,
    " 🗓,": 9810,
    "inter": 9811,
    "origine": 9812,
    " rue": 9813,
    " por": 9814,
    " année": 9815,
    " ayant": 9816,
    " cet": 9817,
    "âce": 9818,
    " commer": 9819,
    " aur": 9820,
    "ina": 9821,
    "gé": 9822,
    " Sc": 9823,
    " II": 9824,
    " ord": 9825,
    "era": 9826,
    " reconn": 9827,
    " sup": 9828,
    " reste": 9829,
    "anci": 9830,
    "eures": 9831,
    " compte": 9832,
    " 28": 9833,
    "tien": 9834,
    " tête": 9835,
    "unes": 9836,
    " 2021": 9837,
    "off": 9838,
    "ote": 9839,
    " {\\": 9840,
    "inf": 9841,
    " Charles": 9842,
    "dio": 9843,
    "}}": 9844,
    " 186": 9845,
    " afin": 9846,
    " prom": 9847,
    " étant": 9848,
    " 📍": 9849,
    " 26": 9850,
    " 📚": 9851,
    " jeune": 9852,
    " pein": 9853,
    " situé": 9854,
    " système": 9855,
    " Soci": 9856,
    "quel": 9857,
    "cad": 9858,
    " 2004": 9859,
    "ition": 9860,
    "alisation": 9861,
    "usse": 9862,
    "*,": 9863,
    " coup": 9864,
    " muni": 9865,
    " mise": 9866,
    " cinq": 9867,
    " He": 9868,
    " prend": 9869,
    "ide": 9870,
    " term": 9871,
    " bat": 9872,
    "odes": 9873,
    "Xe": 9874,
    " pra": 9875,
    " Roy": 9876,
    "rang": 9877,
    " Sta": 9878,
    "ara": 9879,
    " Nord": 9880,
    "ouest": 9881,
    "erne": 9882,
    " Sur": 9883,
    " droit": 9884,
    " élect": 9885,
    "ission": 9886,
    " membres": 9887,
    " doit": 9888,
    "ules": 9889,
    "oris": 9890,
    " bâti": 9891,
    "ville": 9892,
    "cer": 9893,
    " ref": 9894,
    " 21": 9895,
    "ute": 9896,
    " 27": 9897,
    "cole": 9898,
    "pose": 9899,
    " bata": 9900,
    "ulé": 9901,
    " niveau": 9902,
    " capit": 9903,
    "èmes": 9904,
    " hommes": 9905,
    " bi": 9906,
    "xte": 9907,
    " mot": 9908,
    "iné": 9909,
    "èse": 9910,
    "tionn": 9911,
    " mag": 9912,
    " territoire": 9913,
    "oss": 9914,
    " mari": 9915,
    " fort": 9916,
    " roy": 9917,
    "ologique": 9918,
    "tition": 9919,
    " travail": 9920,
    "ustri": 9921,
    " num": 9922,
    "alog": 9923,
    " maison": 9924,
    " moi": 9925,
    "ception": 9926,
    " Cons": 9927,
    " ?": 9928,
    " atte": 9929,
    "**,": 9930,
    " Ab": 9931,
    " équi": 9932,
    " écrit": 9933,
    " ense": 9934,
    " exemple": 9935,
    " Te": 9936,
    "même": 9937,
    "pt": 9938,
    " chans": 9939,
    "nés": 9940,
    " production": 9941,
    " Comp": 9942,
    "ysi": 9943,
    "ices": 9944,
    " éch": 9945,
    " Hen": 9946,
    " Cet": 9947,
    "att": 9948,
    " fille": 9949,
    " Ren": 9950,
    " prix": 9951,
    " Gr": 9952,
    "old": 9953,
    " intit": 9954,
    "çon": 9955,
    " corps": 9956,
    "urg": 9957,
    " 2023": 9958,
    "ennent": 9959,
    " défin": 9960,
    "leur": 9961,
    "Ch": 9962,
    "éma": 9963,
    " provin": 9964,
    "duit": 9965,
    "30": 9966,
    "férence": 9967,
    " parc": 9968,
    "idé": 9969,
    " mondiale": 9970,
    " Sud": 9971,
    " 187": 9972,
    "pide": 9973,
    "ulti": 9974,
    " Val": 9975,
    " nommé": 9976,
    "auté": 9977,
    "Fran": 9978,
    " Or": 9979,
    "otre": 9980,
    " br": 9981,
    "ublique": 9982,
    "tait": 9983,
    " voit": 9984,
    "érique": 9985,
    "ppe": 9986,
    "position": 9987,
    " sal": 9988,
    " Et": 9989,
    "cipe": 9990,
    " allemand": 9991,
    " hum": 9992,
    "lément": 9993,
    "eng": 9994,
    "ires": 9995,
    " 📅,": 9996,
    "tière": 9997,
    " Premi": 9998,
    "cident": 9999,
    "yd": 10000,
    " raison": 10001,
    " cat": 10002,
    " article": 10003,
    " Du": 10004,
    "play": 10005,
    " membre": 10006,
    " poss": 10007,
    "gré": 10008,
    " scène": 10009,
    " trou": 10010,
    "ames": 10011,
    " mouve": 10012,
    " municip": 10013,
    " inst": 10014,
    " étab": 10015,
    " carrière": 10016,
    "Mar": 10017,
    " Guerre": 10018,
    " recherche": 10019,
    " Fin": 10020,
    " espèce": 10021,
    " 1999": 10022,
    " ✅": 10023,
    " annon": 10024,
    "pré": 10025,
    "rim": 10026,
    "ash": 10027,
    "isode": 10028,
    " sein": 10029,
    "ano": 10030,
    " pouvoir": 10031,
    " All": 10032,
    " Sal": 10033,
    " équipe": 10034,
    "bert": 10035,
    " femmes": 10036,
    " 29": 10037,
    "ley": 10038,
    " Ste": 10039,
    " Geor": 10040,
    "tru": 10041,
    " Gal": 10042,
    "armée": 10043,
    " fac": 10044,
    " serv": 10045,
    "aj": 10046,
    " large": 10047,
    " 👑": 10048,
    "duc": 10049,
    "oration": 10050,
    " présente": 10051,
    " rapide": 10052,
    " château": 10053,
    " rempl": 10054,
    " XI": 10055,
    " 🛡": 10056,
    " durant": 10057,
    "by": 10058,
    " Ber": 10059,
    " Si": 10060,
    " sign": 10061,
    " François": 10062,
    "ini": 10063,
    "éch": 10064,
    "orn": 10065,
    " devant": 10066,
    "reg": 10067,
    "autre": 10068,
    "ene": 10069,
    " mètres": 10070,
    "tier": 10071,
    "amais": 10072,
    "élè": 10073,
    "ociation": 10074,
    " cher": 10075,
    " petit": 10076,
    " 2003": 10077,
    " route": 10078,
    " Rép": 10079,
    " retour": 10080,
    " actu": 10081,
    " enfants": 10082,
    " marqu": 10083,
    "mat": 10084,
    " Is": 10085,
    " gl": 10086,
    "église": 10087,
    "ld": 10088,
    "èg": 10089,
    " Tra": 10090,
    "inc": 10091,
    " ``": 10092,
    "ira": 10093,
    " ```": 10094,
    " rev": 10095,
    " ital": 10096,
    " six": 10097,
    "ting": 10098,
    " 2002": 10099,
    " ancien": 10100,
    " 2001": 10101,
    "quelle": 10102,
    " Ro": 10103,
    "ression": 10104,
    " divers": 10105,
    "cte": 10106,
    " contr": 10107,
    " Sp": 10108,
    " brit": 10109,
    " profes": 10110,
    " mer": 10111,
    " 1990": 10112,
    " littéra": 10113,
    " développement": 10114,
    " seu": 10115,
    "univers": 10116,
    "osé": 10117,
    " class": 10118,
    " type": 10119,
    "jà": 10120,
    " Histor": 10121,
    " And": 10122,
    " maî": 10123,
    " certains": 10124,
    " Ressource": 10125,
    " Har": 10126,
    "ende": 10127,
    " ceux": 10128,
    " priv": 10129,
    "exp": 10130,
    " cy": 10131,
    " millions": 10132,
    " relig": 10133,
    " dès": 10134,
    " vari": 10135,
    " Tour": 10136,
    " op": 10137,
    "oise": 10138,
    " laquelle": 10139,
    " fig": 10140,
    " Bibliographie": 10141,
    "vo": 10142,
    " Inter": 10143,
    "Or": 10144,
    " sera": 10145,
    " Sec": 10146,
    "dé": 10147,
    "crit": 10148,
    " atta": 10149,
    "af": 10150,
    " officiel": 10151,
    "ied": 10152,
    " incl": 10153,
    "igue": 10154,
    "style": 10155,
    " quit": 10156,
    " effec": 10157,
    " piè": 10158,
    "estiv": 10159,
    " effet": 10160,
    " 👨": 10161,
    "prise": 10162,
    " viv": 10163,
    " généra": 10164,
    " all": 10165,
    "ision": 10166,
    " 2024": 10167,
    "ty": 10168,
    "sur": 10169,
    " Aut": 10170,
    "coup": 10171,
    " va": 10172,
    "aces": 10173,
    " opé": 10174,
    "rir": 10175,
    " jamais": 10176,
    " Coupe": 10177,
    "ribution": 10178,
    "uté": 10179,
    "andis": 10180,
    "écurité": 10181,
    " mom": 10182,
    " grâce": 10183,
    "mont": 10184,
    "térieur": 10185,
    " économ": 10186,
    " premiers": 10187,
    "oud": 10188,
    "lo": 10189,
    " mère": 10190,
    " anci": 10191,
    " Selon": 10192,
    " ministre": 10193,
    " Robert": 10194,
    "40": 10195,
    " administ": 10196,
    "198": 10197,
    " 🚀": 10198,
    "tage": 10199,
    " troisième": 10200,
    " ni": 10201,
    " 1998": 10202,
    " résul": 10203,
    " pris": 10204,
    ".,": 10205,
    " Dé": 10206,
    " syn": 10207,
    "voy": 10208,
    "eff": 10209,
    " 🌟": 10210,
    " album": 10211,
    "action": 10212,
    "25": 10213,
    " Site": 10214,
    " finale": 10215,
    " vict": 10216,
    "tagne": 10217,
    " bon": 10218,
    "display": 10219,
    "ève": 10220,
    "chi": 10221,
    "bilité": 10222,
    " déjà": 10223,
    "tiste": 10224,
    "niques": 10225,
    "xim": 10226,
    "atiques": 10227,
    " Ed": 10228,
    " fré": 10229,
    " Cependant": 10230,
    " utilisé": 10231,
    " Prix": 10232,
    " auteurs": 10233,
    "sence": 10234,
    "ible": 10235,
    " ⏳": 10236,
    "rist": 10237,
    "ublic": 10238,
    " rejoin": 10239,
    "talie": 10240,
    " succès": 10241,
    " Vic": 10242,
    " longue": 10243,
    " joueur": 10244,
    "annique": 10245,
    " Marie": 10246,
    " côté": 10247,
    " militaire": 10248,
    "estival": 10249,
    "reu": 10250,
    " No": 10251,
    " plu": 10252,
    "uf": 10253,
    " cath": 10254,
    "displaystyle": 10255,
    " 🔄": 10256,
    " Dan": 10257,
    "_{": 10258,
    " cela": 10259,
    " main": 10260,
    " 📈": 10261,
    " poste": 10262,
    " bois": 10263,
    "sh": 10264,
    "llemagne": 10265,
    " univers": 10266,
    " intitulé": 10267,
    "da": 10268,
    "ela": 10269,
    "orie": 10270,
    "up": 10271,
    " caractéris": 10272,
    "isl": 10273,
    "uments": 10274,
    " Cas": 10275,
    " mm": 10276,
    " fra": 10277,
    " Co": 10278,
    "tie": 10279,
    " création": 10280,
    "asion": 10281,
    "équ": 10282,
    "ribu": 10283,
    " Per": 10284,
    " découv": 10285,
    "ber": 10286,
    " 🗺": 10287,
    " viol": 10288,
    " nombreuses": 10289,
    " 🏞": 10290,
    "tivité": 10291,
    " command": 10292,
    " Film": 10293,
    "rice": 10294,
    " Jacques": 10295,
    "itaires": 10296,
    "reur": 10297,
    " aujourd": 10298,
    "ordre": 10299,
    " auc": 10300,
    " propri": 10301,
    " construction": 10302,
    " program": 10303,
    " trop": 10304,
    "jec": 10305,
    "22": 10306,
    " régiment": 10307,
    "article": 10308,
    "émin": 10309,
    " voix": 10310,
    "45": 10311,
    "men": 10312,
    " passe": 10313,
    "après": 10314,
    " Gé": 10315,
    " sort": 10316,
    " tomb": 10317,
    " let": 10318,
    " professionn": 10319,
    " Dur": 10320,
    "ult": 10321,
    " phot": 10322,
    " él": 10323,
    " connu": 10324,
    " points": 10325,
    "uelle": 10326,
    " expl": 10327,
    " version": 10328,
    "rid": 10329,
    "iquement": 10330,
    " arch": 10331,
    " colon": 10332,
    " 100": 10333,
    " For": 10334,
    " seulement": 10335,
    " El": 10336,
    "oign": 10337,
    "umi": 10338,
    " roman": 10339,
    " tandis": 10340,
    " intég": 10341,
    "met": 10342,
    " <": 10343,
    " York": 10344,
    " manière": 10345,
    "avant": 10346,
    "Europe": 10347,
    "SS": 10348,
    "issement": 10349,
    " beaucoup": 10350,
    "ément": 10351,
    " furent": 10352,
    "ood": 10353,
    "taire": 10354,
    "époque": 10355,
    "illon": 10356,
    "ura": 10357,
    "ha": 10358,
    "auteur": 10359,
    "île": 10360,
    " eu": 10361,
    " anim": 10362,
    "face": 10363,
    " Gar": 10364,
    " Che": 10365,
    " moment": 10366,
    " championnat": 10367,
    " signi": 10368,
    "temps": 10369,
    " proc": 10370,
    " Phili": 10371,
    "orité": 10372,
    " feu": 10373,
    "berg": 10374,
    "ettes": 10375,
    " 📊": 10376,
    "agit": 10377,
    "nements": 10378,
    " Pays": 10379,
    " 🔢": 10380,
    " 179": 10381,
    " commen": 10382,
    " cadre": 10383,
    " qualif": 10384,
    "cles": 10385,
    "aître": 10386,
    " Ac": 10387,
    " quarti": 10388,
    "sc": 10389,
    " Ver": 10390,
    " milieu": 10391,
    "gment": 10392,
    "ouverte": 10393,
    " puiss": 10394,
    " demi": 10395,
    "neur": 10396,
    " fai": 10397,
    "ouss": 10398,
    "bourg": 10399,
    " tradition": 10400,
    " elles": 10401,
    "âge": 10402,
    "ènes": 10403,
    "ainte": 10404,
    " particuli": 10405,
    "éon": 10406,
    "70": 10407,
    "isse": 10408,
    " petite": 10409,
    "base": 10410,
    " suivant": 10411,
    "dit": 10412,
    "uri": 10413,
    " Marc": 10414,
    " ⚔": 10415,
    "enu": 10416,
    "sse": 10417,
    "iki": 10418,
    " patri": 10419,
    " autor": 10420,
    " 185": 10421,
    "utes": 10422,
    " réalisé": 10423,
    "ark": 10424,
    "acité": 10425,
    "iz": 10426,
    "èque": 10427,
    "uisse": 10428,
    " formation": 10429,
    "olu": 10430,
    " direction": 10431,
    " issu": 10432,
    " trouv": 10433,
    "anté": 10434,
    "dec": 10435,
    "24": 10436,
    " esti": 10437,
    " livre": 10438,
    " inform": 10439,
    " 50": 10440,
    "rom": 10441,
    "agnie": 10442,
    "vie": 10443,
    " ve": 10444,
    "auche": 10445,
    " table": 10446,
    "vre": 10447,
    "ip": 10448,
    "mique": 10449,
    " Plus": 10450,
    " différents": 10451,
    "atoire": 10452,
    "ardin": 10453,
    " quand": 10454,
    " Mad": 10455,
    " cant": 10456,
    "uré": 10457,
    " sci": 10458,
    "23": 10459,
    " République": 10460,
    "Am": 10461,
    "illeurs": 10462,
    " mém": 10463,
    " gestion": 10464,
    " genre": 10465,
    " pal": 10466,
    " chap": 10467,
    "26": 10468,
    " Michel": 10469,
    " Nation": 10470,
    " méd": 10471,
    " Rou": 10472,
    "pecta": 10473,
    " ✍": 10474,
    " international": 10475,
    " Lond": 10476,
    " loi": 10477,
    "aci": 10478,
    " Ben": 10479,
    " terre": 10480,
    "abord": 10481,
    " dix": 10482,
    "vière": 10483,
    "tout": 10484,
    "isation": 10485,
    "estre": 10486,
    "less": 10487,
    "En": 10488,
    "évolution": 10489,
    "aly": 10490,
    "ario": 10491,
    "itecture": 10492,
    " obten": 10493,
    "anne": 10494,
    "ald": 10495,
    " autom": 10496,
    " bord": 10497,
    "AN": 10498,
    " Avec": 10499,
    " 1997": 10500,
    " dernière": 10501,
    " publié": 10502,
    "ocra": 10503,
    " Bern": 10504,
    " vidé": 10505,
    "otte": 10506,
    " Société": 10507,
    " britannique": 10508,
    " empl": 10509,
    "aude": 10510,
    " colle": 10511,
    " grands": 10512,
    " mati": 10513,
    "rêt": 10514,
    " haut": 10515,
    "aye": 10516,
    " Canada": 10517,
    " rencontre": 10518,
    " San": 10519,
    "fr": 10520,
    " Trans": 10521,
    "iteur": 10522,
    "rite": 10523,
    "ey": 10524,
    " travaux": 10525,
    "na": 10526,
    " siège": 10527,
    "lev": 10528,
    "leurs": 10529,
    " nouvelles": 10530,
    "niversité": 10531,
    " Alex": 10532,
    "cal": 10533,
    "ographique": 10534,
    "émie": 10535,
    "pond": 10536,
    " sortie": 10537,
    " Depuis": 10538,
    "veur": 10539,
    " eng": 10540,
    " 1996": 10541,
    " dépl": 10542,
    " prot": 10543,
    "sive": 10544,
    "ambre": 10545,
    "eth": 10546,
    " études": 10547,
    " autour": 10548,
    " ⭐": 10549,
    " commence": 10550,
    "érit": 10551,
    "assin": 10552,
    "itre": 10553,
    " Ses": 10554,
    "60": 10555,
    " he": 10556,
    "illiam": 10557,
    " parmi": 10558,
    " initi": 10559,
    " Cour": 10560,
    " province": 10561,
    "université": 10562,
    "cours": 10563,
    "entif": 10564,
    "hô": 10565,
    " Conse": 10566,
    "cientif": 10567,
    "ple": 10568,
    "frique": 10569,
    " Gra": 10570,
    " Mo": 10571,
    " sau": 10572,
    " remporte": 10573,
    " etc": 10574,
    "empl": 10575,
    " Bro": 10576,
    " ress": 10577,
    " arriv": 10578,
    " XVII": 10579,
    "ung": 10580,
    "jou": 10581,
    " asse": 10582,
    " médi": 10583,
    "aill": 10584,
    "orld": 10585,
    "êtes": 10586,
    " physi": 10587,
    " moyenne": 10588,
    "ost": 10589,
    " division": 10590,
    "rées": 10591,
    " Lib": 10592,
    "stes": 10593,
    "onneur": 10594,
    "eter": 10595,
    "aval": 10596,
    "ensemble": 10597,
    " perform": 10598,
    " laiss": 10599,
    "ieur": 10600,
    " Rich": 10601,
    " football": 10602,
    " zone": 10603,
    "uk": 10604,
    "oseph": 10605,
    "iche": 10606,
    " théâtre": 10607,
    " mouvement": 10608,
    " Mor": 10609,
    " services": 10610,
    " principale": 10611,
    " position": 10612,
    " Rés": 10613,
    " précéd": 10614,
    "spagne": 10615,
    "cy": 10616,
    "66": 10617,
    " Russ": 10618,
    " demand": 10619,
    " 1980": 10620,
    " cinéma": 10621,
    " partiellement": 10622,
    "enf": 10623,
    " effectu": 10624,
    "ulaire": 10625,
    " cond": 10626,
    " ol": 10627,
    "ça": 10628,
    "ël": 10629,
    "sy": 10630,
    "lique": 10631,
    " crois": 10632,
    "ié": 10633,
    " Jeux": 10634,
    " sais": 10635,
    " Rom": 10636,
    "orté": 10637,
    " technique": 10638,
    " 💡": 10639,
    " Gl": 10640,
    "roï": 10641,
    "ctes": 10642,
    " meur": 10643,
    " font": 10644,
    " 1995": 10645,
    " mesure": 10646,
    "red": 10647,
    "rog": 10648,
    "ustral": 10649,
    "posi": 10650,
    " William": 10651,
    "èces": 10652,
    " équipes": 10653,
    " fit": 10654,
    "inst": 10655,
    " 1991": 10656,
    "The": 10657,
    " super": 10658,
    " eux": 10659,
    " professe": 10660,
    "formation": 10661,
    "did": 10662,
    " terme": 10663,
    " stru": 10664,
    " demande": 10665,
    " associ": 10666,
    " classi": 10667,
    "roph": 10668,
    " administra": 10669,
    "trib": 10670,
    "com": 10671,
    " Gi": 10672,
    " val": 10673,
    " meilleur": 10674,
    " multi": 10675,
    " ple": 10676,
    " Rec": 10677,
    " distin": 10678,
    " seule": 10679,
    "épend": 10680,
    "ovi": 10681,
    ")**": 10682,
    " 31": 10683,
    " combat": 10684,
    " totalité": 10685,
    "rec": 10686,
    "étu": 10687,
    "ront": 10688,
    "respond": 10689,
    " maint": 10690,
    " mor": 10691,
    " Davi": 10692,
    "tection": 10693,
    " III": 10694,
    "jets": 10695,
    " vit": 10696,
    " chanson": 10697,
    " particulier": 10698,
    " entraî": 10699,
    " produit": 10700,
    " propre": 10701,
    " cer": 10702,
    " sécurité": 10703,
    "lit": 10704,
    "35": 10705,
    " Min": 10706,
    "oré": 10707,
    " Cat": 10708,
    "ares": 10709,
    " participe": 10710,
    "uy": 10711,
    " Bou": 10712,
    " préf": 10713,
    " parfois": 10714,
    "êt": 10715,
    " domaine": 10716,
    "étique": 10717,
    " différentes": 10718,
    " date": 10719,
    " reven": 10720,
    " là": 10721,
    "ham": 10722,
    " communauté": 10723,
    " frère": 10724,
    "80": 10725,
    " Nic": 10726,
    "titude": 10727,
    " change": 10728,
    " kil": 10729,
    " Centre": 10730,
    " Gen": 10731,
    " donne": 10732,
    " 1994": 10733,
    "seaux": 10734,
    "rich": 10735,
    " voir": 10736,
    " Cap": 10737,
    "êque": 10738,
    " dessin": 10739,
    " sport": 10740,
    " Wiki": 10741,
    "tivités": 10742,
    " Nouv": 10743,
    " collab": 10744,
    " emb": 10745,
    " sem": 10746,
    "titut": 10747,
    "mission": 10748,
    " déta": 10749,
    " créé": 10750,
    " élections": 10751,
    " bataille": 10752,
    "yth": 10753,
    " Parti": 10754,
    "atif": 10755,
    " music": 10756,
    " Cal": 10757,
    " historique": 10758,
    " soi": 10759,
    "omin": 10760,
    " catég": 10761,
    " scientif": 10762,
    "let": 10763,
    " lorsque": 10764,
    " propos": 10765,
    " avaient": 10766,
    "21": 10767,
    " fréqu": 10768,
    "37": 10769,
    "AS": 10770,
    "moine": 10771,
    "iver": 10772,
    " Chris": 10773,
    " surtout": 10774,
    "tine": 10775,
    "érieur": 10776,
    "rond": 10777,
    "anche": 10778,
    " pri": 10779,
    "cée": 10780,
    " Henri": 10781,
    " remplac": 10782,
    "ôme": 10783,
    " aurait": 10784,
    "part": 10785,
    " compé": 10786,
    "anique": 10787,
    "ky": 10788,
    "dess": 10789,
    "cide": 10790,
    "abb": 10791,
    "ovie": 10792,
    "oï": 10793,
    " répond": 10794,
    "tivement": 10795,
    " pied": 10796,
    "\",": 10797,
    " 🎯": 10798,
    "of": 10799,
    "resse": 10800,
    " suc": 10801,
    "olique": 10802,
    " moyen": 10803,
    " Cont": 10804,
    " specta": 10805,
    " éd": 10806,
    " Belg": 10807,
    "29": 10808,
    " champ": 10809,
    "atabase": 10810,
    " World": 10811,
    "atta": 10812,
    " pu": 10813,
    " principalement": 10814,
    " entrepr": 10815,
    "48": 10816,
    "album": 10817,
    " cœur": 10818,
    "atives": 10819,
    "ino": 10820,
    "ica": 10821,
    "ilos": 10822,
    " américaine": 10823,
    " 1992": 10824,
    " comte": 10825,
    "cent": 10826,
    "ary": 10827,
    " médec": 10828,
    " cheval": 10829,
    " Conseil": 10830,
    " 180": 10831,
    " bes": 10832,
    "ER": 10833,
    " principal": 10834,
    "homme": 10835,
    " correspond": 10836,
    " resp": 10837,
    " ----------------": 10838,
    " chi": 10839,
    " sus": 10840,
    " 🎨": 10841,
    "anie": 10842,
    " étudi": 10843,
    " Japon": 10844,
    " nécessaire": 10845,
    " Thé": 10846,
    "médi": 10847,
    "197": 10848,
    " musée": 10849,
    " pens": 10850,
    " 1993": 10851,
    "ablement": 10852,
    " 💰": 10853,
    " 📖": 10854,
    "28": 10855,
    " voul": 10856,
    " chois": 10857,
    "hab": 10858,
    " bande": 10859,
    " Bre": 10860,
    " œuvre": 10861,
    " Pré": 10862,
    " att": 10863,
    " cependant": 10864,
    " tri": 10865,
    " 1970": 10866,
    " publique": 10867,
    "oile": 10868,
    " dispar": 10869,
    " Carrière": 10870,
    " inté": 10871,
    " tels": 10872,
    " vale": 10873,
    " matéri": 10874,
    "rige": 10875,
    " David": 10876,
    "ani": 10877,
    "ca": 10878,
    " gal": 10879,
    "tice": 10880,
    "fication": 10881,
    "ots": 10882,
    " commerci": 10883,
    " continu": 10884,
    " urb": 10885,
    " pa": 10886,
    " olymp": 10887,
    " retr": 10888,
    " Maur": 10889,
    "née": 10890,
    " jeunes": 10891,
    "environ": 10892,
    " rien": 10893,
    " Mc": 10894,
    " référence": 10895,
    " quartier": 10896,
    "ly": 10897,
    " directeur": 10898,
    " donné": 10899,
    " répar": 10900,
    "èles": 10901,
    "my": 10902,
    " victoire": 10903,
    " suivante": 10904,
    " Cro": 10905,
    " i": 10906,
    " Ang": 10907,
    " 🏙": 10908,
    " modèle": 10909,
    "cupation": 10910,
    " Mil": 10911,
    "quant": 10912,
    " station": 10913,
    " transport": 10914,
    "lire": 10915,
    " Deux": 10916,
    "Emp": 10917,
    "pédia": 10918,
    " kilom": 10919,
    "itement": 10920,
    "agement": 10921,
    "argent": 10922,
    " adap": 10923,
    " 40": 10924,
    " voyage": 10925,
    " langue": 10926,
    " At": 10927,
    " contrôle": 10928,
    " grou": 10929,
    " russe": 10930,
    " sélection": 10931,
    " 🎭": 10932,
    "27": 10933,
    " x": 10934,
    " cause": 10935,
    " 📏": 10936,
    " document": 10937,
    "orth": 10938,
    " scén": 10939,
    "endu": 10940,
    " gauche": 10941,
    "33": 10942,
    "téroï": 10943,
    "eterre": 10944,
    " Description": 10945,
    "Les": 10946,
    " Cam": 10947,
    "cesse": 10948,
    "tag": 10949,
    "ieuse": 10950,
    "France": 10951,
    "onnes": 10952,
    "ney": 10953,
    "ates": 10954,
    " minutes": 10955,
    " noir": 10956,
    " prendre": 10957,
    " Del": 10958,
    "abri": 10959,
    "ume": 10960,
    " us": 10961,
    " Bo": 10962,
    " heures": 10963,
    "organis": 10964,
    " sens": 10965,
    " Londres": 10966,
    " premières": 10967,
    " cr": 10968,
    "ilosoph": 10969,
    "ébec": 10970,
    "vention": 10971,
    " sim": 10972,
    " problè": 10973,
    " Wikipédia": 10974,
    " seconde": 10975,
    "arde": 10976,
    " faut": 10977,
    " Ly": 10978,
    " const": 10979,
    "AM": 10980,
    "ampionnats": 10981,
    " lequel": 10982,
    " ven": 10983,
    " XIXe": 10984,
    "ords": 10985,
    " tent": 10986,
    "ker": 10987,
    " vra": 10988,
    " dérou": 10989,
    " fémin": 10990,
    " réun": 10991,
    " uti": 10992,
    " complex": 10993,
    "tives": 10994,
    "glise": 10995,
    "nel": 10996,
    "do": 10997,
    "gleterre": 10998,
    " rivière": 10999,
    "Je": 11000,
    "anger": 11001,
    "quis": 11002,
    " chemin": 11003,
    " élé": 11004,
    " réd": 11005,
    " ris": 11006,
    " Mat": 11007,
    " ten": 11008,
    " écriv": 11009,
    " célè": 11010,
    " Bra": 11011,
    " remar": 11012,
    " nég": 11013,
    " vidéo": 11014,
    " dipl": 11015,
    "ola": 11016,
    "──": 11017,
    "ades": 11018,
    " is": 11019,
    " réf": 11020,
    "ignes": 11021,
    " personne": 11022,
    " be": 11023,
    " suff": 11024,
    "gh": 11025,
    " présence": 11026,
    "pect": 11027,
    " via": 11028,
    "AC": 11029,
    "ES": 11030,
    " espagn": 11031,
    "vous": 11032,
    " internationale": 11033,
    " japon": 11034,
    "icile": 11035,
    " béné": 11036,
    "indre": 11037,
    " dén": 11038,
    " Tur": 11039,
    " Music": 11040,
    "école": 11041,
    "audi": 11042,
    "édi": 11043,
    " serait": 11044,
    " certaines": 11045,
    "allée": 11046,
    "arts": 11047,
    " Jo": 11048,
    " vue": 11049,
    " 🌳": 11050,
    " quelque": 11051,
    "ds": 11052,
    " Sim": 11053,
    " Mer": 11054,
    "rages": 11055,
    "ologne": 11056,
    " pat": 11057,
    "lan": 11058,
    " conseil": 11059,
    ",,": 11060,
    "œuvre": 11061,
    " canton": 11062,
    "ainque": 11063,
    " Pas": 11064,
    " épouse": 11065,
    " sold": 11066,
    " Lu": 11067,
    " respons": 11068,
    " lanc": 11069,
    " opp": 11070,
    "bes": 11071,
    "tienne": 11072,
    "orer": 11073,
    " obtient": 11074,
    "ctures": 11075,
    " nos": 11076,
    " Kar": 11077,
    " blanc": 11078,
    " Don": 11079,
    " Victor": 11080,
    " ban": 11081,
    " 🧠": 11082,
    "omas": 11083,
    "Université": 11084,
    " ami": 11085,
    " Méd": 11086,
    "cis": 11087,
    " politiques": 11088,
    "we": 11089,
    " style": 11090,
    "dire": 11091,
    " retra": 11092,
    "osition": 11093,
    " peintre": 11094,
    " grandes": 11095,
    "Union": 11096,
    " Mag": 11097,
    " couv": 11098,
    "orter": 11099,
    "ama": 11100,
    " navi": 11101,
    "no": 11102,
    "orde": 11103,
    "itch": 11104,
    " méc": 11105,
    " 🌊": 11106,
    "lications": 11107,
    "rès": 11108,
    " réser": 11109,
    " gare": 11110,
    " 📉": 11111,
    " mob": 11112,
    " œuvres": 11113,
    " important": 11114,
    "bres": 11115,
    " ving": 11116,
    " artis": 11117,
    " marque": 11118,
    " Gre": 11119,
    " enreg": 11120,
    " simple": 11121,
    " féd": 11122,
    " 1960": 11123,
    " Rome": 11124,
    "Db": 11125,
    " Ag": 11126,
    " cul": 11127,
    " 📝": 11128,
    " Dist": 11129,
    " zones": 11130,
    "quête": 11131,
    "ueil": 11132,
    " dirige": 11133,
    " Her": 11134,
    " perd": 11135,
    " candid": 11136,
    " professeur": 11137,
    "36": 11138,
    " Historique": 11139,
    " Ma": 11140,
    "ouverture": 11141,
    " Fer": 11142,
    " arm": 11143,
    "ctrice": 11144,
    " italien": 11145,
    "58": 11146,
    "ave": 11147,
    "196": 11148,
    " 🇺": 11149,
    " qualité": 11150,
    "leu": 11151,
    "fique": 11152,
    " consac": 11153,
    " Pers": 11154,
    " possible": 11155,
    "texte": 11156,
    " sept": 11157,
    "ym": 11158,
    "forme": 11159,
    "oux": 11160,
    " Québec": 11161,
    "oz": 11162,
    " systèmes": 11163,
    " lac": 11164,
    " télévis": 11165,
    "landais": 11166,
    " industri": 11167,
    " fourn": 11168,
    " â": 11169,
    "38": 11170,
    "dy": 11171,
    "aite": 11172,
    " lorsqu": 11173,
    "igneur": 11174,
    " auprès": 11175,
    " Joseph": 11176,
    " Arch": 11177,
    "lication": 11178,
    " circons": 11179,
    " Port": 11180,
    " assez": 11181,
    " Nouvelle": 11182,
    " 1989": 11183,
    " rapidement": 11184,
    " Philippe": 11185,
    " recense": 11186,
    " diffus": 11187,
    " \\": 11188,
    "act": 11189,
    " doi": 11190,
    "emb": 11191,
    "lant": 11192,
    " charge": 11193,
    "avait": 11194,
    " Europe": 11195,
    " lance": 11196,
    " 1988": 11197,
    "ael": 11198,
    " Mi": 11199,
    " journal": 11200,
    " européenne": 11201,
    "tention": 11202,
    " sac": 11203,
    "état": 11204,
    " pil": 11205,
    " Éditions": 11206,
    " rejoint": 11207,
    " 🚫": 11208,
    " We": 11209,
    " anti": 11210,
    "olf": 11211,
    " compagnie": 11212,
    " inv": 11213,
    "atrice": 11214,
    " Comme": 11215,
    " plupart": 11216,
    " numéro": 11217,
    " née": 11218,
    " 🇮": 11219,
    "érieure": 11220,
    " Martin": 11221,
    "90": 11222,
    " ci": 11223,
    " course": 11224,
    " reçoit": 11225,
    " Bien": 11226,
    " del": 11227,
    " Ter": 11228,
    "ight": 11229,
    " droite": 11230,
    " bel": 11231,
    "47": 11232,
    " sépar": 11233,
    "ancien": 11234,
    " historiques": 11235,
    " 🏘": 11236,
    " permettant": 11237,
    " essenti": 11238,
    "honneur": 11239,
    "igh": 11240,
    " méth": 11241,
    " 🇨": 11242,
    " campagne": 11243,
    "marès": 11244,
    "own": 11245,
    " forces": 11246,
    "ètes": 11247,
    "46": 11248,
    " nuit": 11249,
    "édé": 11250,
    " libre": 11251,
    " généralement": 11252,
    " transf": 11253,
    " appr": 11254,
    " von": 11255,
    " Sam": 11256,
    " Bas": 11257,
    " groupes": 11258,
    "istance": 11259,
    " lut": 11260,
    " bless": 11261,
    " Vi": 11262,
    "uration": 11263,
    "anisme": 11264,
    " mine": 11265,
    " espèces": 11266,
    " XII": 11267,
    " accomp": 11268,
    " Prin": 11269,
    " lab": 11270,
    "gal": 11271,
    " total": 11272,
    " kilomètres": 11273,
    " édition": 11274,
    "rict": 11275,
    " Ass": 11276,
    " 1971": 11277,
    " vois": 11278,
    " As": 11279,
    " Aw": 11280,
    "matique": 11281,
    " augment": 11282,
    "ena": 11283,
    " Grande": 11284,
    "ètre": 11285,
    "roche": 11286,
    "itesse": 11287,
    "ager": 11288,
    "urer": 11289,
    " plac": 11290,
    " direc": 11291,
    " Belgique": 11292,
    " dirig": 11293,
    "ducation": 11294,
    " législ": 11295,
    ".)": 11296,
    " déclar": 11297,
    "édie": 11298,
    " ill": 11299,
    " National": 11300,
    "pol": 11301,
    " desc": 11302,
    " opéra": 11303,
    " 🗣": 11304,
    "raine": 11305,
    "onomie": 11306,
    "bo": 11307,
    "ignement": 11308,
    " Ier": 11309,
    " bâtiment": 11310,
    "39": 11311,
    " faible": 11312,
    " appelé": 11313,
    " commande": 11314,
    "vée": 11315,
    " celles": 11316,
    " finalement": 11317,
    "ologiques": 11318,
    " yeux": 11319,
    " Christ": 11320,
    " minist": 11321,
    " modi": 11322,
    " dyn": 11323,
    "lect": 11324,
    " droits": 11325,
    "olas": 11326,
    " résid": 11327,
    " °": 11328,
    "don": 11329,
    " 💥": 11330,
    "49": 11331,
    "asc": 11332,
    " Ligue": 11333,
    "ministration": 11334,
    "ita": 11335,
    "AR": 11336,
    " indivi": 11337,
    "heure": 11338,
    " 🗓.": 11339,
    " Cela": 11340,
    "onyme": 11341,
    " Go": 11342,
    "stitut": 11343,
    "ourt": 11344,
    "abilité": 11345,
    " Russie": 11346,
    " Database": 11347,
    "inte": 11348,
    " attrib": 11349,
    " hors": 11350,
    "ora": 11351,
    "inture": 11352,
    "avoir": 11353,
    " pont": 11354,
    "ja": 11355,
    "rive": 11356,
    " réguli": 11357,
    " 1986": 11358,
    "quée": 11359,
    "rac": 11360,
    " philosoph": 11361,
    " tém": 11362,
    "vir": 11363,
    "ovis": 11364,
    " double": 11365,
    " époque": 11366,
    "TP": 11367,
    " scul": 11368,
    " envoy": 11369,
    "uest": 11370,
    " villes": 11371,
    " ⚖": 11372,
    "way": 11373,
    "tell": 11374,
    " notre": 11375,
    " Cent": 11376,
    " mémoire": 11377,
    "ives": 11378,
    "acement": 11379,
    " Sainte": 11380,
    " critique": 11381,
    "ks": 11382,
    " fou": 11383,
    " Wal": 11384,
    " taille": 11385,
    "MS": 11386,
    " loin": 11387,
    " chac": 11388,
    "aie": 11389,
    " proche": 11390,
    "itation": 11391,
    " pub": 11392,
    " Er": 11393,
    " 500": 11394,
    " ancienne": 11395,
    " force": 11396,
    "écu": 11397,
    " Tout": 11398,
    " plate": 11399,
    " défense": 11400,
    "tue": 11401,
    " réseaux": 11402,
    " Syn": 11403,
    " expéri": 11404,
    "tellig": 11405,
    "avec": 11406,
    "za": 11407,
    " 1987": 11408,
    " march": 11409,
    "lande": 11410,
    "och": 11411,
    "onie": 11412,
    " 🇩": 11413,
    " Déc": 11414,
    "gue": 11415,
    "tées": 11416,
    "quet": 11417,
    "AP": 11418,
    " particulièrement": 11419,
    " termin": 11420,
    " suis": 11421,
    " source": 11422,
    " conç": 11423,
    " dég": 11424,
    " Pat": 11425,
    " fav": 11426,
    "prit": 11427,
    " én": 11428,
    "rondissement": 11429,
    " Ainsi": 11430,
    "ott": 11431,
    " mieux": 11432,
    " Georges": 11433,
    " voie": 11434,
    "44": 11435,
    " Wh": 11436,
    "alogue": 11437,
    " élu": 11438,
    " 🌐": 11439,
    " unique": 11440,
    " Form": 11441,
    "oins": 11442,
    " Dou": 11443,
    " duc": 11444,
    " classement": 11445,
    "VF": 11446,
    " Pol": 11447,
    "illé": 11448,
    " matchs": 11449,
    "eld": 11450,
    " 🏡": 11451,
    "dique": 11452,
    "reux": 11453,
    "ainqueur": 11454,
    "rouve": 11455,
    " ensemble": 11456,
    " troupes": 11457,
    " comprend": 11458,
    "pen": 11459,
    " Ros": 11460,
    " Richard": 11461,
    " tempéra": 11462,
    " Chine": 11463,
    " Bal": 11464,
    "ereur": 11465,
    " lire": 11466,
    "Uni": 11467,
    " 🇺🇸": 11468,
    " mettre": 11469,
    " cm": 11470,
    " Dieu": 11471,
    " prév": 11472,
    " enti": 11473,
    "comm": 11474,
    "ternet": 11475,
    " nouveaux": 11476,
    "ji": 11477,
    "expl": 11478,
    "nie": 11479,
    "termin": 11480,
    "Est": 11481,
    "mblée": 11482,
    " Palmarès": 11483,
    "uste": 11484,
    " étrang": 11485,
    " arrê": 11486,
    "ren": 11487,
    " 🎬": 11488,
    " épis": 11489,
    "ya": 11490,
    " santé": 11491,
    "ga": 11492,
    " Thomas": 11493,
    " Festival": 11494,
    "luence": 11495,
    " 🥇": 11496,
    " Royaume": 11497,
    " Alexand": 11498,
    " Stra": 11499,
    " Bernard": 11500,
    "chet": 11501,
    "ergie": 11502,
    "inté": 11503,
    "occ": 11504,
    "ider": 11505,
    " construit": 11506,
    " ailleurs": 11507,
    " ####": 11508,
    " civ": 11509,
    " rouge": 11510,
    "otes": 11511,
    " résultats": 11512,
    " 🎶": 11513,
    " vé": 11514,
    " règ": 11515,
    "ko": 11516,
    "atur": 11517,
    " accue": 11518,
    "itant": 11519,
    " sols": 11520,
    " haute": 11521,
    "Italie": 11522,
    "ford": 11523,
    "ides": 11524,
    " Éc": 11525,
    " Press": 11526,
    "itations": 11527,
    "oyen": 11528,
    "résil": 11529,
    "time": 11530,
    "verse": 11531,
    "aix": 11532,
    " Ke": 11533,
    " 💔": 11534,
    " champion": 11535,
    " Cré": 11536,
    "ye": 11537,
    " annonce": 11538,
    "**.": 11539,
    " Univers": 11540,
    " trib": 11541,
    "tig": 11542,
    "ault": 11543,
    " 35": 11544,
    " Sy": 11545,
    " comté": 11546,
    " maître": 11547,
    " Club": 11548,
    "aris": 11549,
    "und": 11550,
    " presque": 11551,
    " possède": 11552,
    " texte": 11553,
    "tié": 11554,
    "anth": 11555,
    "hum": 11556,
    " épisode": 11557,
    " importante": 11558,
    "32": 11559,
    "34": 11560,
    "rot": 11561,
    "ications": 11562,
    "unesse": 11563,
    " évé": 11564,
    " Mac": 11565,
    " regard": 11566,
    " Ju": 11567,
    " Cin": 11568,
    " sing": 11569,
    " orient": 11570,
    "fie": 11571,
    "reuve": 11572,
    " générale": 11573,
    " monuments": 11574,
    " faisant": 11575,
    " observ": 11576,
    "omie": 11577,
    " end": 11578,
    " économique": 11579,
    " existe": 11580,
    " Sm": 11581,
    " stu": 11582,
    " mess": 11583,
    " Beau": 11584,
    " salle": 11585,
    "rement": 11586,
    " populaire": 11587,
    " Vie": 11588,
    "rat": 11589,
    "Pierre": 11590,
    "alyse": 11591,
    " souh": 11592,
    " atteint": 11593,
    " 1982": 11594,
    " nav": 11595,
    " métro": 11596,
    "89": 11597,
    " ⛪": 11598,
    " 🇬": 11599,
    "hic": 11600,
    " IM": 11601,
    "çant": 11602,
    "aide": 11603,
    "Allemagne": 11604,
    "ination": 11605,
    " personnage": 11606,
    "ogne": 11607,
    " chaî": 11608,
    " Rég": 11609,
    " Seconde": 11610,
    "ague": 11611,
    "anterie": 11612,
    " Tom": 11613,
    "aller": 11614,
    " 1984": 11615,
    " 1985": 11616,
    " parois": 11617,
    "ops": 11618,
    "nov": 11619,
    " chant": 11620,
    "ulation": 11621,
    "tempor": 11622,
    " éditions": 11623,
    " Français": 11624,
    " pratique": 11625,
    "fort": 11626,
    " Public": 11627,
    " Champ": 11628,
    " améli": 11629,
    " Bri": 11630,
    " histoire": 11631,
    "erb": 11632,
    "arm": 11633,
    "^{": 11634,
    " programme": 11635,
    "range": 11636,
    " vu": 11637,
    "IA": 11638,
    " connue": 11639,
    "log": 11640,
    " Musée": 11641,
    " départ": 11642,
    ".-": 11643,
    "entrée": 11644,
[...]
